, 240431
ơ@@ 211873
p@@ 128959
tơ@@ 108939
h 92594
' 90237
̆@@ 84753
i 84681
. 81697
ng 78140
d@@ 69624
j@@ 68456
k@@ 67267
ĕ@@ 63690
rong 54767
k 52305
ơm 49646
h@@ 49148
b@@ 48489
l 47998
ă 40774
ĭ 37416
t 37412
ĭ@@ 36305
l@@ 34081
g@@ 33839
rim 32557
m 32198
ad@@ 29875
ŭ@@ 29779
p 29745
năm 28424
lơ@@ 28333
r@@ 28258
và 27711
các 27590
we@@ 26576
u 26159
ch 25458
ô@@ 24211
đơ@@ 23738
ung 23547
n@@ 23340
ŏ@@ 23108
y@@ 22121
ă@@ 21821
ăn 21169
đ@@ 20513
̆ 19827
nh@@ 19660
trong 17699
ŏ 17518
; 17384
u@@ 17043
sơ@@ 16953
của 16677
n 16646
Y@@ 16335
minh 15389
nh 15057
m@@ 14854
ma 14349
ở 13955
có 13823
r 13653
ng@@ 12736
: 12635
được 12255
ho@@ 12143
huyện 12028
đi 12008
ê@@ 11842
long 11725
inh 11716
no@@ 11476
với 11026
đa@@ 10950
nang 10838
đang 10713
nam 10707
t@@ 10650
trương 10543
cho 10471
at@@ 10290
jung 10250
ô 10077
cham 10038
Vĩnh_Thạnh 9916
ơ 9608
la 9398
kông 9292
ưng 9267
măng 9227
" 9190
thu 9170
ring 9058
đã 9057
khan 8908
tru@@ 8781
tho 8446
on 8364
sa 8346
không 8321
an 8154
ch@@ 8001
UBND 7875
làng 7870
thực_hiện 7630
xã 7550
học 7511
để 7444
về 7380
ing 7315
sư 7307
c 7192
đe@@ 7183
ro@@ 7124
ang 7093
J@@ 7091
al@@ 7024
lớp 7022
ôn 7017
nă@@ 7008
tr@@ 6955
trên 6918
̂@@ 6852
tinh 6757
ư 6724
hôi 6691
glo@@ 6661
i@@ 6570
bo@@ 6440
lo@@ 6429
ph@@ 6357
ao 6342
B@@ 6340
ngai 6297
lư 6187
xây_dựng 6149
riêng 6144
( 6122
người 6089
) 6038
là 6034
đông 6013
tỉnh 5980
ăt 5896
/ 5891
- 5824
theo 5724
Nă@@ 5705
iêu 5556
um 5448
anh 5336
o@@ 5336
mư@@ 5336
ap@@ 5336
hơ@@ 5331
huyên 5251
ê 5147
những 5090
xa 5039
đến 5033
ei 5022
s@@ 4975
ư@@ 4874
tổ_chức 4858
yu@@ 4809
kh@@ 4726
ks@@ 4713
yo@@ 4711
Đảng 4710
v@@ 4686
tơ 4667
K@@ 4629
H@@ 4628
ât 4613
công_tác 4610
qua 4606
phát_triển 4552
ngày 4542
te@@ 4528
tại 4426
đe 4419
x@@ 4385
ên 4369
Đ@@ 4366
w@@ 4351
– 4324
an@@ 4245
tê 4238
tăm 4232
cho@@ 4210
hoa 4163
du@@ 4103
ăm 4069
địa_bàn 4044
thi 4037
anu 4028
am 4019
1 4014
trường 4003
pu@@ 3991
ua 3985
làm 3965
phong 3959
ku@@ 3952
sản_xuất 3946
bô 3923
nghiêp 3913
2019 3883
ăng 3883
Pơ@@ 3872
êng 3870
ru@@ 3864
việc 3829
trường_học 3768
ri 3766
đô 3743
Tơ@@ 3723
đinh 3723
một 3720
lei 3706
mới 3675
rơ@@ 3649
2020 3624
kinh 3624
vào 3597
Vĩnh_@@ 3589
Bình_Định 3542
sơ 3535
trinh 3530
hộ 3511
nu@@ 3508
Hội 3487
từ 3485
mai 3471
sinh 3456
cao 3453
địa_phương 3403
pal 3398
L@@ 3394
ari@@ 3392
sư@@ 3354
ra 3322
2 3302
nhà 3291
đoan 3211
cái 3176
như 3137
ngo 3133
uy 3124
đó 3116
ŭ 3095
mang 3088
đồng 3061
3 3037
dr@@ 3025
ul 3001
nghèo 2996
chơ@@ 2979
thoi 2974
y 2973
nông_thôn 2960
chư@@ 2955
xu@@ 2953
rao 2914
đấy 2897
nu 2896
tao 2884
ha 2871
in 2864
chính_sách 2829
cấp 2824
sự 2807
đạt 2805
kinh_tế 2797
viên 2790
Trong 2784
toan 2773
chi 2768
ôi 2765
cây 2760
đan 2751
lê@@ 2735
a 2729
đăng 2721
cùng 2703
rê@@ 2692
thôn 2688
5 2662
ar@@ 2656
cơ_sở 2649
kê@@ 2629
ah 2622
hoạt_động 2615
số 2595
gia_đình 2592
ngoài 2578
Ban 2555
con 2549
ba 2542
tanh 2542
đất 2540
ak@@ 2523
the 2508
tốt 2495
lại 2487
chinh 2479
ban 2450
phân 2449
pli@@ 2448
U@@ 2416
nhiều 2404
rông 2404
Ở 2389
lắm 2369
ah@@ 2359
rol 2359
di@@ 2343
xã_hội 2335
10 2318
Sở 2315
o 2290
tri 2275
thê 2273
mô 2269
lu@@ 2265
liêm 2256
9 2252
nhôm 2228
củi 2218
rừng 2216
an_ninh 2215
iêm 2206
nghê 2194
thăm 2191
đu@@ 2183
ai 2181
sa@@ 2180
e@@ 2174
hanh 2174
hơ 2171
tê@@ 2170
bi 2167
người_dân 2161
at 2148
sang 2145
này 2136
4 2120
sân 2120
khu@@ 2118
ngành 2100
nước 2094
thu@@ 2091
Vĩnh_Sơn 2085
nông 2081
chỉ_đạo 2079
nông_dân 2073
đầu_tư 2067
mô_hình 2067
dân 2062
ưm 2057
ngư@@ 2036
tuyên_truyền 2032
M@@ 2030
6 2029
trơ 2028
thường 2015
pl@@ 2011
còn 2009
lên 2006
ty 1997
Ah@@ 1996
nhiệm_vụ 1991
cơ 1989
ky 1984
san 1979
bok 1979
tiêu 1976
văn_hoá 1967
ap 1966
ka@@ 1959
giống 1954
Lúc 1951
văn_@@ 1951
lang 1950
sau 1944
dân_tộc 1935
đồng_bào 1933
hội_viên 1932
… 1917
ngu@@ 1903
bảo_vệ 1900
chương_trình 1894
vận_động 1894
gi@@ 1891
tạo 1885
tôi 1885
le@@ 1880
chợ 1863
giao 1852
ran 1845
Rim 1842
hai 1831
lương 1826
tư 1822
Minh 1816
Việt_Nam 1814
mình 1798
nay 1797
tớ 1785
a@@ 1785
lư@@ 1784
8 1783
tô 1779
liên 1776
trước 1772
tich 1763
an_toàn 1762
triển_khai 1757
phong_trào 1756
chu 1754
cũng 1753
lúc 1753
thanh 1751
ting 1745
giúp 1732
br@@ 1713
mơ@@ 1706
bal 1706
đam 1699
au 1689
7 1675
em 1672
hơn 1663
đai 1663
đầu 1662
đ 1655
nâng 1643
góp_phần 1642
trân 1642
go@@ 1638
rất 1631
quy_định 1624
khi 1621
mo 1621
hiệu_quả 1615
lai 1612
điều_kiện 1608
Hồi 1608
iển 1607
ke@@ 1604
vu 1598
ve@@ 1587
hỗ_trợ 1578
giảm 1572
ân 1571
hồ 1555
tới 1555
tháng 1553
Vĩnh_Thuận 1549
P@@ 1549
Chủ_tịch 1545
mir 1544
Ad@@ 1543
rồi 1542
nap 1542
vốn 1529
quản_lý 1514
khai_tr@@ 1511
học_tập 1508
lúa 1505
đường 1495
lấy 1489
ling 1488
thị_trấn 1479
la@@ 1477
Sa 1477
quy 1471
kế_hoạch 1468
dân_tộc_thiểu_số 1456
nguồn 1456
Quyết_định 1453
as@@ 1446
rat 1442
kì 1439
Bo@@ 1435
nhân 1430
trợ_giúp 1429
100% 1425
ơng 1425
phối_hợp 1415
ông 1412
bán 1411
khu 1405
Kim 1400
Tru@@ 1400
đời_sống 1397
dư 1395
19 1391
cán_bộ 1390
ơ-@@ 1387
Các 1385
miền 1373
Ngày 1371
nai 1362
Bộ 1361
triệu 1357
đơn 1356
chiều 1354
tiếp_tục 1348
th@@ 1345
me 1341
tăng 1336
công 1336
HĐND 1331
trồng 1330
tích_cực 1328
it 1327
cơ_quan 1322
kết_quả 1316
Đại_hội 1314
kong 1310
Ba 1306
chất_lượng 1303
khó_khăn 1298
tiê@@ 1291
môi 1288
̂ 1288
kia 1286
tham_gia 1283
trồng_trọt 1280
am@@ 1279
sử_dụng 1275
đôi 1270
thông 1267
thương 1263
tam 1261
loại 1260
bằng 1257
giáo_dục 1257
ko@@ 1255
môi_trường 1253
chương 1241
Hội_đồng 1239
đơn_vị 1236
ong 1236
to 1230
xem 1229
lao_động 1226
Vĩnh_Hoà 1223
tương_trợ 1221
ka 1221
ab@@ 1217
Qua 1209
khai 1205
dùng 1203
điêu 1198
Sáng 1197
đối_với 1195
om 1195
nội_dung 1194
Khi 1190
đảm_bảo 1190
sáng 1187
sinh_viên 1185
ngo@@ 1182
Trung_ương 1181
liên_quan 1176
Nông_nghiệp 1173
cô 1173
bảo_đảm 1172
Chu 1171
thì 1170
iê@@ 1161
vùng 1159
ge@@ 1158
kết_hợp 1156
mua 1153
tro 1152
chưa 1150
nhất 1148
phai 1148
Tho@@ 1148
nông_nghiệp 1147
hội 1146
vụ 1145
ro 1144
đúng 1138
lê_@@ 1137
đẩy_mạnh 1136
thả 1135
bị 1134
nhân_dân 1133
tu@@ 1128
bư@@ 1126
lãnh_đạo 1124
cần 1122
Đảng_bộ 1114
phải 1113
sẽ 1106
rẫy 1106
công_trình 1106
chính_quyền 1103
cách 1100
núi 1099
đồng_chí 1095
khác 1088
chăn_nuôi 1086
lâm 1085
bãi 1079
chính_trị 1079
toàn 1075
học_sinh 1072
một_số 1067
lần 1064
tình_hình 1063
nuôi 1063
Liên_hoan 1062
thời_kì 1062
do 1054
nên 1052
đây 1051
-@@ 1041
ơn 1037
phát_huy 1037
vi 1035
thi_đua 1033
ly 1033
da@@ 1031
gang 1031
công_hiệu 1030
Đến 1030
nhau 1029
hệ_thống 1029
Khu@@ 1024
tha@@ 1023
biết 1020
đê 1020
tương 1019
lạ 1018
Công_an 1014
công_an 1013
cá 1010
lak 1007
truyền_thống 1006
na 1005
Huyện_uỷ 1001
Định_@@ 1000
gần 997
cây_trồng 994
cày 993
02 991
Trung_tâm 986
ni 982
pơ 981
rau 979
Chương_trình 979
đoàn_thể 978
dự 978
hoặc 976
thiên_tai 976
luôn 975
cận 973
D@@ 972
Ơ@@ 971
thuộc 970
tham_dự 965
Đang 963
vươn 957
Phó 956
vườn 953
tô@@ 952
hi@@ 951
il 947
phê 947
phục_vụ 945
tui 944
dự_án 941
Đinh_@@ 940
bò 938
trăm 936
gà 936
ôc 934
tăng_cường 927
xử_lý 926
thông_tin 916
so@@ 914
Ng@@ 914
ôm 911
kịp_thời 910
phòng 906
thời_gian 905
thuốc 904
Nhà_nước 903
? 903
01 895
giao_thông 893
bà_con 889
12 888
Điều 887
đoàn 887
biê@@ 887
Co@@ 886
ta@@ 885
ami 884
Đai 884
quần_chúng 883
từng 883
ngh@@ 881
MTTQ 879
tỷ 878
đo@@ 876
lớn 874
cả 872
y_tế 872
ươ@@ 872
tinh_thần 871
Hảo 866
trẻ_em 865
quan_@@ 864
tỷ_lệ 863
Ê@@ 863
hơp 863
diện_tích 861
hương 861
kinh_phí 860
dân_chúng 858
dưới 858
ti@@ 858
gô 858
ớ 857
chống 855
im 854
ky@@ 847
chu@@ 847
# 844
năng 840
ach 839
Adri@@ 836
sinh_hoạt 831
đặc_biệt 829
lo 829
i_t@@ 827
thư@@ 827
mục_tiêu 826
thư 826
dịch_bệnh 824
đối_tượng 821
thấy 821
làm_việc 819
đều 818
30 817
Sơ_@@ 815
2025 814
đảng_viên 814
rin 814
tập_trung 813
thịt 810
nghi 807
đào_tạo 806
đâu 802
ia 802
đô@@ 798
vừa 797
ăk 793
thêm 792
khoang 792
Những 791
rang 791
ne 791
vid@@ 787
ữa_@@ 786
đưa 783
đề_án 781
phat 781
Buổi 779
Vĩnh_Thịnh 779
mi@@ 778
điều 774
ổn_định 774
che@@ 774
CCB 773
chị 772
tiền 771
xuống 771
ưu 771
Chính_phủ 764
cành 763
nhằm 762
Kế_hoạch 758
ranh 758
giải_quyết 756
đi@@ 756
thuỷ_sản 751
lượt 749
Theo 749
tối 749
mỗi 747
Đồng_thời 747
tụ_tập 747
re 747
tâng 747
Để 745
vân 744
dân_@@ 742
âm 742
gây 741
phun 739
vê 737
đao 733
pháp_luật 732
Từ 732
Sư 730
Thu 728
kg 728
Ph@@ 727
đạo_đức 726
trò_chuyện 725
chê@@ 725
Quốc_gia 724
kiểm_tra 724
đủ 720
yêu_cầu 718
dang 717
hê 716
sức_khoẻ 713
Thực_hiện 713
nói_chuyện 712
giai 712
Ch@@ 712
Phát_triển 711
hàng 711
giải_pháp 710
ĕ 710
chung 705
nghề 704
qu@@ 704
hư@@ 704
15 702
Nh@@ 701
dân_cư 698
thứ 698
chín 696
chuyện_trò 695
quan_tâm 694
biện_pháp 694
liên_hệ 694
Hôm 692
ken 692
Có 690
hô 690
biển 689
le 688
khai_thác 686
kỹ_thuật 685
bệnh 685
cạnh 684
T@@ 684
nữa 684
hl@@ 684
LHPN 683
lực_lượng 682
100 680
na@@ 678
nhưng 676
thực_phẩm 676
bo 675
Tại 674
quy@@ 674
dịch 672
Trường 672
trẻ_con 672
Hiệp 672
tra@@ 672
chỗ 671
su@@ 669
hu@@ 668
tă@@ 668
thẩm_tra 664
giám_sát 660
chủ_động 660
Nông 659
gương 658
N@@ 658
đại_biểu 657
điên 657
quả 656
Nghị_quyết 656
cuộc 655
bác 654
al 652
nhất_là 650
cụ_thể 649
Bên 649
màu 649
phụ_nữ 648
sớm 646
lá 644
nghề_nghiệp 644
vệ_sinh 643
pô 640
Đề_án 638
thanh_niên 637
Tổ_chức 636
kỳ 636
luật_pháp 636
việc_làm 635
phô@@ 635
hoài 632
Với 632
trâu 632
mùa 631
bao 630
hang 630
nguyên 629
êm 628
ngày_càng 627
nơi 627
hướng_dẫn 625
bu 625
chủ_trương 623
lich 622
nơ@@ 622
tai 620
Nghi 620
Sơ@@ 619
quốc_gia 617
trang 617
ti 615
Hồ_Chí_Minh 614
nãy 614
quân 614
de@@ 613
Quang 611
thị_xã 611
tuổi 609
hết 607
Năm 606
... 606
tep 606
rô@@ 606
bước 605
giữ 604
thủ_tục 600
mu@@ 599
anh_trai 598
tông 598
cấp_uỷ 593
giữa 592
S@@ 592
tiêu_chí 591
tư_tưởng 589
tập_huấn 588
05 588
jo 586
đề_nghị 585
Sau 584
nghiêm 583
xanh 583
võ 583
mặt 582
tin 581
lĩnh_vực 580
! 579
dăm 579
DTTS 578
vay 577
chơ 577
giá_trị 576
bốn 576
tuyên 576
đê@@ 576
Nam 575
Tr@@ 573
Lư 573
bảy 572
ta 570
ngân_sách 570
HCM 570
hành_chính 568
_H@@ 568
khoảng 566
khoa 566
hôm_nay 565
họp 564
mi 563
Hôm_@@ 562
cá_nhân 560
Bình 560
chú 559
chỉ_dẫn 558
phi 558
thiết_thực 557
báo_cáo 557
thành_phố 555
Th@@ 554
sản_phẩm 553
Bác 552
cuộc_sống 551
năng_suất 549
đồng_thời 548
Về 547
Giám_đốc 547
binh 547
vi_phạm 547
â@@ 547
tổng 546
tiến_hành 546
bà 543
tho@@ 543
vẫn 542
KHKT 542
Phòng 541
tuk 540
thao 539
V@@ 536
sạch 535
mười 532
đoạn 532
phát 531
trường_hợp 531
2015 531
kiêm 529
thu_nhập 527
văn 527
nông_lâm 527
Ánh 526
quà 525
nhận_thức 525
rựa 521
mà 521
kiên 521
khu_vực 520
Xây_dựng 519
Đê 519
trái 518
bô@@ 518
chỉ 517
to@@ 517
phòng_chống 516
âu 515
2018 514
Văn_hoá 514
vay_mượn 514
ịnh 514
5@@ 513
non 513
Hồ_Xuân_@@ 513
20 512
ple@@ 512
sâu 511
sáu 510
trách_nhiệm 509
Bí_thư 508
ưa 508
hướng 507
dai 507
bổn_phận 507
_@@ 507
thành_viên 506
Nông_dân 506
c@@ 506
manh 506
cộng_đồng 505
Quy_Nhơn 505
Đoàn 504
nhiệm_kỳ 504
mắt 503
xứ 503
en 501
trẻ 500
tiêm 500
châ@@ 500
giai_đoạn 499
bố 499
hoàn_thành 498
eh 497
thâm 496
Măng 496
ít 495
mưa 495
phong_cách 493
thành_lập 492
mo@@ 492
& 491
Hôm_qua 490
35 490
tiến_bộ 488
2021 487
danh 487
xảy 486
nhà_nước 485
trung 485
nhâ@@ 485
tưới 484
tám 484
Kon_@@ 482
thiê@@ 482
Du@@ 482
Chi 481
nan 481
trao 480
cu 480
Chương 480
Gi@@ 479
ngu 479
chi@@ 477
but 477
50 476
chi_bộ 475
gọi 474
Anh 474
NHCSXH 474
hay 473
hạn_chế 472
ki@@ 472
sống 471
Giáo_dục 471
ba_@@ 471
chuyên 471
kinh_doanh 470
công_dân 469
chê 468
sông 468
dạy 467
kể 466
điều_tra 466
bu@@ 465
PTNT 464
rể 463
thoát 463
bra 463
ban_hành 462
chuẩn_bị 459
roi 459
nhem 459
ngân 459
atu@@ 458
giao_lưu 457
kết_@@ 457
vững_mạnh 457
tra 457
rộng 456
ngô 456
chạy 455
Làng 454
phương 454
bổ_sung 453
buổi 452
tuyến 452
đăng_ký 451
suất 451
QĐ-TTg 451
tum 451
met 450
phù_hợp 449
có_thể 449
Thời_@@ 448
quá 447
nho 447
Được 446
phòng_ngừa 446
ời 446
truy@@ 446
centimet 446
phô 445
lập 444
ngoai 444
Việc 443
Pho 442
Chỉ_đạo 440
4@@ 440
Người 439
11 439
di 439
chi_hội 438
sưa 438
Đảng_uỷ 435
uy@@ 435
phá 434
quá_trình 434
2016 434
thu_hoạch 434
sô 432
huy 432
chị_gái 431
mọi 431
đô_thị 431
trật_tự 431
Văn 431
cm 430
gắn 430
vật_nuôi 430
đánh_giá 430
Một 429
dài 429
km 428
tay 428
Đi 427
li@@ 427
gồm 426
đem 426
li 426
THPT 425
phần 425
cuối 425
Tinh 425
Trạm 423
ke 423
cơ_cấu 422
Ngân_hàng 420
03 420
tổng_hợp 419
chuyên_môn 418
cậu 418
đen 418
đàn 417
suốt 417
chặt 417
Bảo 417
Tỉnh_uỷ 417
Thông_tư 416
vì 416
kê 416
bữa_@@ 415
sở 415
băng 415
hecta 415
trưa 414
mương 413
Ông 410
2017 410
ac 410
1000 408
iêng 408
Hiện_nay 405
thơ@@ 405
đợt 404
bet 404
XIII 403
lơi 403
vật_chất 402
ương 402
hồi 401
hình_thức 401
Thời_gian 401
Đối_với 401
thôi 401
MTTQVN 401
si 401
quy_trình 400
dượng 399
Toàn 399
hành_động 398
lung 398
thường_xuyên 397
xoá_đói_giảm_nghèo 397
làng_nghề 397
tiên 397
apo@@ 397
Hội_đồng_nhân_dân 396
gia_cầm 395
vấn_đề 395
kiểm_soát 394
Trưởng 394
rac 394
bền_vững 393
chịu 393
điểm 393
bận 393
đoàn_kết 393
lắp 393
An@@ 393
dơ 393
nôi 393
thông_qua 392
ning 392
ji 391
văn_minh 390
biếu 390
dì 388
Phong 388
et 388
Lễ 387
tặng 386
xuất_hiện 386
khô 386
re@@ 386
ưu_tiên 385
Huỳnh_Đức_@@ 384
Lê_Văn_@@ 384
bi@@ 384
Căn_cứ 383
trở 383
QĐ-UBND 383
bum 383
giáo_viên 382
yu 382
Công_tác 381
tham_quan 381
bôi 381
xinh 380
nhỏ 380
chỉ_tiêu 379
cung 379
liêu 379
gia 378
suối 378
thâm_canh 378
tham_mưu 377
huy_động 377
kilôgam 377
thành 376
nhu_cầu 376
đáp_ứng 375
phấn_đấu 374
Tai 374
bak 374
gia_súc 373
khoan 373
đại_hội 370
giá 370
vàng 370
O@@ 370
lui 370
nguồn_lực 369
thời_@@ 369
hoàn_tất 369
heo 367
yuk 367
mẹ 366
vững_bền 366
thím 365
so 365
dòng 365
Sơ 365
chính 364
bé 364
giấy 364
bố_trí 362
quy_hoạch 361
đẹp 361
ênh 361
nha@@ 360
jan 360
vui 359
t_@@ 359
Ngh@@ 359
an_sinh 358
mợ 357
Huyên 357
A@@ 356
thầy_giáo 355
đàn_bà 354
nêu 354
phê_duyệt 354
Đẩu 354
dơi 354
khuyên 354
40 353
chén 353
ca@@ 353
dal 353
đảng_bộ 352
.. 352
kham 351
chức_năng 350
chặt_chẽ 349
Chỉ_thị 349
khâu 349
đại_đoàn_kết 348
25 347
đóng_góp 346
thành_thị 346
nọ 346
Dự_án 346
6@@ 346
ma@@ 346
Trương 346
ai@@ 345
ngay 344
nào 344
chấm 343
A 343
lâm_nghiệp 343
1.@@ 343
ly@@ 343
xơi 342
đớp 342
tau 342
khoá 341
biến_đổi 341
vo 340
nghe@@ 340
đề 339
duy@@ 339
Quản_lý 338
quê_hương 338
chuyên_đề 338
Uỷ_ban_nhân_dân 338
Tà_@@ 338
Đào_tạo 337
bê 337
Biên 337
lò 336
dung 335
hop 335
chưng 335
nâng_cấp 334
môn 333
gặp 332
rau_an_toàn 332
tư_vấn 332
niêm 332
Nghị_định 331
nữ_giới 331
tín_dụng 331
ơi 331
nỗ_lực 330
tech 330
lưng 329
cư 329
củng_cố 328
Hiện_giờ 328
Chủ_trì 328
nâu 328
biên 326
diên 326
vật_tư 325
R@@ 325
đua 325
tia 325
coi_@@ 323
nghe 323
gạo 323
văn_bản 322
mức 322
Hiện_th@@ 321
tiếp_cận 321
thai 321
canh 321
khám 320
chết 320
đa 320
phát_hiện 320
tham 320
cai 320
khôi 320
tấn 319
phang 319
quyết_định 318
cử_tri 318
hưởng_ứng 318
ngồi 318
nói 317
chuyển_đổi 317
mon 317
xê@@ 317
bắp 316
doanh_nghiệp 316
pa 316
gỗ 315
danh_sách 315
nhanh 315
trắng 315
bón 315
thứ_tự 315
han 315
Tăng_cường 314
má 314
Công_ty 314
bầy 313
chuyển_biến 313
ký 313
bộ 312
ăn_nhập 312
tỉa 312
ăc 312
quan_trọng 311
ng_@@ 311
tình_trạng 310
cha 309
tự 309
Đây 309
nuô@@ 309
mèo 308
công_nghiệp 308
sức 308
Dr@@ 308
X@@ 308
Ngày_@@ 308
kênh_mương 308
Thủ_tướng 307
chị_em 307
hố 307
UB@@ 307
lợn 306
lao 306
ứng_dụng 305
iên 305
trực_tiếp 304
niềm 304
cải_thiện 304
cách_mạng 304
Ho@@ 304
uống 303
khoa_học 303
thô@@ 303
kiến_nghị 302
kiến_thức 301
đầy_đủ 300
bê_tông 300
Phong_@@ 300
trai 300
'@@ 300
năng_lực 299
chim 299
đong 299
áo 298
quần 298
ha@@ 297
ji@@ 297
man 297
Thủ_trưởng 296
rõ 296
tính 296
mac 296
độ 295
Thể_thao 295
phê_chuẩn 295
Uỷ_ban 295
Ngày_mai 294
duy_trì 294
ế 293
Cùng 293
dưng 293
Luật 293
phu@@ 293
diễn 292
bạn 292
_l@@ 292
thăng 292
bơ 292
cùi 291
nghị 291
hôm_@@ 291
C@@ 291
du_lịch 291
Binh 291
pit 291
45 290
chăm_sóc 290
sánh 290
ne@@ 290
sat 290
dân_số 289
Tây_Sơn 289
Quyết_@@ 289
yếu 289
nấm 288
đuối 288
Không 287
tổ 287
Nhờ 287
đeo 287
gùi 287
nô@@ 287
tiêu_chuẩn 286
Thương_binh 286
Mùa 286
thực_tế 286
đảng 286
gốc 286
nghiê@@ 286
Đao 286
nếu 285
vai_trò 285
17 285
THCS 284
Xế 284
hái 284
quốc_phòng 284
G@@ 284
8@@ 283
lũ 282
hiện_giờ 282
Vụ 282
quy_mô 282
Mai 282
thân 281
Phối_hợp 281
chốn 281
lah 281
dịch_vụ 280
lễ 280
Hoàng_hôn 280
tranh 280
bầu 280
tâm 280
Hôm_nay 279
Trên 279
Diêu 279
Tài_chính 278
kỉ@@ 278
nhóm 278
tiếng 277
sự_nghiệp 277
hạt 277
túi 277
trông 277
học_viên 277
cắt 276
Kông 276
yol 276
ngựa 275
trạm 275
ôi_@@ 275
Kinh 275
kìa 274
trung_tâm 274
cam 274
cung_cấp 273
tiêu_thụ 273
thi_hành 272
Bí_th@@ 272
chuyển_giao 271
đề_@@ 271
Ku@@ 271
Cuộc 270
ngó 270
Văn_phòng 270
cưa 270
uyên 270
khoẻ 269
e 269
phu 269
Huyện 268
hội_@@ 268
thanh_tra 268
hiện 268
kiê@@ 268
ba@@ 268
chuối 267
xe 267
hại 267
đay 266
công_việc 266
chú_trọng 266
khoa_học_kỹ_thuật 266
mau 266
đổi_thay 266
2009 266
m2 266
chư 266
thuỷ_lợi 265
đá 265
kha@@ 265
gửi 264
tiết_kiệm 264
9@@ 264
Thương 264
Bô 264
pe@@ 263
chủ 262
lơ 262
khuyến_khích 261
kan 261
Nếu 260
tổng_số 260
hạnh_phúc 260
công_năng 260
thẩm_quyền 259
Ngoài_ra 259
dậy 259
phương_án 258
đề_xuất 258
khí_hậu 258
tầm 258
Bi 258
điện 257
Hội_nghị 257
khắc_phục 257
mực 257
kinh_nghiệm 257
Thường_trực 257
quyền 256
xét 256
vùng_cao 256
hư 256
Yu@@ 256
Bình_minh 255
số_lượng 254
tàu 254
chế_độ 254
dễ 254
m3 254
thời_tiết 253
động_vật 253
hồ_sơ 253
chơi 252
Kết_hợp 251
gian 251
khá 251
da 251
nhìn 250
phân_bón 250
Dân_vận 250
22 249
xây_dựng_gia_đình 249
6% 249
nghiên_cứu 248
định_mức 248
thâu 248
gương_mẫu 248
tập_thể 247
vững_vàng 247
xác_định 247
Ngân_sách 247
k_@@ 247
eu 247
tri_thức 246
135 246
tránh 245
KT-XH 245
theo_dõi 244
24 244
Hai 244
canh_tác 244
500 244
dân_làng 244
va@@ 244
Giờ 243
ghi_nhận 243
tiêu_biểu 243
keo 243
điều_chỉnh 242
đói 242
uy_tín 242
sâu_bệnh 242
18 242
cổ_truyền 242
TW 242
tuy 242
nghiên 242
phát_sinh 241
liền 241
lam 241
ghê 241
sản_lượng 240
Rạng_@@ 240
200 240
14 239
công_chức 239
định_kỳ 238
dao_@@ 238
Vinh_@@ 238
hăm 238
lao_@@ 237
giờ 237
07 237
thay_đổi 237
gấu 237
bạo_lực 237
quân_sư 237
Chỉ 236
làm_cỏ 236
lượng 236
Lu@@ 236
yer 236
nar 236
Tổng 235
mà_còn 235
cỏ 235
CLB 235
kỷ_niệm 234
công_nghệ 234
đầu_tiên 233
giới 233
thối 233
Kôn 233
vững 232
diễn_biến 232
nuôi_trồng 232
chúng 231
Đội 231
06 231
gal 231
Oh 231
chi_phí 230
mục_đích 230
Lao_động 230
xuất_sắc 230
thu_hồi 230
ghi 230
doanh 230
Quốc_hội 229
sẵn_sàng 229
trao_tặng 229
umi 229
yê@@ 229
năm_học 228
60 228
PBGDPL 228
khả_năng 228
tri@@ 228
tuy@@ 228
quốc_tế 227
ngư 227
Tham 227
khối 226
phạm_vi 226
dành_dụm 226
ana 226
công_nhận 226
80 226
59 225
thị_trường 225
cảng 225
viên_chức 225
Z@@ 225
áp_dụng 225
dao 224
PTD@@ 224
thừa_nhận 224
mệnh 224
meu 224
thành_công 223
nilon 223
lịch_sử 223
sáng_tạo 223
Dư 223
cơ_bản 222
ảnh_hưởng 222
Bây_giờ 222
Giao 222
giúp_đỡ 222
dương 222
bẫy 221
thấp 221
Dân_@@ 221
vaccine 221
đặt 221
Cty 221
tak 221
lồng 220
thú 220
xi_măng 220
70 220
đo 220
72 219
Tết 219
thức_ăn 219
trang_thiết_bị 219
chủ_trì 218
Y_tế 218
xuân 218
leh 218
mâm 218
sinh_trưởng 217
nội_trú 217
phương_tiện 217
sóc 216
bên 216
pho@@ 216
bão 215
dãy 215
Vì 215
chuyện 215
TTYT 215
đồng_bộ 215
Bà 214
điều_hành 214
phòng_dịch 214
ý_nghĩa 214
Hiện 214
khang 214
chăm_chút 213
phân_công 213
dần 212
ngôi 212
thuận_lợi 212
vị_trí 212
mì 212
sâu_rộng 211
sắn 211
hoà_giải 211
kai 211
ợ 210
lân 210
ứng_phó 210
quỹ 210
hiên 210
phía 209
đỡ 209
mua_bán 209
Xã_hội 209
chừng 209
Chính_sách_xã_hội 209
Vì_vậy 209
chuyên_ngành 208
lồng_ghép 208
ây_@@ 208
đổi_mới 208
tên 208
nước_sạch 208
hom 208
TNHH 208
nghi@@ 208
không_chỉ 207
coi_trọng 206
săn 206
TC@@ 206
ay@@ 206
ngành_nghề 205
diện 205
phí 205
cháy 205
hàng_hoá 205
Sư@@ 205
thuận_tiện 204
một_ngàn 204
nhân_viên 204
thiếu 204
ý_kiến 204
Khu 204
trình_độ 203
chăm_nom 203
kèm 203
chừ 203
sốt_rét 203
rác_thải 203
Đẩy_mạnh 203
công_cụ 202
Tổ 202
xác_nhận 201
bảo_tồn 201
chum 201
gr@@ 201
chó 200
Festival 200
nạn 200
Long 200
trực_thuộc 199
huyện_uỷ 199
vận_dụng 198
tài 198
học_phí 198
je@@ 198
đỗ 197
Du_lịch 197
ruộng 197
rà_soát 197
37 197
vuông 197
cửa 197
tâ@@ 197
lưu 197
ngắt 196
se 196
hỏi 196
tìm 196
yêu 196
An 196
ngần 196
UV 196
vận_hành 195
thành_tích 195
thực_vật 195
phân_cấp 195
thời_kỳ 195
xuất_@@ 194
09 194
B 194
Mô_hình 194
eb@@ 194
num 194
Uy 194
Cựu_chiến_binh 193
Đôi 193
bình_quân 193
chùm 193
NN-@@ 193
bê@@ 193
quy_chế 192
tấm 192
nghĩ 192
tái 192
đi_lại 192
19,@@ 192
cách_@@ 192
Ma 192
đê_điều 191
phức_tạp 191
giữ_gìn 191
chồi 191
TT-B@@ 191
ban_ngành 191
phông 191
phát_động 191
Kh@@ 191
hy@@ 191
bia 191
gió 190
hôm 190
gái 190
lô 190
vu@@ 190
30a 190
Tuy_nhiên 189
Lê_Thị_@@ 189
trái_phép 188
Nhà 188
Bùi_@@ 188
vi_sinh 188
rằng 187
Đặc_biệt 187
chi_tiêu 187
nằm 187
định_hướng 187
cây_ăn_quả 186
chấp_hành 186
Quy_định 186
chiếm 186
đại_diện 186
đằng 185
bông 185
Sâu 185
Chiều 185
_K@@ 185
giam 185
suôn 185
Gia_đình 184
gì 184
kỹ_năng 184
QS 184
liên_thông 184
hon 184
thuê 183
thiếu_nhi 183
13 183
Bung 183
mưng 183
trọng_tâm 182
ven 182
phân_bổ 182
28 182
sô@@ 182
the@@ 182
Đinh_Thị_@@ 181
tác_động 181
bầm 181
nhu@@ 181
nhà_trường 180
lợi 180
XVIII 180
tuyển_dụng 179
khuôn_khổ 179
ờ@@ 179
hột 179
bỗng 179
Thường_vụ 179
đậu 179
rừng_phòng_hộ 179
ag@@ 179
lê 179
89 178
cải_cách 178
ưu_đãi 178
phổ_thông 178
hội_nghị 178
phòng_trừ 178
Thành 178
găm 178
môt 178
lợn_rừng 177
chóng 177
XI 177
quan 177
nghìn 177
cứu 177
hoá 177
cười 176
tiến 176
hơn_nữa 176
tìm_kiếm 176
phơ 176
nhi@@ 176
trở_thành 175
mạ 175
cơ_chế 175
53 175
tiến_độ 174
mạnh_mẽ 174
5.@@ 174
thắng_lợi 174
ướt 174
cỗ 174
khỉ 174
cử 174
58 174
po@@ 174
đấu_tranh 173
16 173
ĐT 173
chiến_đấu 173
Canh_@@ 173
cơm 172
Và 172
tan 172
Tiếp_tục 172
phổ_biến 172
chốt 172
vi@@ 172
don 172
sil 172
chúng_tôi 171
đào 171
NV@@ 171
01/@@ 171
quyên 171
Bố 170
ẹ@@ 170
ngoan 170
M2 170
EC 170
TU 170
khung 169
xóm 169
giao_khoán 169
họ 169
Mẹ 169
Ban_hành 169
nát 169
tảng 169
xơ 169
riê@@ 169
Văn_@@ 169
ngọn 168
giỏi 168
tầng_lớp 168
ä 168
yang 168
Đại_biểu 167
nhân_dịp 167
chọn 167
ngăn_chặn 167
có_khi 167
Nguyễn_Thị_@@ 167
coi 167
+ 167
muốn 166
múi 166
giã 166
quan_điểm 166
hạ_tầng 166
20@@ 166
chiu 166
ja 166
xong 165
toán 165
thưa 165
nhé 165
mệ 165
8.@@ 165
Thi_@@ 165
tin_tưởng 164
chức_danh 164
đờn 164
Chi_hội 164
nấu 164
đội 164
ra@@ 164
cơ_sở_hạ_tầng 163
khuy@@ 163
Ling 163
3.@@ 162
Trước 162
vợ_chồng 162
thiết_yếu 162
đêm 162
ngõ 162
xây 162
thảo_luận 162
Bác_Hồ 162
Điệ@@ 162
dich 162
xe@@ 162
Ngân 162
nắng 161
ươm 161
NN 161
hằng 161
Tý 161
lot 161
sạ 160
trong_sạch 160
9% 160
đồng_@@ 160
i_@@ 160
tình 159
16@@ 159
hiểu 159
XH 159
Tiên_@@ 159
hành_vi 159
kè 158
cô_giáo 158
5/201@@ 158
Chị 158
2.@@ 158
4% 158
10@@ 158
định_cư 158
Tấn_@@ 158
ô_@@ 158
Kuy@@ 158
Ơ 158
dê 157
mở_rộng 157
II 157
dự_toán 157
tuyển_chọn 157
cua 157
cột 157
ớt 157
đổ_@@ 157
lây_lan 157
kilomet 157
se@@ 157
Mô 157
3@@ 156
xâm_chiếm 156
dự_tuyển 156
Nhà_@@ 156
4.@@ 156
ay 156
lực 156
soát 156
hụi 156
bỏ 156
8/201@@ 156
ướp 156
nghiệp_vụ 156
quán 156
độc 156
Bi@@ 156
04 156
Môi_trường 156
bố_mẹ 155
vượt 155
_L@@ 155
Nhằm 155
2010 155
du 155
giải 154
5/@@ 154
Ð@@ 154
dây 154
bây_giờ 154
rèn_luyện 153
bảo_quản 153
bảo 153
hiện_nay 153
mắc 153
Võ 153
QĐ-B@@ 153
XII 153
TP 153
2030 152
tăng_trưởng 152
thiết_kế 152
pha 152
lửa 152
công_cộng 152
hạn 151
xem_xét 151
thiệt_hại 151
trang_bị 151
Min_@@ 151
Tham_dự 151
mầm_non 151
cắt_cử 151
cổ_vũ 151
An_Nhơn 151
chính_quy 151
NĐ-CP 151
60% 150
I 150
đoàn_viên 150
vỏ 150
21 150
trọng_điểm 150
bộ_mặt 150
trong_lành 150
lâ@@ 150
mong 149
Khoản 149
36 149
85 149
bung 149
lô@@ 149
tán 148
ngừng 148
cam_kết 148
đẻ 148
ý_thức 148
Có_thể 148
Thuý_Hà 148
chăn 148
I@@ 148
thường_trực 148
tôm 148
lựa 147
Cây 147
phương_thức 147
nền 147
Cơ_quan 147
vận_chuyển 147
toàn_bộ 147
Con 147
đuổi 147
Thư 147
Ŭ@@ 147
khích_lệ 146
hoàn_thiện 146
37,@@ 146
Đầu_tư 146
Ngày_xưa 146
1% 146
phường 146
chữ 146
câu 146
đông_@@ 146
giơ@@ 146
tu 146
rìa 145
mươi 145
duyệt 145
300 145
danh_hiệu 145
tiện_lợi 145
Chi_cục 145
bờ 145
Phụ_nữ 145
Tham_gia 145
khen 145
giải_ngân 144
vùng_sâu 144
vùng_xa 144
hình_thành 144
thống_nhất 144
trị_giá 144
30/@@ 144
cháu 144
Nguyễn_Thanh_Tùng 144
Trung 144
Thanh 144
Nhất 143
địa_điểm 143
mướn 143
chứa 143
góp 143
Đông_@@ 143
cây_ăn_trái 143
nhận 143
5% 143
răng 143
chân 142
dư_nợ 142
liên_kết 142
nghĩa_vụ_quân_sự 142
khởi_động 142
ít_nhất 142
né 141
dừng 141
nước_ngoài 141
Tổ_quốc 141
thể_thao 141
CT@@ 141
hưu 141
TNT 140
con_em 140
tuần 140
công_khai 140
dinh_dưỡng 140
hư_hỏng 140
Vũ 140
xoá 140
Đ 140
XX 140
8% 140
chuyển 140
hao 140
nhung 140
vong 140
450 139
đóng 139
cấp_tiến 139
Phong_trào 139
sâu_sắc 139
công_nhân 139
50% 139
lời 139
mạnh 139
đương 139
5,@@ 139
đốt 139
tài_sản 139
pra 139
7@@ 138
tội_phạm 138
choán 138
ca 138
xuất_khẩu 138
nợ 138
chích 138
thiết_bị 138
bướm 138
ngắn 137
toàn_quốc 137
động_viên 137
quán_triệt 137
đối_phó 137
quân_sự 137
ạ 137
đội_ngũ 137
chặn 137
74 137
ạm 137
liên_hoan 137
Ngo 137
Chăm 136
400 136
chanh 136
chứng_nhận 136
TB@@ 136
Phù_Cát 135
điển_hình 135
mật_độ 135
đời 135
ệt_@@ 135
chúng_t@@ 135
ẩm 135
sương 135
kiện_toàn 135
Nhơn_@@ 135
Bu@@ 135
20% 135
ru 135
NQ 135
tân_@@ 135
Bộ_Chính_trị 134
12/201@@ 134
liên_ngành 134
Cháu 134
vì_vậy 134
trưởng 134
ham 134
ét 134
động_lực 134
nội_đồng 134
ri@@ 134
gieo 133
trăn 133
trở_lại 133
hoa_màu 133
Mỗi 133
90% 133
Sử_dụng 133
ak 133
bênh 133
huân 133
ron 133
mầm 132
Quỹ 132
Em 132
Nội_dung 132
mượn 132
phiếu 132
34% 132
đồng_thuận 132
27 132
mùa_màng 132
ý_chí 132
vòng 132
nạ 132
m_@@ 132
truy 132
Dru@@ 132
ma_tuý 131
cạn 131
thu_nhận 131
chuẩn 131
đông_đảo 131
r_@@ 131
bai 131
bọn 130
cựu_chiến_binh 130
rễ 130
cánh 130
nghệ_thuật 130
Tết_Nguyên_đán 130
chế_biến 130
CSXH 130
làm_giàu 130
27/7 130
khê 130
că@@ 130
khe@@ 130
nói_chung 129
chuyên_chở 129
Xác_định 129
28,@@ 129
hải_sản 129
ngang 129
1.000 129
khó 129
wal 129
khuân 129
thi@@ 129
cồng_chiêng 128
phấn_khởi 128
thương_binh 128
nói_riêng 128
thông_báo 128
vui_vẻ 128
ầm 128
tội_@@ 128
Thông_tin 128
ona 128
cung_ứng 128
rãnh 128
văn_nghệ 127
sinh_sản 127
chuỗi 127
tiểu_học 127
nhi 127
cải_tạo 127
08 127
thống_kê 127
he 127
Lê_Công_@@ 126
Nhường 126
khu_phố 126
2011 126
hạ_tầng_cơ_sở 126
rủ 126
2014 126
dành 126
Dân_tộc 126
số_liệu 126
uỷ_thác 126
trao_đổi 126
nguyên_tắc 126
Mỹ 126
thực_trạng 126
càng 126
luân 126
bắt_đầu 125
tiếp_nhận 125
Ngoài 125
kết_cấu_hạ_tầng 125
rõ_rệt 125
ngũ 125
phạm_nhân 125
Dự 125
hạ 125
phân_loại 125
dịp 125
run 125
liê@@ 125
mở_mang 124
99% 124
kèm_cặp 124
O 124
tự_quản 124
chia 124
Kết_quả 124
ai_@@ 124
Đông 124
Tài_nguyên 124
cầu 123
hoá_chất 123
Qu@@ 123
tang 123
To@@ 123
chiên 123
tươ@@ 123
Tô 123
lăn 123
mah 123
Môi 123
ngưng 122
tối_đa 122
sửa_chữa 122
VI@@ 122
An_@@ 122
Tam 122
Y 122
yan 122
kéo_dài 121
buộc 121
ân_cần 121
toàn_diện 121
phòng_tránh 121
0@@ 121
3% 121
do@@ 121
hung 121
tôn 121
rụng 120
Trường_hợp 120
sức_mạnh 120
lánh 120
rà 120
tất_cả 120
lâm_sản 120
D-@@ 120
cổ 120
không_khí 119
Nhiều 119
tại_chỗ 119
thế 119
Danh_mục 119
vịt 119
ắt 119
Quy 119
ech 119
tự_nhiên 118
bao_gồm 118
Phụ_lục 118
6,@@ 118
Chi_bộ 118
hưởng 118
trung_ương 118
bài 118
khơi 118
tuân 118
gia@@ 118
Đinh 118
cảnh 117
Chủ_động 117
hiện_hành 117
gia_tăng 117
thể 117
nương_rẫy 117
nghị_quyết 117
rước 117
chuẩn_@@ 117
nặng 117
mẫu 117
chao 117
65 116
cứ 116
Chính_sách 116
đập 116
khoán 116
Huyện_đoàn 116
giới_thiệu 116
biểu 116
Chỉ@@ 116
_dẫn 116
ủ 116
may 116
đón 115
trung_thành 115
nghỉ 115
LHTN 115
thuỷ 115
quyết_tâm 115
dâng 115
0/@@ 115
Tham_@@ 115
Dùng 115
Hồ 115
2% 115
rửa 115
jo@@ 115
Mi 115
tân 115
Te@@ 115
muỗi 114
buồng 114
hầu_hết 114
Tư_pháp 114
bàn 114
khỏi 114
62 114
Triển_khai 114
16/@@ 114
sốt_xuất_huyết 113
vật_liệu 113
thú_y 113
cân_đối 113
n_l@@ 113
hạng 113
ủi 113
ảng 113
cơ_hội 113
Nhơn 113
Vinh 113
ching 113
thiêu 113
giàn 112
trình 112
tuồng 112
thi_công 112
Di_tích 112
đáng_kể 112
lan_toả 112
150 112
lạnh 112
kéo 112
88 112
đường_lối 112
nguy_cơ 112
TTr@@ 112
Gò@@ 112
tổng_kết 112
khoanh 112
R 112
thă@@ 112
ú 111
vui_chơi 111
Nhân_dịp 111
xuất 111
ủng_hộ 111
bước_đầu 111
Chốt 111
08/@@ 111
Nhơn_Hội 111
98 111
ada 111
ram 111
khoai_mì 110
chăm_lo 110
sinh_đẻ 110
Thông_qua 110
tiếp_xúc 110
Như 110
hợp_đồng 110
vấn 110
nhập_ngũ 110
70% 110
đựng 110
ô_tô 110
xen 110
cô@@ 110
rung 110
700 109
phương_châm 109
mor@@ 109
hạt_giống 109
thẩm_định 109
hoàn_cảnh 109
Bộ_trưởng 109
Mặt_trận 109
đâm 109
thu_gom 109
Phê 109
120 109
85% 109
Chu@@ 109
pho 109
ép 108
hợp_nhất 108
sát 108
bậc 108
mở 108
lợi_ích 108
chất 108
Đại_học 108
trung_bình 108
tín_chấp 108
thích_hợp 108
K 108
bật 108
phẩm_chất 108
ngủ 108
nhà_văn_hoá 108
giang 108
Tu@@ 108
Bố_mẹ 107
phương_hướng 107
độ_ẩm 107
Bằng 107
è@@ 107
chứng_thực 107
sửa 107
thay_thế 107
chục 107
Lãnh_đạo 107
công_bố 107
Tháng 107
Mi@@ 107
thời_vụ 106
47 106
dân_gian 106
nắm_bắt 106
chủ_lực 106
Kr@@ 106
Chỉ_huy 106
Hỗ_trợ 106
An_Lão 106
CO@@ 106
đục 106
vai 106
Phát_huy 106
vùng_biển 106
ót 106
che 106
hợp 106
tuyệt_đối 106
NPK 106
yi 106
31 105
tự_hào 105
ô_nhiễm 105
ĐBQH 105
nh_@@ 105
thăm_hỏi 105
di_tích 105
biêt 105
luống 105
dọc 105
lương_thực 105
9/@@ 105
thực_hành 105
mặt_bằng 105
chuyển_@@ 105
hợp_lý 105
vinh 105
Hương 105
nao 105
hiện_thời 104
thu_hút 104
bộ_phận 104
đa_dạng 104
ím 104
14,@@ 104
đau 104
Vận_động 104
Quân_sự 104
dời 104
59,@@ 104
xếp 104
17@@ 104
chủ_đề 103
Phần 103
thói_quen 103
vào_cuộc 103
Phân_@@ 103
lôi_cuốn 103
Tuần_lễ 103
Học_tập 103
10% 103
gìn_giữ 103
thực 103
mọc 103
vứt 103
Liệt_sĩ 103
TT 103
Ty 103
khuyến_học 102
võ_thuật 102
Bệnh 102
Hướng_dẫn 102
master 102
M 102
GDTX 102
d 102
chủ_yếu 101
thời_cơ 101
Thanh_niên 101
khoản 101
Chuẩn_bị 101
truy_quét 101
tập 101
thời_điểm 101
ban_bố 101
Xây 101
xúc_tiến 101
Kông_@@ 101
Mục_tiêu 101
11.@@ 101
Yan 101
he@@ 101
chon 101
tuyển 100
phong_phú 100
ượng 100
Tập_trung 100
cơ_quan_chức_năng 100
sửa_đổi 100
Tới 100
mấy 100
dân_chủ 100
tệ@@ 100
ậu 100
chuẩn_mực 100
võ_sư 100
cha_mẹ 100
Thêm 100
Kinh_tế 100
Nguồn 100
kiểm_lâm 100
thê@@ 100
nhiê@@ 100
W@@ 100
12.@@ 99
Hàng 99
đỏ 99
dễ_dàng 99
chữ_viết 99
vận_tải 99
02@@ 99
Công_đoàn 99
chuôi 99
Đu@@ 99
á 98
biểu_diễn 98
hạn_hán 98
sao 98
Lâm_nghiệp 98
Chú 98
bắt 98
Cor@@ 98
tạ 98
tu_sửa 98
Pr@@ 98
mời 98
công_cuộc 98
sự_cố 98
24/24 98
Trương_@@ 98
héc 98
Viê@@ 98
thoáng 97
hà 97
đội_viên 97
giòn 97
ệ 97
ngoại_ngữ 97
tòng_@@ 97
tệ_nạn 97
13.@@ 97
3,5 97
loài 97
phối 97
lưu_thông 97
đẩy_lùi 97
thật 97
phân_hữu_cơ 97
bức 97
nha 97
Mai_@@ 97
Hà_Nội 97
siêu 97
cát 97
hươ@@ 97
pr@@ 97
Tông 97
dặn 96
trời 96
29@@ 96
nhân_khẩu 96
TTLT-@@ 96
khúc 96
tối_thiểu 96
càng_ngày_càng 96
một_cách 96
vận 96
_r@@ 96
Khai_tr@@ 96
At@@ 96
hy_sinh 96
Kinh_phí 96
Lao 96
ren 96
Pu@@ 96
Đâu 96
Ngu@@ 96
đồ 95
toàn_thể 95
_cậy 95
mặc_dù 95
Bảo_vệ 95
Mức 95
A_@@ 95
12@@ 95
điện_tử 95
đứng 95
Chị_gái 95
dốc 95
1,@@ 95
Tuy_Phước 95
n_@@ 95
Phân 95
khư 95
duy 95
Liên_hiệp 94
10/@@ 94
quyết_liệt 94
a_@@ 94
tầng 94
13@@ 94
31/@@ 94
XIV 94
Hè 94
Tính 94
Cậu 94
kênh 94
10/201@@ 94
Sang 94
Hoa 94
xây_lắp 94
thang 94
_Đ@@ 94
khi@@ 94
giám_định 93
mong_muốn 93
lòng 93
tiên_tiến 93
bản_thân 93
hình 93
Phát_biểu 93
sửa_sang 93
phi_công 93
dọn 93
52 93
Di@@ 93
Ke@@ 93
mat 93
l-@@ 93
Tỷ_lệ 92
iếp 92
đa_dạng_hoá 92
bạc 92
sạt_lở 92
nếp 92
ươi 92
tươi 92
Phê@@ 92
_chuẩn 92
đảo 92
hiệu_lực 92
lỗ 92
khách 92
1.9@@ 92
quen 92
14,5% 92
ngoại_quốc 91
tài_trợ 91
Hoạt_động 91
tập_quán 91
xói_lở 91
Nội_vụ 91
84 91
con_người 91
bộ_máy 91
Bà_con 91
chủ_tịch 91
lệ_phí 91
Cha 91
mưa_lũ 91
bếp 91
mua_sắm 91
chuyên_gia 91
suy 91
Dì 91
câ@@ 91
04@@ 91
nhân_@@ 91
dah 91
sơ_@@ 91
nghĩa 90
ụ@@ 90
hỏi_thăm 90
tiểu_thủ_công_nghiệp 90
báo 90
Địch 90
tuỳ 90
cả_thảy 90
_thu 90
NNPTNT 90
Cha_mẹ 90
Lắm 90
tương_thân 90
ra_mắt 90
nước_ngọt 90
trình_diễn 90
Hoài_Nhơn 90
Lương 90
Châu_Phi 90
khô@@ 90
chuông 90
xúc_t@@ 89
canh_t@@ 89
già 89
cụm 89
Má 89
nghĩa_vụ 89
kích_thước 89
Làm 89
đáng 89
Tỉnh_đoàn 89
kho 89
29 89
tri_ân 89
phút 89
củ@@ 89
hông 89
name 89
rap 89
10.@@ 88
nắm 88
53% 88
Chánh 88
95 88
nhân_giống 88
công_nghệ_thông_tin 88
kì_lạ 88
Xuân_@@ 88
Huy_hiệu 88
quý 88
̣@@ 88
WP 88
Đoan 88
ăh 88
ghê@@ 88
75 87
Nhì 87
ba_mươi 87
tết 87
thúc_đẩy 87
hợp_tác 87
Yêu_cầu 87
mét 87
chàng 87
bác_sĩ 87
dạ 87
IV 87
thế_giới 87
trứng 87
ấy 87
dựng 87
một_cái 87
cấp_phát 87
sát_sao 87
thiên 87
ánh 87
7/201@@ 87
cấp_nước 87
ANTT 87
9.@@ 86
niên_@@ 86
mép 86
Vĩnh_An 86
chào_mừng 86
chứng_chỉ 86
nghiêm_túc 86
khao 86
xin 86
bám 86
Đã 86
khảo_sát 86
thắp 86
chính_sách_xã_hội 86
thế_hệ 86
phân_chuồng 86
tệ 86
khuyến_nông 86
14/@@ 86
giáp 86
pha@@ 86
phao 86
anh@@ 86
mộc_nhĩ 85
tồn_tại 85
2013 85
Mạ 85
Cắt 85
tổng_thể 85
chúc 85
17.@@ 85
xong_xuôi 85
Khai_thác 85
Tờ_trình 85
ổ 85
ỗi_@@ 85
khách_khứa 85
nhờ 84
chồng 84
ngơi 84
tím 84
test 84
lót 84
àng 84
Hoài_Ân 84
lor@@ 84
.0@@ 84
bản_sắc 84
tận 84
tuyển_@@ 84
44,@@ 84
33% 84
Phê_duyệt 84
Ngoại 84
mạnh_dạn 84
lụt_bão 84
đẳng 84
tế-xã 84
Thị_@@ 84
LS 84
cốt_yếu 83
lợi_thế 83
buông 83
giao_thương 83
cỡ 83
tắm 83
Gian_@@ 83
xấu 83
bó@@ 83
con_cháu 83
bình_đẳng 83
Nuôi 83
90 83
Tham_mưu 83
phe@@ 83
,@@ 83
cu@@ 83
nung 83
Thông 83
1.0@@ 82
cống_hiến 82
muộn 82
Tương_tr@@ 82
1,5 82
rác 82
ra_quân 82
đảm_trách 82
lùng 82
giữ_@@ 82
5,4 82
chính_yếu 82
13/@@ 82
trôi 82
mơ 82
Cô 82
MTV 82
os@@ 82
ớ@@ 82
vợ 82
Xuân_Dũng 82
chính_đáng 82
Giao_thông 82
Nhóm 82
pe 82
Chi@@ 82
phê@@ 82
tư@@ 82
600 81
căn_cứ 81
vừng 81
mưa_bão 81
Me 81
liệt_sĩ 81
_tập 81
tình_thương 81
thân_thể 81
mái 81
Nhìn_chung 81
khẩu_trang 81
40% 81
thu_thập 81
bệnh_binh 81
Không_chỉ 81
QL@@ 81
đâ@@ 81
Viêt_@@ 81
67 80
giảng_dạy 80
hết_thảy 80
muối 80
cố_gắng 80
41 80
chuyên_nghiệp 80
Xã 80
phẩm 80
30% 80
bưởi 80
nhà_rông 80
34 80
11/@@ 80
9/9 80
ồng_@@ 80
CTĐ 80
ơ_@@ 80
01/201@@ 80
Hà_@@ 80
lâm_tặc 80
ả 80
18.@@ 80
Yi 80
ao_@@ 80
P 80
12/@@ 79
trên_dưới 79
bàn_tay 79
nhăn_nheo 79
chi_tiết 79
đổ 79
gieo_rắc 79
lớp_học 79
97 79
hàm_lượng 79
An_ninh 79
thành_phần 79
thể_dục 79
1,2 79
chậm 79
niêm_yết 79
cân 79
muô@@ 79
Do 78
tự_lực 78
Xuân 78
ban_@@ 78
7/9 78
bơm 78
lâu 78
Vòng 78
Đất 78
chảy 78
IP@@ 78
x 78
Nhân 78
Lương_@@ 78
đên 78
oi 78
Kỳ 77
c_th@@ 77
TN@@ 77
phụ_trách 77
cuốn_hút 77
Quy_chế 77
sôi_nổi 77
xuyên 77
7% 77
phương_pháp 77
khẩn_trương 77
kali 77
ổ@@ 77
luân_@@ 77
Tư 77
bang 77
cấy 76
quanh 76
mủ 76
ngăn_ngừa 76
kế_hoạch_hoá 76
hoàn_toàn 76
phòng_bệnh 76
chú_ý 76
cần_thiết 76
chiếc 76
ngóng 76
96% 76
ght 76
Tra 76
T 76
gen 76
giảm_thiểu 76
pi@@ 76
no 76
134 76
xung 76
thươ@@ 76
phâ@@ 76
nong 76
nhe@@ 76
thích 75
vướng_mắc 75
khiến 75
truyền_thông 75
Công_Thương 75
biệt_@@ 75
đãi 75
2.000 75
khuyến_cáo 75
giao_dịch 75
bất_lợi 75
đôn_đốc 75
kiếm 75
Một_số 75
noi 75
Trước_mắt 75
Trồng 75
42,@@ 75
đến_nơi 75
III 75
tham_vấn 75
ậy 75
_mì 75
diệt 75
tuần_tra 75
điều_động 75
15/@@ 75
HĐ@@ 75
BV@@ 75
05/@@ 75
quang 75
huy@@ 75
dro@@ 75
54 74
khang_trang 74
Nhật_Bản 74
Đài_Loan 74
Khai 74
A1 74
Yang_@@ 74
nhà_cửa 74
2,5 74
chấm_dứt 74
99,@@ 74
thầy_thuốc 74
Tích_cực 74
TAND 74
Giống 74
41% 74
ho 74
Trợ_giúp 74
Yu 74
Pl@@ 74
Tơ 74
xô 73
thể_hiện 73
gắng 73
Tỉnh 73
thủ_pháp 73
Vân_Canh 73
ánh_sáng 73
Uỷ_viên 73
biểu_dương 73
4ha 73
Lượng 73
ồng 73
Số 73
71 73
đồi 73
14@@ 73
dụng_cụ 73
vắt 73
hàng_ngũ 73
22/@@ 73
Tuy 73
âm_th@@ 73
_sản 73
UBMTTQ 73
rua 73
ong_@@ 73
Quy@@ 73
dân_sinh 72
tuyên_dương 72
ngày_công 72
thân_thiện 72
óc 72
khởi_sắc 72
500m2 72
Anh_trai 72
16.@@ 72
nhịp 72
sữa 72
khắp 72
huấn_luyện 72
Hàn_Quốc 72
liếp 72
tiếp_theo 72
96 72
TT-@@ 72
U 72
phôi 72
lạc_hậu 72
K2 72
Gho@@ 72
́@@ 72
Ka 72
xa@@ 72
Tạo 71
kết_thúc 71
trả_lời 71
cưới 71
dấn 71
lấp 71
cứng 71
móc 71
23 71
Quy_hoạch 71
bàn_giao 71
sắp_xếp 71
phấn 71
xâm_hại 71
thân_nhiệt 71
> 71
BVTV 71
Kiểm_soát 71
Thường_xuyên 71
vùng_đất 71
Vào 71
Cát_@@ 71
2003 71
loa 71
chắc 71
GDNN 71
Nha 71
Phươ@@ 71
39 70
âu_t@@ 70
sương_@@ 70
1@@ 70
công_lập 70
danh_lam_thắng_cảnh 70
đảm_nhận 70
Bó@@ 70
n_thúc 70
LMLM 70
hè 70
cọ 70
26 70
33 70
mục 70
sở_thích 70
Pháp 70
350 70
cách_tân 70
mở_đầu 70
hải_đảo 70
Dro@@ 70
mát 70
chai 70
dự_kiến 70
CT 70
Ma@@ 70
văn_phong 70
lu 70
Bê@@ 70
phiêu 70
nó 69
thu_nhặt 69
/201@@ 69
kêu_gọi 69
KSS 69
nhiệt_tình 69
thực_tiễn 69
Mực 69
95% 69
tỉ 69
94 69
dìm 69
ảnh 69
quyết_nghị 69
trước_đây 69
bom 69
lạ_@@ 69
Báo_cáo 69
nghiêm_chỉnh 69
Ngay 69
Ban_Chấp_hành 69
Dung 69
tiềm_năng 69
dấu_hiệu 69
nghiệm_thu 69
xăng 69
tro@@ 69
l_@@ 69
Nữ_giới 68
chất_thải 68
đám_tang 68
cá_@@ 68
750 68
đánh 68
lưu_ý 68
tụi 68
106 68
trúng_tuyển 68
tập_luyện 68
Chi_nhánh 68
Đại_tá 68
Huỳnh_Văn_@@ 68
Cao_đẳng 68
Sự 68
116,@@ 68
ii 68
co 68
New_Zealand 68
khoảng_cách 68
55 68
Hằng 68
kiên_quyết 68
2.4 68
câu_lạc_bộ 68
Ya@@ 68
hoi 68
angu@@ 68
Ka@@ 68
cầm 67
chỉ_thị 67
bản 67
ước 67
lãnh_hải 67
khẳng_định 67
Hợp_tác_xã 67
Anh_hùng 67
nguyên_liệu 67
chọn_lọc 67
Bế_mạc 67
13,@@ 67
hảo_tâm 67
tiêu_huỷ 67
vậy 67
điều_tra_viên 67
_vả 67
mặt_cắt 67
Bộ_đội 67
kiên_cố 67
â 67
Đối_tượng 67
lăng 67
Đàn_bà 67
ơm_@@ 67
25.@@ 67
Kang 67
Yang 67
bach 67
tương_đối 66
98% 66
nhân_lực 66
nổ 66
BYT-@@ 66
giải_phóng 66
đẩy 66
phạt 66
6/@@ 66
đậy 66
rác_r@@ 66
ến 66
Cách 66
tiêu_diệt 66
Thuỷ_sản 66
Thái 66
Nguyễn_Tất_Thành 66
24@@ 66
ký_túc_xá 66
trại 66
viêm 66
kiểm_dịch 66
thuần 66
đặc_sản 66
2,3 66
cuốn 66
bè 66
cấp_thiết 66
thông_thoáng 66
bản_địa 66
HTX 66
No@@ 66
sung 66
ngư_dân 65
bừa 65
nội_lực 65
ống 65
ụi 65
1,8 65
hậu_quả 65
lắm_@@ 65
Điểm 65
tình_cảm 65
đột_xuất 65
sẵn 65
Trưởng_thành 65
không_những 65
lựa_chọn 65
dự_định 65
tương_ái 65
1.3@@ 65
155 65
C 65
già_làng 65
Xem 65
21.@@ 65
VN 65
phóng_thích 65
dẫn 65
Hoà 65
GD 65
ju@@ 65
dong 65
linh 65
ngày_một 64
Hà 64
Huy_động 64
năng_lượng 64
vui_mừng 64
kết_nạp 64
ẩm_tra 64
nghiệp 64
trị 64
phủ 64
song 64
trạm_xá 64
trang_phục 64
kém 64
thí_điểm 64
Hội_@@ 64
yếu_kém 64
2.4@@ 64
thời_hạn 64
xét_duyệt 64
tôn_vinh 64
Trồng_trọt 64
Website 64
chủng 64
đệ_trình 64
Thuỷ_điện 64
4/@@ 64
làm_thịt 64
khéo 64
ghép 64
140 64
Đinh_Văn_@@ 64
Trường_học 64
giết_mổ 64
950 64
kho@@ 64
chiêu 64
đư@@ 64
chém 63
neo 63
Kiểm_tra 63
Đề_nghị 63
làm_ăn 63
gáy 63
30.@@ 63
chặng 63
8/@@ 63
luyện_tập 63
khai_mạc 63
vắc_xin 63
nhân_sự 63
ngàn 63
sàn 63
chuồng_trại 63
Tây 63
ưa_thích 63
phiên 63
g 63
nóng 63
Nâng 63
lãi_suất 63
ụ 63
vui_tươi 63
nghệ_nhân 63
KT 63
phi@@ 63
TDTT 63
cư@@ 63
dân_vận 62
sơn_@@ 62
thọ 62
nhặt_nhạnh 62
nhựa 62
tân_binh 62
15% 62
đặc_điểm 62
Kết_thúc 62
đám_ma 62
chuyển_dịch 62
vô_@@ 62
107 62
luật 62
khéo_léo 62
bột 62
no_ấm 62
lan_truyền 62
chiến_thắng 62
Tam_Quan 62
142 62
Xử_lý 62
494 62
29/@@ 62
sắc 62
đột_phá 62
Giấy 62
liên_tiếp 62
tài_liệu 62
75,@@ 62
0,2 62
uỷ 62
lành_mạnh 61
Vui 61
tái_sinh 61
mối 61
TB 61
Công_@@ 61
nguyên_nhân 61
khiêng 61
tường 61
gắn_bó 61
giao_nhận 61
12,@@ 61
Lễ@@ 61
Cũng 61
cập 61
bơi 61
32 61
Phạm_Hồng_@@ 61
Cầu 61
0,5 61
ngâm 61
Viên 61
giang_sơn 61
giơ 61
đinh_hương 61
loh 61
230 60
Đề_@@ 60
liên_tục 60
Đợt 60
khen_ngợi 60
7.@@ 60
tin_cậy 60
hũ 60
Khoa_học 60
thanh_thiếu_niên 60
tỷ_trọng 60
thương_@@ 60
quãng 60
49 60
nước_thải 60
bụng 60
Viện_Kiểm_sát 60
tốt_đẹp 60
amin_@@ 60
sửa_soạn 60
iii 60
iv 60
rắn 60
247 60
khô_ráo 60
xung_kích 60
anh_hùng 60
ván 60
dịch_hại 60
kiểm 60
đặc_trưng 60
_th@@ 60
à 60
quản_lý_nhà_nước 60
đâm_ra 60
BC@@ 60
hủ_tục 60
nội_bộ 60
xuất_ngũ 60
phòng_hộ 60
virus 60
cứ@@ 60
51 60
Chăm_@@ 60
80% 60
Ri@@ 60
dinh 60
hu 60
Binh_@@ 60
He 60
quet 60
lanh 60
u-@@ 60
tập_hợp 59
để_ý 59
nguyện_vọng 59
thách_thức 59
to_lớn 59
thu_lượm 59
2.500 59
bán_trú 59
mm 59
thông_tin_đại_chúng 59
nở 59
Tỉnh_uỷ_viên 59
phần_mềm 59
treo 59
vừa_qua 59
2@@ 59
quần_áo 59
bồi_dưỡng 59
vững_chắc 59
BigC 59
ngăn 59
vầy 59
Mới_đây 58
nhờ_cậy 58
hộ_đê 58
BCH 58
đứa 58
Trời 58
2.5@@ 58
minh_bạch 58
chống_chọi 58
thương_mại 58
Tối 58
bê_tông_hoá 58
sách 58
kháng_sinh 58
khử_trùng 58
King 58
ngã 58
thiếu_thốn 58
Ba@@ 58
Hạt_Kiểm 58
ế@@ 58
sạch_đẹp 58
4,5 58
hợp_pháp 58
du_@@ 58
lúa_nước 58
rê 58
10/2018 58
Bài 58
thua 58
150@@ 58
khá_giả 58
cá_chép 58
đánh_phá 58
Nghĩa_trang 58
tuyển_lựa 58
6.@@ 58
moi 58
trung_thu 58
vie@@ 58
diêu 58
Cao 58
triệt_để 57
ngư_@@ 57
61 57
dòng_chảy 57
Trung_thu 57
2009/@@ 57
phổ_cập 57
bồi_bổ 57
thiết_chế 57
28@@ 57
NTM 57
đồng_ý 57
Đak@@ 57
mừng 57
địa 57
hắn 57
đống 57
Bón 57
truyền 57
măng_@@ 57
nom 57
kiêu 57
kết_nối 57
Đảm_bảo 57
sát_khuẩn 57
tiên_phong 57
07@@ 57
sơn 57
25@@ 57
Sông 57
dư@@ 57
68@@ 57
_Lao 57
ja@@ 57
bl@@ 57
thu_ngân 57
Dân 57
Biên_phòng 56
khênh 56
Thường 56
bề_mặt 56
đường_kính 56
học_bổng 56
cố 56
mắc_@@ 56
đồng_loạt 56
Đồng_chí 56
PCTT 56
đạn 56
trang_trại 56
26@@ 56
ạn_@@ 56
25/@@ 56
cẩn_thận 56
ốm 56
bầu_cử 56
sào 56
Nước 56
ATTP 56
ham_thích 56
VietGAP 56
6,5 56
Báo 56
5.5 56
Phạm_Văn_@@ 56
vô_số 56
UBND-@@ 56
Kiên 56
Chung 56
Lê_@@ 56
kWh 56
ê_h@@ 56
Hô 56
Ăn 56
Kê 56
nhú 55
0% 55
nhờ_vả 55
nguồn_gốc 55
trú_ngụ 55
Phía 55
mé 55
lãi 55
giàu 55
n_trưởng 55
cơ_quan_chuyên_môn 55
thi_tuyển 55
Dãy 55
tinh_bột 55
đương_đầu 55
đầu_ra 55
trưởng_thành 55
03/@@ 55
trò 55
n_lâm 55
truyền_đạt 55
tắt 55
kiên_cố_hoá 55
_M@@ 55
CN 55
dạng 55
đầy 55
rạch 55
nông_trại 55
Cát 55
thể_chế 55
mâu_thuẫn 55
Nguyễn_@@ 55
viếng 55
In 55
Luận 55
Tuân 55
bon 55
dân_trí 54
20/@@ 54
bảng 54
Kỹ_thuật 54
phí_tổn 54
sinh_học 54
14% 54
chọn_lựa 54
Dịp 54
biến 54
khôi_phục 54
xăng_dầu 54
Câu_lạc_bộ 54
ban_đầu 54
quốc_dân 54
Lâm_Đồng 54
Nhiệm_vụ 54
ứ@@ 54
1.8@@ 54
giả 54
quan_hệ 54
sự_kiện 54
San 54
43 54
7,5% 54
tạm 54
hồ_chứa_nước 54
mê_@@ 54
mải 54
K3 54
phụ 54
trung_học_phổ_thông 54
HĐH 54
14.@@ 54
xuống_cấp 54
nga@@ 54
GAP 54
xoang 54
Ap@@ 54
hôn 54
chiê@@ 54
ich 54
30,@@ 53
sắp 53
tìm_hiểu 53
chiến_sĩ 53
Góp_phần 53
thời_khắc 53
hơi 53
tuyển_quân 53
tàn 53
b 53
do_đó 53
cấm 53
NCT 53
38@@ 53
Lớp 53
khuẩn 53
tiếp_đón 53
nông_sản 53
ốn_@@ 53
cụ_thể_hoá 53
cộng 53
trăng 53
tư_pháp 53
thí_sinh 53
KTXH 53
̀@@ 53
KHCN 53
can 53
ve 53
nho@@ 53
bre@@ 53
ê_hương 53
Ru@@ 53
kul 53
Đơn 53
be@@ 53
phân_bố 52
trình_bày 52
650 52
mặc 52
19.@@ 52
0,@@ 52
nông_@@ 52
thành_quả 52
chiếu 52
đặc_thù 52
truyền_nhiễm 52
hồng 52
hai_mươi 52
nội_quy 52
Đơn_vị 52
ngộ_độc 52
tập_dượt 52
Cụ 52
võ_sinh 52
đả 52
nhân_công 52
Phấn_đấu 52
Tư_vấn 52
Chủ 52
Điều_kiện 52
02/@@ 52
bẩm 52
con_giống 52
bó 52
Ni@@ 52
trat 52
chúa_@@ 52
nhật 52
lăm 52
Va@@ 52
bar 52
thô 52
Diện_tích 51
lẫn 51
rét 51
biến_động 51
liên_tịch 51
xây_dựng_cơ_bản 51
Nông_thôn 51
đệ 51
Nghe 51
250 51
Bảo_đảm 51
Nhịp 51
xuống_giống 51
tập_kết 51
miễn 51
đất_nước 51
Xây_@@ 51
dựng_@@ 51
hình_@@ 51
07/@@ 51
Bảo_tồn 51
w 51
đền_bù 51
nướu 51
cảnh_báo 51
Định 51
quyền_lợi 51
vạc 51
Quảng_trường 51
bươ@@ 51
chủ_nhật 51
truyền_bá 51
2006 51
Luôn 51
vẻ 51
Chăn_nuôi 51
công_an_viên 51
trưng 51
tung 51
lương_@@ 51
xâm 51
sợi 50
dự_thảo 50
thụ_hưởng 50
Ban@@ 50
cao_tuổi 50
vẻ_vang 50
úc 50
mải_mê 50
8,2% 50
du_khách 50
LĐ 50
phụ_huynh 50
dạy_học 50
căn 50
giặc 50
357 50
đón_tiếp 50
pháp_lý 50
CB 50
87% 50
55% 50
237 50
Tổng_hợp 50
57 50
ra_sức 50
cậy 50
tẩm_bổ 50
mè 50
Đông_Xuân 50
nhỏ_lẻ 50
326 50
eng 50
4.8@@ 50
ỡ 50
Tân 50
Ân 50
mê@@ 50
góc 49
trường_lớp 49
2-3 49
hiểm 49
úa 49
Quyền 49
Cơ_hội 49
đòi_hỏi 49
24/@@ 49
Họp 49
cẩn_trọng 49
súng 49
trộn 49
lân_cận 49
Khoá_XII 49
tình_huống 49
69 49
nội 49
75% 49
cụ 49
công_nghệ_cao 49
rác_rưởi 49
khen_thưởng 49
40.000 49
chuyên_trách 49
Đằng 49
đường_bộ 49
chèo 49
_ch@@ 49
Hưởng_ứng 49
Dù 49
chỉ_huy 49
bí_đỏ 49
chủ_nhiệm 49
bổ_dưỡng 49
CL 49
Quốc_tế 49
clorua 49
đạo 49
Tiêu 49
nê@@ 49
Bia 49
Gr@@ 49
La 49
Đô 49
Tiê@@ 49
dra@@ 49
ngoi 49
chia_sẻ 48
pháo 48
phân_tích 48
lọ 48
NN@@ 48
cống_rãnh 48
rằm 48
nét 48
giao_thiệp 48
mùa_vụ 48
hồ_điệp 48
học_đường 48
sắp_đặt 48
cao_su 48
TKCN 48
Bắc 48
mãi 48
154 48
ngói 48
Bước 48
quảng_bá 48
Diễn 48
thu_nạp 48
ngày_xưa 48
yếu_tố 48
Rà_soát 48
công_đoạn 48
cộng_tác_viên 48
lươn 48
ận 48
68 48
0/NĐ-CP 48
Trộn 48
1.7@@ 48
Đàn 48
quy_ước 48
28/@@ 48
truyền_thanh 48
khởi_nghiệp 48
sơ_chế 48
urê 48
khuôn_viên 48
Tiến 48
_t@@ 48
cặp 48
Trình 48
27% 48
15.4 48
xi 48
Kê@@ 48
danh_mục 47
lập_thân 47
lập_nghiệp 47
cạnh_tranh 47
tuân_thủ 47
đụn 47
7/@@ 47
ác 47
di_dời 47
cám 47
Hè_Thu 47
nghiêm_trọng 47
cách_thức 47
Đào 47
ngoại_khoá 47
thác 47
lác 47
cườm 47
chế_phẩm 47
TN 47
hình_ảnh 47
Tình_hình 47
che_phủ 47
nhẹ 47
bế_mạc 47
cây_xanh 47
tài_nguyên 47
lạc 47
bài_trừ 47
thổ_cẩm 47
dự_báo 47
ây 47
thích_thú 47
ệ@@ 47
Phổ_thông 47
nhập 47
trưởng_thôn 47
vun 47
củ 47
1ha 47
tin_tức 47
CHQS 47
Bình_@@ 47
’ 47
Pơ 47
đu 47
Krông_@@ 47
tàu_thuyền 46
đảm_nhiệm 46
trấn_áp 46
Chiến_dịch 46
174 46
5/NĐ-CP 46
DS-KHHGĐ 46
Tài 46
kì@@ 46
_hạn 46
lưu_trú 46
trọng_lượng 46
sinh_thái 46
tán_gẫu 46
phản_ánh 46
thử_nghiệm 46
hoang_dại 46
văn_kiện 46
Thành_lập 46
xã_hội_hoá 46
cất_tiếng 46
v 46
Lễ_@@ 46
Gro@@ 46
tác_dụng 46
đa_số 46
khuất 46
dư_luận 46
kỹ 46
nợ_nần 46
ọc 46
Là 46
tỉ_lệ 46
cọng 46
Dưới 46
449 46
tưới_tiêu 46
phân_@@ 46
26,@@ 46
192 46
V. 46
381 46
Đông_Hải 46
dập 46
tốt_nghiệp 46
121 46
rắn_chắc 46
inh_@@ 46
198 46
đậu_@@ 46
phụng 46
Tập_đoàn 46
khinh 46
Jo@@ 46
rô 46
khai_giảng 45
_c@@ 45
Đền 45
bệnh_nhân 45
mắt_xích 45
bàn_thảo 45
tủ 45
46 45
viết 45
tài_chính 45
quy_phạm_pháp_luật 45
quý_vị 45
Nên 45
Ba_@@ 45
thuỷ_điện 45
do_vậy 45
đất_đai 45
ẩu 45
rãi 45
Chú_ý 45
Chiến_lược 45
26/@@ 45
van 45
viết_lách 45
thóc 45
tră@@ 45
trở_nên 45
lần_lượt 45
đực 45
âm_mưu 45
540 45
n_luyện 45
âng 45
lý_luận 45
co@@ 45
kem 45
ã 45
Yo@@ 45
nham 45
tạm_thời 44
200.000 44
Đại_đoàn_kết 44
Cửa_hàng 44
4,5% 44
30/10 44
Cơ_cấu 44
thương_phẩm 44
chẩn_đoán 44
ưu_tú 44
dư_lượng 44
nhà_máy 44
bảo_@@ 44
thành_tựu 44
thực_sự 44
vết 44
hiếu_học 44
26.@@ 44
2,@@ 44
221 44
220 44
nấc 44
ường 44
khai_báo 44
Do_vậy 44
núi_@@ 44
Nhưng 44
hốc 44
truy_xuất 44
phiến 44
rừng_đặc_dụng 44
VII 44
TT-BXD 44
39,@@ 44
máy_móc 44
tình_nguyện 44
nhấn_mạnh 44
CT-@@ 44
ANTQ 44
DT 44
cơ_quan_hành_chính 44
giây 44
Vĩnh_Phúc 44
tuôn 44
Bo 44
ato@@ 44
am_@@ 44
nam_@@ 44
akh@@ 44
Lang 44
xit 44
công_nghiệp_hoá 43
đuôi 43
rõ_ràng 43
tốc_độ 43
rải 43
hường 43
19@@ 43
hãy 43
máu 43
Kè 43
3-5 43
LLVT 43
dự_trữ 43
thổi 43
khí 43
2022 43
lệnh 43
Xét 43
Tổng_số 43
ước_vọng 43
đốm 43
rút 43
điều_phối 43
ic@@ 43
Dân_số 43
nhịp_nhàng 43
xá 43
vành_@@ 43
chỉnh_đốn 43
dịch_tễ 43
NQ-HĐND 43
nhi_đồng 43
hết_sức 43
siêng_năng 43
hỗn_hợp 43
Tiên 43
2ha 43
bi_@@ 43
xứng_đáng 42
tụ_họp 42
đê_@@ 42
Sinh_viên 42
uỷ_quyền 42
Vĩnh 42
tự_giác 42
cư_trú 42
quét 42
chuyển_nhượng 42
kế 42
kết_nghĩa 42
Copp@@ 42
er-@@ 42
phe 42
ảy 42
Khuyến_nông 42
Biện_pháp 42
nhân_tạo 42
Tập_huấn 42
Khoá_@@ 42
sinh_sống 42
phụ_cận 42
đồng_tình 42
tổng_sản_phẩm 42
rơm 42
M9 42
nhánh 42
rea 42
Phải 42
liên_lạc 42
tuy_nhiên 42
Thanh_Tuấn 42
305 42
Hồ_sơ 42
thương_hiệu 42
Riêng 42
lành 42
Nội 42
hàng_rào 42
pháp 42
Nông_@@ 42
An_toàn 42
ậm 42
30.10 42
chữa 42
san_sẻ 42
nguy_hiểm 42
cao_điểm 42
thơ 42
bồi_thường 42
quỷ 42
giết_thịt 42
sâu_@@ 42
Bao 42
NV 42
đầm 42
Trị 42
xung_quanh 42
giỏ 42
Nguyễn_Văn_@@ 42
mặt_đất 42
định 42
rầy 42
Sher@@ 42
chắc_@@ 42
ỏ 42
376 42
Ra@@ 42
Tha@@ 42
yi@@ 42
meo 42
Thu@@ 42
Rong 42
ưh 42
io 42
rây 42
vãn 41
rảnh_rỗi 41
Kiểm 41
min 41
doanh_số 41
biểu_lộ 41
56 41
gam 41
vác 41
Kết_luận 41
Trung_cấp 41
lính 41
gương_mặt 41
A2 41
Chúng 41
nhắc_nhở 41
Hạn_chế 41
Tao 41
j 41
sẻ 41
eed 41
hiện_diện 41
bến 41
Hũ 41
ấn_tượng 41
chúng_ta 41
trà 41
bùn 41
miệt_mài 41
bình 41
cuống 41
cảnh_@@ 41
huống 41
Giới_thiệu 41
1/@@ 41
hương_ước 41
ngắn_hạn 41
09/@@ 41
Đồng 41
Hạt 41
hót 41
đất_cát 41
cây_cối 41
Thú_y 41
nộp 41
lịch 41
N 41
năm_tuổi 41
F1 41
a_đ@@ 41
mô@@ 41
15kg 41
Sơn 41
phan 41
Pho@@ 41
sed 41
kheo 41
Xê@@ 41
69,@@ 40
23,@@ 40
Gi 40
27.7 40
thẻ 40
KHHGĐ 40
tính_chất 40
ọ 40
T-@@ 40
nút 40
7.5 40
cúm_gia_cầm 40
66@@ 40
Quán 40
câu_chuyện 40
dại 40
ống_@@ 40
Lập 40
Hưng 40
Doanh_nghiệp 40
tương_lai 40
dục 40
táp 40
ấm 40
kiểu_mẫu 40
voi 40
LĐ-TB 40
11@@ 40
KM 40
ối 40
94% 40
bản_lĩnh 40
giả@@ 40
uyển_@@ 40
.000.000 40
tu_bổ 40
ột 40
hình_thái 40
hờn 40
phế_thải 40
danh_@@ 40
hình_sự 40
mức_độ 40
9,5 40
que 40
bạt 40
Đài_Phát_thanh 40
xử_phạt 40
khăn 40
trả 40
mum 40
Thỉnh_thoảng 40
lăng_quăng 40
49/201@@ 40
Mẫu_giáo 40
Dịch_t@@ 40
địa_chỉ 40
Loại 40
419 40
41,@@ 40
Đặng_@@ 40
mê 40
suk 40
thong 40
ưng_@@ 40
ica 40
Du 40
plo@@ 40
sum 40
dịch_tả 39
tham_nhũng 39
xác_thực 39
tròn 39
Trước_đây 39
333 39
một_mình 39
Truyền_hình 39
Định_kỳ 39
chiến_tranh 39
săn_bắn 39
trở@@ 39
sáng_kiến 39
0,8 39
Giáo 39
thức_@@ 39
Gian 39
Trưởng_đoàn 39
Thưa 39
nhiễm_bệnh 39
món 39
huấn_luyện_viên 39
tiếp_thu 39
44 39
Hầu_hết 39
Bộ_Chỉ_huy 39
có_mặt 39
Thống_kê 39
bồi_hoàn 39
Tuyên_giáo 39
khuya 39
Sâu_@@ 39
chắn 39
dụng_@@ 39
người_thân 39
mu 39
Ê 39
Chú_trọng 39
sinh_lý 39
384 39
quý_giá 39
đồng_bằng 39
2.0@@ 39
nhào 39
ký_kết 39
hô@@ 39
H-@@ 39
loãng 39
Big_C 39
quyết_toán 39
thiếu_niên 39
HC@@ 39
trình_tự 39
tìm_tòi 39
nhà_sàn 39
đậu_xanh 39
dan 39
dân_quân 39
c_@@ 39
Trinh 39
Am@@ 39
giá_cả 38
múc 38
cây_số 38
tự_nguyện 38
tâm_lý 38
mất 38
trũng 38
bưu_điện 38
thái_dương 38
/2014/@@ 38
22% 38
Cụm 38
lộ 38
xót_thương 38
Truyền_thông 38
405 38
TT-TT 38
Quả 38
1,4 38
158 38
92% 38
hút 38
vòi 38
kháng_chiến 38
2,3% 38
Để@@ 38
_ý 38
nồng_độ 38
78@@ 38
Thạnh 38
rượu 38
KH 38
Công_trình 38
quế 38
Quốc_phòng 38
thổ_nhưỡng 38
Nguyễn_Hữu_@@ 38
18/@@ 38
Trứng 38
xe_@@ 38
Chọn 38
Thu_hoạch 38
bắc 38
bản_làng 38
suy_tôn 38
Phúc 38
đoà@@ 38
tiến_công 38
ga 38
Đại_diện 38
xe_máy 38
ghen_t@@ 38
ức 38
580 38
bin 38
Khánh 38
vững_@@ 38
Đắk_@@ 38
địch 38
Hoài_@@ 38
3/2018 38
297 38
pa@@ 38
trom 38
dep 38
nhan 38
å@@ 38
ï@@ 38
ä@@ 38
tâm_huyết 37
mạng_lưới 37
nhặt 37
Ngành 37
thực_thụ 37
bụi 37
Kiểm_lâm 37
Giúp 37
răn_đe 37
trụ_sở 37
tiêu_cực 37
CA@@ 37
tận_dụng 37
lâu_dài 37
a_s@@ 37
giải_trình 37
Tiêu_chí 37
tháo_gỡ 37
cảnh_giác 37
kiế@@ 37
năng_nổ 37
Xá@@ 37
ực 37
cựu 37
35.000 37
nứt 37
Chấm_dứt 37
2008 37
tháp 37
nhìn_chung 37
rảnh_@@ 37
tự_vệ 37
98,@@ 37
thắt 37
kể_cả 37
úng 37
Dạy 37
ước_muốn 37
chót 37
án 37
lúc_nào 37
245 37
vôi_bột 37
đường_trục 37
phân_phát 37
trung_cấp 37
tạo_hình 37
nhang 37
21/@@ 37
nhơ 37
48@@ 37
Mục_đích 37
lon 37
H 37
đáp 37
cội_nguồn 37
47% 37
tố_giác 37
nề_nếp 37
_s@@ 37
ngạch 37
92 37
cơ@@ 37
đôn 37
Mu@@ 37
nấm_@@ 36
ND 36
Nhất_trí 36
cập_nhật 36
Khuyến_khích 36
lễ_hội 36
áng_@@ 36
công_vụ 36
vẽ 36
mô_tô 36
nhớ 36
hòn 36
VIII 36
2024 36
19/@@ 36
rộng_lớn 36
ùng 36
nhân_tố 36
nhắc 36
Bổ_sung 36
Thiếu_nhi 36
ước_chừng 36
n_th@@ 36
gãy 36
nữ 36
Bom 36
lực_lượng_vũ_trang 36
hiện_đại 36
4,9 36
hôn_nhân 36
6,6 36
Chịu 36
bổ 36
xâm_nhập 36
y_phục 36
giận 36
Cục 36
sang_nhượng 36
mê_tín 36
dị_đoan 36
Sơn_@@ 36
biểu_bì 36
loại_bỏ 36
bí@@ 36
giết 36
chúi 36
tôn_giáo 36
63% 36
5ha 36
anh_@@ 36
Đà_Nẵng 36
siêu_thị 36
Thanh_tra 36
Tố 36
451 36
Thạnh_@@ 36
vườn_ươm 36
CSGT 36
hấp_thụ 36
Hoặc 36
thay 36
240 36
biểu_hiện 36
26.7 36
Thiếu_niên 36
19.0@@ 36
780 36
dù 36
50,@@ 36
73% 36
ại 36
Chính 36
xói_mòn 36
hậu 36
ất 36
122 36
8.4 36
tron 36
Phun 36
blo@@ 36
wi 36
hat 36
Nguyên 36
Thơ@@ 36
tam@@ 36
dri@@ 36
Thanh_Quang 36
26/7 36
Ö@@ 36
Chinh_@@ 36
đốc_thúc 35
7kg 35
không_thể 35
bởi 35
tre 35
4.000 35
tiếp_sức 35
Từng 35
thường_vụ 35
tổng_thu 35
khai_trường 35
Mấy 35
Trưởng_thôn 35
ứ 35
bàn_bạc 35
quảng_canh 35
phát_biểu 35
mà@@ 35
thềm 35
hiện_đại_hoá 35
mặt_trời 35
cúm_@@ 35
25,@@ 35
chu_đáo 35
hoàn_chỉnh 35
đồng_vốn 35
màn 35
bao_bì 35
gần_gũi 35
27.@@ 35
đám 35
ủa 35
thủ_đô 35
thái_độ 35
mít 35
mới_đây 35
Nại 35
quanh_năm 35
Nghề 35
bay 35
Chàng 35
an_@@ 35
Cột 35
Ưu_tiên 35
CNH 35
ay_@@ 35
Rồi 35
p_@@ 35
giáp_ranh 35
non_sông 35
in_@@ 35
nách 35
Ban_@@ 35
ket 35
trung_du 35
27@@ 35
_khai 35
dy@@ 35
milim@@ 35
jong 35
tưng 35
thung 35
02% 34
trú 34
Vai_trò 34
Đời_sống 34
ranh_giới 34
Thịnh 34
15@@ 34
Đặc 34
khảo_nghiệm 34
678 34
9.9@@ 34
160 34
Đồng_hành 34
1,5% 34
cứu_hộ 34
xốp 34
tách 34
Tuổi 34
2,6 34
6,4% 34
737 34
720 34
chẻ 34
lạt 34
gh@@ 34
Lư@@ 34
địa_chủ 34
đa_chiều 34
củ_cải 34
I-@@ 34
5.0@@ 34
đàm_@@ 34
luận 34
sạch_sẽ 34
Nghĩa_@@ 34
ng-@@ 34
Vĩnh_Bình 34
bướng 34
8,7 34
chuyên_canh 34
cao_đẳng 34
ngập_úng 34
808 34
Phương_pháp 34
lợi_dụng 34
khẩu 34
38 34
97% 34
ung_thư 34
Hà_Văn_@@ 34
cố_định 34
TNS 34
127 34
60.000 34
ô_phi 34
1.450 34
1.2@@ 34
64 34
Tuyên_truyền 34
_T@@ 34
Đại_@@ 34
Viện 34
khép 34
4-@@ 34
UV@@ 34
BTV 34
tỉnh_uỷ 34
chông 34
118 34
22.@@ 34
Văn_bản 34
94,@@ 34
11% 34
trèo 34
kho_tàng 34
tol 34
loại_hình 34
kích_thích 34
gặp_gỡ 34
HIV 34
AIDS 34
Mai_Hương 34
Ko@@ 34
Lo@@ 34
ăm@@ 34
Khoan 34
û@@ 34
bày_tỏ 33
ỗ 33
tấn_công 33
10/12 33
nạp 33
ược_@@ 33
trực_tuyến 33
đô_thị_hoá 33
lãng_phí 33
ời_@@ 33
15.000 33
quyển 33
tơi 33
Phục_vụ 33
Nghiên 33
Đạt 33
rắc 33
Thao 33
buôn_làng 33
Tiếng 33
giường 33
Hạnh 33
gói 33
không_gian 33
diện_mạo 33
bắt_buộc 33
sổ_đỏ 33
dưa_hấu 33
lít 33
dứt 33
dệt 33
nguyên_tác 33
bể 33
bù 33
điểm_nóng 33
hiểm_nguy 33
kịch_bản 33
hô_hấp 33
Phổ_@@ 33
trợ_giá 33
dỗi 33
cảnh_quan 33
đụ@@ 33
c_thân 33
bí 33
Khu_phố 33
vất_vả 33
131 33
ngại 33
Phù_Mỹ 33
lợi_nhuận 33
hoạn_nạn 33
tiền_lương 33
lối 33
trội 33
lưu_giữ 33
kết_luận 33
nhiễm 33
thù 33
Địa_điểm 33
xuôi 33
66 33
chi_@@ 33
liều_lượng 33
phong_tục 33
TH 33
thuật 33
diễn_đạt 33
36,@@ 33
log@@ 33
76 33
Bio@@ 33
ala 33
lit 33
Nai 33
6.0@@ 32
rách 32
phụ_khoa 32
sâu_sát 32
phần_lớn 32
sinh_kế 32
đạo_lý 32
VN@@ 32
373 32
16.6 32
kháng 32
tổ_quốc 32
Al@@ 32
1975 32
Sữa 32
hạ_du 32
kệ 32
23@@ 32
nải 32
WB 32
chua 32
hiệu 32
nguyên_do 32
Cơ_sở 32
Lũ 32
Voi 32
CA 32
Đức_@@ 32
san_@@ 32
mạc 32
chuyên_dùng 32
mùi 32
Tâm 32
tính_mạng 32
võ_đường 32
dương_lịch 32
khử 32
quyền_hạn 32
ứng_cứu 32
Hải 32
Cảnh_sát 32
nối 32
thời_sự 32
Lý 32
sáng_tác 32
265 32
liều 32
Cường 32
duy_tu 32
bảo_dưỡng 32
dung_dịch 32
cục_bộ 32
trấu 32
nảy 32
68% 32
đồng_lòng 32
onic 32
Mas@@ 32
er 32
nhà_băng 32
lấp_lánh 32
Dự_định 32
hiện_trạng 32
Chín 32
F2 32
Trà 32
Ken@@ 32
lut_@@ 32
Hạ 32
trọ 32
262 32
119 32
lưu_động 32
nguyên_tố 32
XV 32
lắp_đặt 32
cọc 32
24.@@ 32
347 32
cực 32
chéo 32
rau_màu 32
336 32
sáo 32
86 32
81% 32
dược_liệu 32
ok 32
3000 32
328 32
Điều_chỉnh 32
19% 32
chu_kỳ 32
111 32
6/6 32
luận_@@ 32
Tiến_hành 32
đắc_lực 32
Làm_@@ 32
99 32
Nhiệm_kỳ 32
khôn 32
yto@@ 32
plasma 32
Nho 32
gặp_mặt 32
Hồng_Sơn 32
cac@@ 32
oxi 32
z@@ 32
hết_lòng 32
/12 32
Lê_Kim_@@ 32
ĐH@@ 32
116 32
88,@@ 32
89% 32
486 32
5,7% 32
49% 32
Thư@@ 32
Xu@@ 32
gu@@ 32
bat 32
phăng 31
xoay 31
thị 31
đối_ngoại 31
gieo_trồng 31
trích 31
bình_thường 31
ả_th@@ 31
nhiệt_huyết 31
1.10 31
sáng_@@ 31
chạm 31
tiết 31
sinh_vật_học 31
thuyền_viên 31
thích_nghi 31
tiềm_lực 31
xe_cộ 31
mây 31
thực_lực 31
Chủ_nhiệm 31
giải_đáp 31
Năng_suất 31
14.9 31
ngọt 31
trục 31
Quy_trình 31
ớt_@@ 31
đơn_giản_hoá 31
ạch 31
khoai 31
một_vài 31
chung_quanh 31
nạn_nhân 31
hùn 31
anh_em 31
nguồn_cội 31
non_nước 31
Cuối 31
Hệ_thống 31
bình_@@ 31
Giang_@@ 31
Vốn 31
đạm 31
chờ 31
ĐT@@ 31
182 31
Lần 31
đèn 31
cước 31
dịch_chuyển 31
gọn 31
310 31
vôi 31
108 31
khống_chế 31
xà_phòng 31
rủi_ro 31
khối_lượng 31
teo 31
12% 31
Suốt 31
9. 31
CP 31
Chiên 31
T&T 31
PT 31
14/9 31
Băng 31
Vân 31
loang 31
Mon 31
Tất_cả 30
hệ_số 30
đặc_sắc 30
ựa 30
hiểu_biết 30
Chiến_trường 30
Công_nghệ 30
Gần 30
hội_họp 30
ỗ@@ 30
kịp 30
sườn 30
15,@@ 30
ươn 30
Hay 30
lộ_trình 30
96,@@ 30
23,5 30
374 30
367 30
6,7 30
miễn_phí 30
II_@@ 30
kính 30
Lepido@@ 30
ptera 30
cỗ_@@ 30
thế_trận 30
xinh_đẹp 30
thật_sự 30
ra_đời 30
logistics 30
dội 30
cải 30
thảo 30
xà_lách 30
phân_biệt 30
Hoàng_Thị_@@ 30
Nhân_dân 30
cho_phép 30
chở 30
Trở 30
Rác_thải 30
82% 30
Kri@@ 30
” 30
dâu 30
xo@@ 30
tố 30
Giao_lưu 30
Hiệu_quả 30
lẻ_tẻ 30
mùn 30
cấp_độ 30
126 30
bệnh_dịch 30
rọi 30
Cụ_thể 30
khắc 30
1,7 30
4,@@ 30
ca_nô 30
cor@@ 30
57,@@ 30
3,6% 30
Ben@@ 30
xách 30
ó 30
Phí 30
% 30
mống 30
tháo_dỡ 30
tư_cách 30
Liên_@@ 30
PCCC 30
bọ 30
307 30
An_Khê 30
NĐ-CP. 30
835 30
7.6@@ 30
3.3@@ 30
bất_cứ 30
HF 30
GPS 30
Nghề_nghiệp 30
Cy@@ 30
i_th@@ 30
ed-@@ 30
Car@@ 30
11/2017 30
Nữ_công 30
ử 30
đông_lạnh 30
cho_nên 30
xâm_thực 30
UNESCO 30
324 30
5,9 30
92,@@ 30
Super 30
văn_thư 30
Ư@@ 30
ing@@ 30
̌@@ 30
pla@@ 30
å 30
um@@ 30
năn 30
mặt_hàng 29
quân_đội 29
nh_trùng 29
nẹt 29
Tuỳ 29
tạp 29
Do_đó 29
tự_cường 29
cá_rô 29
thuốc_trừ_sâu 29
395 29
50@@ 29
mồm 29
khuyến_tài 29
lợp 29
phơi 29
cày_@@ 29
giác 29
ỷ_s@@ 29
tổng_cộng 29
kết 29
Thuỷ_lợi 29
khuyến 29
ng_lưới 29
đọt 29
sinh_mạng 29
Tự_@@ 29
nhảy_múa 29
quý_báu 29
dự_t@@ 29
Thủ_@@ 29
Xa 29
gu 29
Giá_trị 29
Nguyên_tắc 29
sát_trùng 29
hi_vọng 29
tận_tuỵ 29
áo_@@ 29
cốt_@@ 29
29.@@ 29
trắm 29
86,@@ 29
Thông_báo 29
Hội_Chữ_thập_đỏ 29
ấm_áp 29
xoài 29
Tiêu_chuẩn 29
mẫu_t@@ 29
HD@@ 29
ầm_ầm 29
mặc_kệ 29
27/@@ 29
tin_học 29
đáy 29
điều_trị 29
Mua 29
ợ@@ 29
mùn_cưa 29
Miễn 29
Đình_@@ 29
Bốn 29
xơ@@ 29
Phan_@@ 29
đồng_tiền_mặt 29
chăm_chỉ 29
ắc 29
hoà_@@ 29
giải_viên 29
dị@@ 29
36@@ 29
Công 29
Tuyên 29
Huy@@ 29
ao@@ 29
Đôi_@@ 29
kha 29
gio 29
ak_@@ 29
siêng 29
oe@@ 29
10cm 28
lấn_chiếm 28
Phiếu 28
tiêu_dùng 28
Quan_@@ 28
nhanh_chóng 28
đề_phòng 28
30cm 28
chú@@ 28
bản_l@@ 28
ãnh 28
tháo 28
Đại_sứ_quán 28
New_@@ 28
thực_thi 28
xáo 28
2.900 28
Ạ@@ 28
c-@@ 28
si-@@ 28
suy_thoái 28
mềm 28
tuyến_giáp 28
Đêm 28
Thuộc 28
Tái 28
người_nhà 28
qui_định 28
Po@@ 28
đánh_bắt 28
kẻ 28
Nguyễn_Chí_Dũng 28
phá_hoại 28
xử@@ 28
Phương_án 28
điều_@@ 28
1/2 28
thích_ứng 28
quét_dọn 28
tình_dục 28
23.7 28
mác 28
Rứa 28
Mưa 28
đề_đạt 28
153 28
Hồng 28
61% 28
Quân_đội 28
ách 28
1.300 28
òng_@@ 28
chuột 28
619 28
480 28
dấu 28
nguy 28
649 28
29% 28
294 28
26% 28
177 28
Quán_triệt 28
“ 28
8,6 28
neo_đậu 28
vi_rút 28
Hàng_@@ 28
đất_@@ 28
93 28
hoạch_định 28
ọ_@@ 28
xít 28
Tiến_sỹ 28
vani 28
F@@ 28
/2018/@@ 28
hội_sở 28
tranh_thủ 28
Phương_thức 28
17/@@ 28
tương_đương 28
Tốc_độ 28
khéo_tay 28
91 28
69@@ 28
30ha 28
võ_@@ 28
15.9 28
270 28
2,9 28
273 28
hầm 28
ngò 28
bọ_gậy 28
30.000 28
lan 28
15.6 28
Thế 28
us 28
hoạ 28
Tết_nguyên_đán 28
bao_@@ 28
02/2018 28
Vay 28
học_kỳ 28
gấp 28
Trần_Quốc_Toản 28
chứng_kiến 28
ầy 28
Sinh 28
chiều_hướng 28
giếng 28
Dual 28
Ant@@ 28
aco 28
60.@@ 28
149 28
rộn_ràng 28
Red_@@ 28
Angu@@ 28
s 28
BB 28
74@@ 28
6,5% 28
XIX 28
wi@@ 28
Tă@@ 28
23/7 28
15/9 28
be 28
ok@@ 28
bộ_đội 27
Thu_@@ 27
Giám_sát 27
râu 27
Tớ 27
con_@@ 27
miệng 27
kiểu 27
Họ 27
lưới 27
áo_quần 27
cờ 27
Sinh_@@ 27
gan 27
điền 27
chậ@@ 27
0,7 27
lề_đường 27
tương_xứng 27
iết_@@ 27
mét_vuông 27
Á@@ 27
máy 27
vỉa_hè 27
Phơi 27
cáo_@@ 27
ao_hồ 27
xét_nghiệm 27
bảo_trì 27
Vệ_sinh 27
B. 27
lịch_trình 27
thị_hiếu 27
5,8 27
6.9@@ 27
nhúng 27
tróc 27
Cái 27
143 27
đệm 27
sông_núi 27
con_dấu 27
thiu 27
ữ 27
cuốc 27
ứng 27
khách_hàng 27
lông 27
cát_@@ 27
nghiêng 27
i_trường 27
vật 27
Giúp_@@ 27
an_viên 27
phân_lân 27
Thí_sinh 27
phản_ảnh 27
lai_tạo 27
mướt 27
động 27
Liên 27
đàn_em 27
Tổ_@@ 27
Làng_nghề 27
2/9 27
Toạ_đàm 27
văn_học 27
cần_cù 27
195 27
lây 27
Tinh_@@ 27
ề_@@ 27
mẫu_giáo 27
cương 27
iêm_@@ 27
S 27
trơ@@ 27
The@@ 27
Tâ@@ 27
uch 27
gn 27
chuy@@ 27
lik 27
Le@@ 27
Ga@@ 27
xi@@ 27
hong 27
aw@@ 27
Bi_@@ 27
Thư_@@ 27
thâm_nhập 26
hứa 26
BCT 26
đông_xuân 26
nổi_trội 26
ột_@@ 26
héo 26
họp_báo 26
vật_học 26
180 26
440 26
Tụi 26
thôn_bản 26
Tiêm 26
chuyển_hoá 26
Thanh_thiếu_@@ 26
thông_t@@ 26
ín_@@ 26
3,2 26
nhập_viện 26
chiến_lược 26
tự_chủ 26
1,9 26
lũ_lụt 26
hạng_mục 26
Nấm 26
rau_sạch 26
tính_@@ 26
Phương_Mai 26
điều_tiết 26
112 26
Sản_phẩm 26
nam_nữ 26
hạt_nhân 26
cây_công_nghiệp 26
phong_cảnh 26
đòng 26
cổng 26
11.9 26
cất_giữ 26
biên_bản 26
ngà@@ 26
76% 26
đầu_mối 26
trung_học_cơ_sở 26
06/@@ 26
Nga 26
lôi_kéo 26
BTC 26
toạ_đàm 26
4/201@@ 26
của_cải 26
Nguyễn_Văn_Long 26
phái 26
W 26
Khoảng_cách 26
chi_trả 26
238 26
trừ 26
tình_nguyện_viên 26
sự_tích 26
tàu_bè 26
ngân_hàng 26
334 26
5-10 26
277 26
Trẻ_em 26
tự_do 26
kiến 26
lở 26
Nguyên_@@ 26
chi_phí_sản_xuất 26
dưa_leo 26
198@@ 26
7,9 26
2012 26
nông_hộ 26
chúc_mừng 26
học_hỏi 26
biểu_thị 26
298 26
Nâng_cấp 26
472 26
Diệm 26
79 26
Su@@ 26
20ha 26
Siêu_thị 26
xã_hội_chủ_nghĩa 26
CNVC 26
khoáng_sản 26
phân_tách 26
mối_@@ 26
Thôn 26
đánh_dấu 26
10,5 26
VNPT-@@ 26
Gate 26
VNPT 26
2.9 26
3,8 26
5,5% 26
04/@@ 26
Ca@@ 26
gg@@ 26
su 26
CNTT 26
11/9 26
oi@@ 26
Da@@ 26
ính_@@ 26
MT 26
Ar@@ 26
chau 26
cong_@@ 25
trùng 25
khí_thế 25
ốt 25
Cựu_@@ 25
sản 25
bàn_luận 25
đọng 25
Liên_quan 25
bình_xét 25
Tuyến 25
bớt 25
tinh_gọn 25
hưởng_thụ 25
3.5@@ 25
Cử 25
có_vẻ 25
mỏng 25
chỏm 25
phép_thuật 25
nổi_bật 25
77@@ 25
tán_thành 25
hẳn 25
Ừ 25
vụ_quân_sự 25
tổn_thương 25
vệt 25
tương_ứng 25
Ban_chấp_hành 25
Chuy@@ 25
diễn_viên 25
trực 25
Trung_Quốc 25
bày 25
ngoại_trừ 25
200@@ 25
kị 25
công_@@ 25
Đề_c@@ 25
kinh_qua 25
cuộn 25
chuyên_mục 25
Rừng_@@ 25
Bôi 25
Bao_gồm 25
Cl 25
trú@@ 25
_chân 25
tổ_@@ 25
sợ 25
bí_ngô 25
thủ_đoạn 25
nạo_vét 25
độc_@@ 25
soạn 25
trọng_thể 25
Nhất_là 25
ngà 25
úm_@@ 25
khám_chữa 25
ết_thảy 25
Bồi_dưỡng 25
tiến_trình 25
Hoàn_thiện 25
xây_dựng_@@ 25
bệnh_hoạn 25
đậu_đen 25
rừng_sản_xuất 25
lưu_@@ 25
khuyến_@@ 25
chấn_chỉnh 25
Khung 25
74% 25
800 25
thơm 25
̀ 25
ale 25
Kho 25
Ki@@ 25
Jan 25
Trung_@@ 25
Thi 25
Trinh_@@ 25
Đă@@ 25
ku 25
ul@@ 25
nảy_sinh 24
châu_Phi 24
1.5@@ 24
81 24
mũ_bảo_hiểm 24
kim 24
phục_hồi 24
193 24
8,3 24
145 24
63 24
280 24
Mặt_khác 24
4-5 24
dựa 24
hội_thao 24
hạ_lưu 24
tù 24
Nàng 24
đậm 24
trút 24
đồ_sộ 24
46@@ 24
Pháp_luật 24
giảng 24
chủ_nghĩa_cá_nhân 24
bao_nhiêu 24
12.000 24
9.000 24
Xí_nghiệp 24
118@@ 24
20.4 24
ban_đêm 24
bệnh_tật 24
phần_đông 24
tu_dưỡng 24
Dự_kiến 24
0,7% 24
1,6 24
hội_nhập 24
Áp_dụng 24
nứa 24
đại_học 24
tốt_bụng 24
93% 24
từ_bỏ 24
binh_khí 24
cong 24
thạ@@ 24
ch_s@@ 24
đầm_ấm 24
rậm 24
Phóng_sự 24
6,3% 24
ỏ_@@ 24
9.3 24
Biển 24
phản_chiếu 24
Cần 24
Kịp_thời 24
Lao_@@ 24
Bas@@ 24
thanh_thiếu_nhi 24
12/2014 24
37@@ 24
Trailer 24
6/2009 24
7/2018 24
Au@@ 24
cul@@ 24
amin 24
4.900 24
91,@@ 24
623 24
sơ_cấp 24
chừng_@@ 24
kèn 24
kit 24
per@@ 24
ía 24
thân_yêu 24
WG 24
Chuyên_viên 24
Tri@@ 24
nhập_@@ 24
biên_soạn 24
đó@@ 24
n_đưa 24
45@@ 24
2,2 24
46,@@ 24
NS 24
23/10 24
Mời 24
xy 24
1953 24
1954 24
ML 24
13.6 24
nhao 24
Oh@@ 24
pi 24
dei 24
Tu 24
thâ@@ 24
aj@@ 24
ming 24
toa 24
47@@ 23
nhà_thầu 23
nước_rút 23
tình_ái 23
Dự_@@ 23
thường_nhật 23
khởi_công 23
lấn 23
núi_non 23
nặng_nhọc 23
cơn 23
nàng 23
cây_gỗ 23
miễn_giảm 23
bào 23
25% 23
kế_thừa 23
Thu_nhập 23
ẫy 23
gom 23
đều_đặn 23
12A 23
Vậy 23
Duy@@ 23
Duy_trì 23
cú 23
đề_cương 23
ngập_lụt 23
tuổi_trẻ 23
lưu_trữ 23
cỏ@@ 23
_tranh 23
văn_chương 23
phỏng 23
ghi_chép 23
nhật_ký 23
3/201@@ 23
dọn_dẹp 23
lốt 23
La@@ 23
Tổng_kết 23
ăn_th@@ 23
Thể 23
Đan 23
nhận_định 23
n_trò 23
truyền_hình 23
cây_@@ 23
Cử_tri 23
Mục 23
03/201@@ 23
đương_đại 23
Lâm_@@ 23
chép 23
thể_chế_hoá 23
mấu_chốt 23
2020-@@ 23
tằm 23
Giá 23
Đảng_Cộng_sản_Việt_Nam 23
Kali 23
Suối_@@ 23
Tiêu_biểu 23
xuất_xứ 23
trắng_@@ 23
ng_th@@ 23
Thấy 23
mến 23
an_tâm 23
/2013/@@ 23
hoá_học 23
Bảo_tàng 23
điệp 23
chức_vụ 23
căn_nguyên 23
_d@@ 23
sắt 23
khách_quan 23
đầu_vào 23
giãn 23
ưới 23
̉@@ 23
thương_yêu 23
thu_hẹp 23
9,@@ 23
Sở_@@ 23
trận 23
cương_quyết 23
bỏ_phiếu 23
Tô@@ 23
Lê@@ 23
Di 23
Sa_@@ 23
gio@@ 23
pol@@ 23
Hoang 23
lay@@ 23
uy_@@ 23
Pham 23
nh_t@@ 23
tơn 23
Cu 23
ngai_@@ 23
Ple@@ 23
ki 23
Hao 23
bấm_@@ 22
Tôi 22
kén 22
tươi_vui 22
Giải 22
Đường 22
trí_tuệ 22
cồn 22
Miền 22
nổi 22
cũ 22
khởi_hành 22
_v@@ 22
loại_trừ 22
dày 22
327 22
khách_sạn 22
Phát_hiện 22
cô_lập 22
Trần_Thị_@@ 22
bề 22
thu_mua 22
phục 22
chăm 22
giảng_viên 22
cối 22
Võ_Thị_@@ 22
giáo_@@ 22
tự_khắc 22
09@@ 22
Đưa 22
rứa 22
phóng 22
tình_nghĩa 22
cúng 22
trổ 22
Bạ@@ 22
_hầu 22
chúc_@@ 22
Cấp 22
RE@@ 22
S. 22
Hãy 22
12,3 22
Mọi 22
ò_@@ 22
Sis@@ 22
hội_thoại 22
4.4@@ 22
Chấm 22
é 22
huỷ 22
HD 22
điện_lưới 22
TT-BTC 22
Chính_@@ 22
5,2% 22
BTC-@@ 22
chữa_trị 22
Thu_hút 22
late 22
5.000 22
giao_ước 22
điểm_tựa 22
dăm_@@ 22
optera 22
Mình 22
cáng_đáng 22
vài 22
bắt_giữ 22
Đăng_@@ 22
1-2 22
chịu_thương_chịu_khó 22
3.3 22
vệ_tinh 22
bảo_hiểm 22
đố_@@ 22
tâm_sự 22
Mỹ_@@ 22
́ 22
ãi 22
họp_mặt 22
Quân 22
tiếp 22
vét 22
vịnh 22
hiến 22
thành_ra 22
ù 22
đợi 22
tem 22
HL@@ 22
sit 22
96@@ 22
PAC 22
999 22
soi 22
Ra 22
UB 22
gi 22
Bach 22
JICA 22
chinh_@@ 22
HL 22
HT@@ 21
dâng_hiến 21
tái_tạo 21
Kho_bạc 21
hấp 21
Chăm_sóc 21
288 21
hiện_tượng 21
chiến_dịch 21
Sản_lượng 21
đe_doạ 21
cỏ_@@ 21
Trăng 21
đồ_dùng 21
Nghiên_cứu 21
tiế@@ 21
chí 21
quay 21
bầu_chọn 21
leo 21
ông_@@ 21
8/2015 21
chổi 21
có_lẽ 21
Heo 21
quê 21
thôn_@@ 21
ấp 21
đọc 21
Cả 21
liên_tưởng 21
Đền_ơn_đáp_nghĩa 21
mạch 21
sơ_tán 21
10,@@ 21
Chúng_tôi 21
Sáu 21
văng 21
vỗ_béo 21
/2017/@@ 21
Quần_@@ 21
Đồn 21
Công_văn 21
cứu_trợ 21
chữa_cháy 21
dự_phòng 21
úc_@@ 21
hợp_tác_xã 21
xám 21
50kg 21
Danh 21
tây 21
Toán 21
Thân 21
Tám 21
hiểm_@@ 21
đấu_tranh_@@ 21
tiêu_@@ 21
vũ_khí 21
diễu_hành 21
nghé 21
— 21
chóng_vánh 21
PC@@ 21
ậ@@ 21
p_t@@ 21
ự 21
đót 21
Thế_mà 21
gian_khổ 21
ghế 21
xâm_lấn 21
Đội_ngũ 21
Công_bố 21
0,6 21
tẩm 21
cương_@@ 21
hội_đoàn 21
ti_vi 21
Vận_@@ 21
dụng 21
cây_lương_thực 21
Nhận_thức 21
138 21
trọng 21
thành_th@@ 21
Vòng_@@ 21
Tổng_@@ 21
vũ 21
_hình 21
cao_niên 21
Hanh 21
Phương 21
luy 21
pal@@ 21
Đo@@ 21
Hư@@ 21
tong 21
ya 21
jal 21
Ngo@@ 21
Ju@@ 21
me@@ 21
gro@@ 21
nal 21
Cham 21
hui 21
go 21
ngầm 20
Quỹ_@@ 20
nòng_cốt 20
diễn_tập 20
tư_duy 20
nắp 20
lý_thuyết 20
16.000 20
cá_biệt 20
ũ 20
Thức_ăn 20
113,@@ 20
trừng_trị 20
ái 20
chôn 20
3/@@ 20
Chăm_lo 20
nòng_@@ 20
362 20
trang_trọng 20
Cán_bộ 20
205 20
48,@@ 20
24% 20
08% 20
thay_mặt 20
côi 20
bản_@@ 20
mường 20
ngửi 20
túc_trực 20
rộn_@@ 20
ịch 20
thấm 20
nước_ngầm 20
Đinh_Xuân_@@ 20
Lời 20
trang_@@ 20
rộng_rãi 20
quan_trắc 20
yên_tâm 20
Sẵn_sàng 20
lách 20
quản 20
bác_@@ 20
quyến_rũ 20
545 20
380 20
xóm_làng 20
rai 20
Di_sản 20
thỏ 20
nh.@@ 20
sức_lao_động 20
vô_trùng 20
dân_sự 20
thận_trọng 20
Công_nghiệp 20
Dịch_vụ 20
ol 20
44% 20
81,@@ 20
hấp_dẫn 20
hiện_tại 20
Đồng_@@ 20
X 20
quyên_góp 20
máy_phát_điện 20
Rừng 20
rích 20
cuồn_cuộn 20
ngăn_cản 20
đưa_đón 20
8-10 20
vớt 20
quang_hợp 20
Còn 20
360 20
điều_lệ 20
râm 20
sọt 20
Đoà@@ 20
tiệc 20
rạ 20
nhở@@ 20
C-@@ 20
Như_vậy 20
109 20
Xã_@@ 20
Trẻ_con 20
đầu_@@ 20
bập_@@ 20
tráng 20
Người_dân 20
Chúng_ta 20
Địa_phương 20
5kg 20
tình_yêu 20
ước_mơ 20
BGDĐT-@@ 20
Ac@@ 20
tara 20
Centr@@ 20
al_G@@ 20
rou@@ 20
Khê 20
TNCS 20
đồng_ruộng 20
bão_lụt 20
BX@@ 20
tỏ 20
Gia_Lai 20
tả@@ 20
o_th@@ 20
ể 20
silic 20
Score 20
thế_kỷ 20
băng_rôn 20
10.5 20
phúc_lợi 20
191 20
tổn_thất 20
ria 20
nhăn 20
nia 20
đan_xen 20
tiên_@@ 20
Phu@@ 20
thuy@@ 20
Đe@@ 20
2015-2016 20
ang_@@ 20
ik 20
Khoang 20
nhu 20
Ale@@ 20
Ara@@ 20
ăm-@@ 20
Huy 20
ê_b@@ 20
01@@ 20
lay 19
tạo_dựng 19
Diễn_@@ 19
bảo_hiểm_y_tế 19
bừa_bãi 19
201@@ 19
hấp_thu 19
gia_hạn 19
sập 19
25-30 19
vitamin 19
phận 19
tâm_tư 19
giai_cấp 19
Trở_thành 19
VH 19
nương 19
trúng 19
khuyết_tật 19
dân_quân_tự_vệ 19
sinh_nở 19
Cận 19
vô_cùng 19
chòi 19
Quang_Trung 19
đan_lát 19
24.9 19
Sinh_học 19
nhành 19
nghi_ngờ 19
tự_t@@ 19
Tảo_@@ 19
ngon 19
phát_quang 19
bình_chọn 19
Long_Phước 19
ản 19
467 19
bong 19
phát_tán 19
hồi_phục 19
suy_yếu 19
thương_tích 19
Thời_kỳ 19
lưới_điện 19
Bộ_chỉ_huy 19
mía 19
Vùng 19
khôn_ngoan 19
kích 19
mũi 19
cách_ly 19
hạ@@ 19
khả_quan 19
công_suất 19
Huế 19
1,0 19
Trình_độ 19
500kg 19
dược_chất 19
5-@@ 19
thùng 19
Ur@@ 19
bộc_bạch 19
Tuyến_@@ 19
gẫy 19
rôn 19
nghỉ_hè 19
sĩ_số 19
rét_@@ 19
10g 19
bio@@ 19
nhận_biết 19
mò 19
người_yêu 19
lây_nhiễm 19
8.1 19
giảng_@@ 19
nhận_diện 19
Chỗ 19
150.000 19
_S@@ 19
một_lòng 19
Chi_phí 19
3.0@@ 19
Bầy 19
giàu_có 19
thổ_lộ 19
dàn_dựng 19
Đó 19
Hoàn_tất 19
di_sản 19
vật_thể 19
ex@@ 19
mưu_mô 19
Gắn 19
mil@@ 19
CN@@ 19
phòng_thủ 19
nhất_định 19
dỡ 19
TT-BGDĐT 19
Pad@@ 19
Một_@@ 19
QĐ 19
phân_khu 19
Vitamin 19
05@@ 19
q@@ 19
ninh 19
06@@ 19
h30@@ 19
nhô 19
Vai 19
BHYT 19
răm 19
VH-@@ 19
mai@@ 19
24/9 19
Nghê 19
ư_@@ 19
op@@ 19
bri@@ 19
Ari@@ 19
alu@@ 19
Tia 19
thai_@@ 19
tek 19
Cưu 19
Lâm 19
Br@@ 19
ngành_hàng 18
Thuý_Hằng 18
Chuẩn_@@ 18
trò_chơi 18
dùi 18
2cm 18
Bọn 18
GT 18
HN 18
nhân_văn 18
2.9@@ 18
TƯ 18
lõi 18
đạn_nổ 18
kêu_la 18
đối_ứng 18
yên_lòng 18
thuyết_trình 18
khản 18
gọn_@@ 18
ẽ 18
Theo_dõi 18
mánh_@@ 18
lới 18
bắn 18
gia_nhập 18
ĩ 18
bẻ 18
Thể_lệ 18
Ruộng 18
miễn_sao 18
căn_cứ_địa 18
xen_lẫn 18
gây_rối 18
3-4 18
cồng 18
nhà_nghỉ 18
Chiều_tối 18
tảo_hôn 18
huyết_thống 18
đơm 18
Toà_án 18
n_thể 18
rồng 18
cung_@@ 18
cắn 18
KT@@ 18
15-20 18
Tư_tưởng 18
Tân_@@ 18
2000 18
Hồ_Thị_@@ 18
ường_@@ 18
công_ty 18
6.600 18
Hội_viên 18
h00 18
uối 18
xúc_động 18
lở_mồm_long_móng 18
thụ_phấn 18
sơ_kết 18
chuồng 18
phép 18
làm_gương 18
lý_do 18
bì 18
bao_phủ 18
hướng_nghiệp 18
ght@@ 18
Hộ 18
48 18
tuần_hành 18
ito@@ 18
chim_@@ 18
thi_đấu 18
nguội 18
đun 18
thường_kỳ 18
tự_trọng 18
Lào 18
Campuchia 18
Lượt 18
Bệnh_@@ 18
202 18
6/200@@ 18
khẩu_hiệu 18
rơi 18
thư_viện 18
19.11 18
ST@@ 18
hộ_tịch 18
tiền_phong 18
CC@@ 18
nền_nếp 18
1/3 18
thế_chấp 18
cổ_@@ 18
bất_cập 18
cưỡng_chế 18
phá_bỏ 18
trợ 18
quí_@@ 18
ci@@ 18
giành 18
tiền_mặt 18
TNMT 18
Hoàn_Kiếm 18
lòng_sông 18
nhắm_@@ 18
hội_trường 18
ver@@ 18
ver 18
lợi_@@ 18
Ngày_nay 18
ích 18
Xem_xét 18
rườm_rà 18
SC 18
Top@@ 18
sin_@@ 18
ate 18
5/2017 18
xới 18
10/11 18
Ni 18
vi_tính 18
máy_in 18
chuyên_cần 18
Chi_@@ 18
xương 18
àn 18
Bình_đẳng 18
dễ_thương 18
5,5 18
chịu_khó 18
nhà_đầu_tư 18
Câu 18
Quảng_Ngãi 18
Nha_Trang 18
hành_trình 18
say 18
thăm_dò 18
đường_hầm 18
Tài_Nguyên 18
Môi_@@ 18
3,@@ 18
độc_lập 18
01/2018 18
549 18
nanh 18
Tây_@@ 18
6,6% 18
dự_tính 18
62,@@ 18
453 18
2/8 18
7/NĐ-CP 18
điện_năng 18
như_thế 18
SP 18
144 18
ờm 18
Chiến_Thắng 18
Xuân_Diệu 18
QH 18
bar@@ 18
MX 18
Mi_@@ 18
ping 18
Quân_@@ 18
apo 18
Quan 18
29/10 18
xưng 18
Siêu 18
Q@@ 18
Mâm 18
Lau 18
ghe 18
19/11 18
TP_HCM 18
ngan 18
11h 18
điê@@ 18
Ai 18
18/12 18
_N@@ 18
tiết_mục 17
múa_lân 17
phá@@ 17
Cảng 17
nhà_sản_xuất 17
Xoá_@@ 17
đói_giảm_nghèo 17
đề_tài 17
163 17
oạ 17
giàu_mạnh 17
tại_gia 17
quy_cách 17
kiệt 17
31.@@ 17
es@@ 17
Tình_nguyện 17
chi_nhánh 17
_thành_công 17
trúc 17
diệ@@ 17
t_trùng 17
Bộ_chính_trị 17
mủ@@ 17
Chia 17
lề_lối 17
30.7 17
hiệ@@ 17
p_tác 17
suy_dinh_dưỡng 17
Bước_đầu 17
4/2014 17
tiểu_phẩm 17
thưởng 17
luồng 17
tuyên_truyền_viên 17
Giỏi 17
tiề@@ 17
n_tiến 17
đối_xử 17
nguy_hại 17
2004 17
chiêng 17
lộc 17
cổ_phần 17
6kg 17
vở 17
bù_đắp 17
nhập_cuộc 17
mô_phỏng 17
Toà@@ 17
85@@ 17
chơi_bời 17
lêu_lổng 17
rượu_bia 17
ạn 17
đánh_võng 17
hoang_mang 17
Becamex 17
Vườn 17
Lên 17
p_tối 17
ó@@ 17
ốm_đau 17
ta_luy 17
trung_hạn 17
dầy 17
Ứng_dụng 17
chất_độc 17
n_trường 17
10-@@ 17
bối_cảnh 17
Thao_tác 17
Điện 17
Bưu_điện 17
thầy_cô_giáo 17
10/2015 17
cót 17
cầm_cố 17
Mã_số 17
7/2010 17
Truyền_thống 17
cấp_cứu 17
gân 17
mềm_mỏng 17
tôn_trọng 17
xéo 17
n_tính 17
40@@ 17
cản 17
trùm 17
Trạm_@@ 17
bảo_hộ_lao_động 17
Thầy_trò 17
hân_hoan 17
Lâu 17
hủi 17
Có_khi 17
đường_sắt 17
nghi_vấn 17
Phần_lớn 17
xếp_hạng 17
nương_tựa 17
Khuyến_học 17
tự_ý 17
hứng_thú 17
bình_ổn 17
ứng_cử_viên 17
sơ_đồ 17
CAND 17
đắp 17
hãm_hại 17
rượu_cần 17
Becamex_@@ 17
hữu_ích 17
chẳng 17
dồi_dào 17
5/2013 17
Ôn 17
Giai_đoạn 17
20.000 17
ăn_@@ 17
nghèo_đói 17
chuyên_trị 17
nghiền 17
gầy 17
Thứ_trưởng 17
đường_@@ 17
8/NĐ-CP 17
trung_@@ 17
đảm_đang 17
10/10 17
hung_dữ 17
thiện 17
rào 17
phụ_phẩm 17
phó 17
bắt_tay 17
ở_riêng 17
136 17
sách_@@ 17
Nhất_định 17
ngày_mai 17
kẻ_thù 17
̉ 17
ải 17
kiểm_điểm 17
hứng 17
người_bệnh 17
căng 17
tiếp_th@@ 17
già_cỗi 17
vuông_góc 17
hộ_sản 17
hàng_hải 17
lên_án 17
vạt 17
vũng 17
Đài 17
kiên_trung 17
lịch_sự 17
_B@@ 17
Tượng_đài 17
Chế_biến 17
tuyên_giáo 17
ac@@ 17
CS@@ 17
159 17
khe 17
7,7 17
dre@@ 17
nah 17
ko 17
Li 17
de 17
30/7 17
161 17
263 17
The 17
taluy 17
đoan_@@ 17
Bưu 17
rơ 17
un@@ 17
Ti 17
l_S@@ 17
pra@@ 17
"@@ 17
_R@@ 17
long_@@ 17
f@@ 17
24/12 17
4.7@@ 16
hiến_dâng 16
có_hạn 16
dụm 16
Ĩ@@ 16
hư_hại 16
20.5 16
Phòng_chống 16
vùi 16
5/2015 16
nông_lâm_nghiệp 16
sáng_mai 16
diệt_trừ 16
ăn_t@@ 16
Py@@ 16
alidae 16
_tr@@ 16
răng_@@ 16
ộc 16
huỳnh 16
90@@ 16
mức_sống 16
Trôi 16
Tiểu_ban 16
nh_th@@ 16
tự_@@ 16
bán_công 16
đỉnh 16
như_vậy 16
10.10 16
Thứ_@@ 16
giải_thể 16
Ra_@@ 16
30.3 16
mưa_thuận_gió_hoà 16
thóc_@@ 16
hùng 16
Mộc_@@ 16
nhĩ 16
trưng_bày 16
Form@@ 16
alin 16
Hoàn 16
nhà_@@ 16
18.9 16
xung_phong 16
h30 16
1.6@@ 16
chào 16
Hoàng 16
sàng 16
Đám 16
tươi_đẹp 16
Cảnh 16
12/2015 16
côn_trùng 16
lạm 16
229 16
đói_nghèo 16
vây 16
nhiễm_khuẩn 16
viêc 16
muồng 16
QĐ-BGTVT 16
diễn_đàn 16
Mở_@@ 16
bức_xúc 16
chân_đất 16
ngừa 16
hả 16
Bri@@ 16
đoạt 16
yêu_thương 16
Tỉ@@ 16
11/2018 16
2035 16
TTTT 16
17/6 16
QĐ-TT@@ 16
hữu_cơ 16
UBKTT@@ 16
Cỗ 16
lật 16
trải 16
o_trồng 16
15cm 16
chuyến 16
manh_mối 16
140@@ 16
ral 16
lứa 16
Mặc_dù 16
làm_lụng 16
cu_@@ 16
chỉ@@ 16
590 16
Mới_đầu 16
hoá_ra 16
gần_@@ 16
chu_vi 16
wa@@ 16
TP@@ 16
rộn_rã 16
K1 16
Kob@@ 16
đa_dạng_sinh_học 16
vâng 16
luật_định 16
sót 16
công_ăn_việc_làm 16
xà_bông 16
Col@@ 16
Quốc_Anh 16
trực_quan 16
ngư_nghiệp 16
thẳng 16
ổn_thoả 16
xích_mích 16
xuân_@@ 16
phụ_trợ 16
đời_thường 16
xông_pha 16
sức_lực 16
nông_lâm_sản 16
đấu 16
ưu_điểm 16
lai_@@ 16
đền 16
His@@ 16
him@@ 16
on@@ 16
phy@@ 16
tis 16
Dis@@ 16
tan@@ 16
thao_tác 16
sóng 16
chùa 16
ách@@ 16
QCVN 16
hoả_hoạn 16
cấp_bộ 16
Thiết_kế 16
10-20 16
năng_động 16
10,3 16
trải_nghiệm 16
ấm_no 16
Coi_@@ 16
khô_hạn 16
dải 16
Tiêu_thụ 16
Tham_mưu_trưởng 16
nái 16
tiếp_kiến 16
12,9 16
Kiên_@@ 16
cố_hoá 16
út 16
Flo@@ 16
wer 16
cao_cấp 16
Fe@@ 16
bằng_cấp 16
cam_sành 16
thuế_@@ 16
gây_dựng 16
chống_phá 16
găng_tay 16
bọ_xít 16
máy_vi_tính 16
Nguyên_đán 16
ý_tưởng 16
phát_thanh 16
ngoại_xâm 16
truyền_cảm 16
kỳ_vọng 16
bữa 16
3m 16
340 16
Rhi@@ 16
Z 16
Đề_xuất 16
479 16
cốt_cán 16
cây_cổ_thụ 16
Trình_@@ 16
u_tr@@ 16
70,@@ 16
38,@@ 16
31,@@ 16
thiệt_thòi 16
phần_mộ 16
thanh_tịnh 16
trang_nghiêm 16
axit 16
33@@ 16
Thôi 16
quang_@@ 16
dây_thép 16
7) 16
Căn 16
LĐTB 16
Diên 16
trac@@ 16
Lê 16
Thương_@@ 16
Vươn 16
Hoan 16
18/9 16
Ti@@ 16
mui 16
Cu@@ 16
tư_@@ 16
_che 16
h_@@ 16
Thiê@@ 16
khanh 16
Rin 16
VAC 16
Thuân 16
The_@@ 16
uyên_@@ 16
thu_h@@ 16
tinh_thông 16
Ĕ@@ 16
1,3 15
5.4@@ 15
xử_sự 15
thế_này 15
Kinh_@@ 15
Thành_công 15
phông_nền 15
Chúng_t@@ 15
30@@ 15
tạm_trú 15
Bác_sĩ 15
im_lặng 15
tổng_vệ_sinh 15
bất_thường 15
Cơ_chế 15
cắt_giảm 15
bất_trắc 15
như_thế_nào 15
lúa_@@ 15
gian_hàng 15
tận_tay 15
sau_này 15
đột_biến 15
Lễ_hội 15
Nghiệp_vụ 15
ỗ_@@ 15
tiệt_trùng 15
Bọ@@ 15
Bởi 15
lẽ 15
chế_tài 15
bán_kết 15
chung_kết 15
tiếng_nói 15
cất_trữ 15
thì@@ 15
ổn_@@ 15
tập_thể_dục 15
35@@ 15
minh_chứng 15
nghị_lực 15
KL@@ 15
ót_@@ 15
tiểu_khu 15
Giàng 15
trầm_@@ 15
trơ_tr@@ 15
tiêm_chủng 15
suy_nghĩ 15
giản_dị 15
ễ@@ 15
Đắc_@@ 15
Kon@@ 15
xài 15
huy_hiệu 15
để@@ 15
_kháng 15
xay 15
môi_trường_sinh_thái 15
dần_dần 15
bám_trụ 15
Ghi 15
ngón 15
phúc_@@ 15
tiêu_thoát 15
thu_dọn 15
làm_quen 15
cảm_giác 15
phiên_toà 15
xét_xử 15
sơ_thẩm 15
Tàng_trữ 15
quân_dụng 15
nhanh_nhẹn 15
Chưa 15
phúc_khảo 15
ơi_@@ 15
uốc 15
dữ 15
g. 15
ñ@@ 15
Xác_@@ 15
đại_gia_đình 15
phân_định 15
Cao_Bằng 15
tờ_rơi 15
nghiêng_@@ 15
Lính 15
20-25 15
chào_hỏi 15
báo_điện_tử 15
300.000 15
160@@ 15
So 15
6/201@@ 15
trang_lứa 15
ngon_lành 15
hội_thảo 15
bí_mật 15
uốn_lượn 15
chồn 15
QLDA 15
Ăn_@@ 15
mặt_nước 15
ỡ_@@ 15
đặc_tính 15
thụ_tinh_nhân_tạo 15
đi_ngoài 15
thảo_dược 15
tươi_mát 15
Đứng 15
cảm_thấy 15
xiết 15
mảng 15
iệt_@@ 15
Trang 15
Lôi_@@ 15
ngà_voi 15
cất_giấu 15
lỗi 15
TK 15
VV 15
sân_chơi 15
chuyên_án 15
phạm_tội 15
20.10 15
xén 15
Hơn 15
tự_tôn 15
nhiệm 15
tích_hợp 15
định_vị 15
tử_@@ 15
23.@@ 15
Nhà_giáo 15
xuất_hành 15
thực_chất 15
khuôn_mặt 15
Quan_tâm 15
nhỉ 15
23/@@ 15
khó_nhọc 15
năm_mươi 15
Trò_chuyện 15
thải 15
thí_nghiệm 15
Bàn_tay 15
nặn 15
hiện_thực 15
như_@@ 15
thể_tích 15
nhất_trí 15
sun 15
quy_tắc 15
bãi_bỏ 15
LN 15
BQL 15
cóc 15
KDC 15
2007 15
Phù@@ 15
_hợp 15
Lúa 15
lo_ngại 15
ữu 15
mới_lạ 15
cao_vút 15
bắt_nguồn 15
39@@ 15
Hắn 15
sừng 15
sụp 15
Đáng 15
cự@@ 15
uyền 15
Uống_nước_nhớ_nguồn 15
Cách_mạng_Tháng_Tám 15
hài_lòng 15
GDĐT 15
Phản_@@ 15
Logi@@ 15
2/201@@ 15
Cơ 15
Khoa 15
Be 15
5g 15
viên_@@ 15
hit 15
̌ 15
̱ 15
cheng 15
QĐND 15
.@@ 15
amu@@ 15
Tang 15
24/7 15
ka_@@ 15
ger 15
Az@@ 15
sôi 15
chro@@ 15
Bơ 15
luk 15
20/10 15
Xung 15
nm 15
hn@@ 15
LH@@ 15
TNVN 15
mg 15
ading 15
tỉ@@ 15
ake 15
Phu 15
2.000.000 14
286 14
Đáp_ứng 14
thịnh_vượng 14
Hoàn_thành 14
Dil@@ 14
Cá 14
Sáng_kiến 14
Mặt_tr@@ 14
hệ_luỵ 14
Ngừng 14
kín 14
Tẩy 14
hộp 14
50cm 14
60@@ 14
lên_men 14
Phan_Thị_@@ 14
Sống 14
có_ích 14
/2015/@@ 14
190 14
át 14
báo_cáo_viên 14
khoét 14
2009/NĐ-CP 14
gián_tiếp 14
ốt_@@ 14
Bắp 14
Hòn_@@ 14
triển 14
mức_nước 14
Cự_@@ 14
thương_tật 14
Nguyễn_Văn_Trường 14
Tủ_sách 14
550 14
dự_bị 14
n_tr@@ 14
uốn_@@ 14
Xúc_tiến 14
5,9% 14
vận_động_viên 14
bùng 14
tự_tử 14
Ngủ 14
Đứa 14
ay_mượn 14
tần 14
đo_lường 14
Đẩy 14
87 14
đoàn_tụ 14
chính_xác 14
phương_thức_sản_xuất 14
Satur@@ 14
nidae 14
ngày_ngày 14
_mài 14
555 14
1.2015 14
7.2018 14
Tổng_cục 14
Bảy 14
xiên 14
2.600 14
n_đ@@ 14
CV 14
o_t@@ 14
Cứu_trợ 14
nhảy_nhót 14
chuyền 14
vui_sướng 14
mỳ 14
giấy_tờ 14
khấm_khá 14
kề 14
60-@@ 14
gắn_kết 14
bệnh_viện 14
Zin@@ 14
Ro@@ 14
gram 14
thự 14
cảm_động 14
gấp_rút 14
có_lý 14
đúng_mức 14
12/2018 14
là_lạ 14
trĩu 14
mánh_khoé 14
lệ@@ 14
11/2 14
tưng_bừng 14
CD 14
đặt_vòng 14
7ha 14
N-@@ 14
KBNN 14
L 14
qua_@@ 14
nhấc 14
46% 14
chiếu_@@ 14
xua_tan 14
lạnh_giá 14
trí_thức 14
04.@@ 14
triệu_chứng 14
9/2012 14
Nay 14
khoẻ_mạnh 14
phần_nhiều 14
màu_sắc 14
Quan_điểm 14
Động_@@ 14
chức_trách 14
Trương_Văn_@@ 14
Khải 14
Vợ_chồng 14
Dệt 14
kiệu 14
khuyết_điểm 14
đóng_gói 14
khay 14
đi_nữa 14
/2016 14
thứ_bảy 14
trốn 14
phấn_chấn 14
77,@@ 14
77% 14
đương_@@ 14
đại_hoá 14
Chất_lượng 14
toả 14
to_@@ 14
giam_giữ 14
hẹn 14
ọp 14
đóng_tàu 14
thông_minh 14
niên 14
Vàng 14
bác_sỹ 14
20.7 14
cách_trở 14
lên_tiếng 14
GD@@ 14
gỉ 14
kỷ 14
liêm_chính 14
túng 14
Nghìn 14
nhân_cách 14
cường 14
nền_móng 14
nam_giới 14
đồi_núi 14
năm_tháng 14
mồ 14
âm_t@@ 14
chạm_trổ 14
mặt_trăng 14
Liên_minh 14
mịn 14
2,1 14
í 14
từ_từ 14
Trường_Sơn 14
0,3 14
giả_vờ 14
Kha@@ 14
8,@@ 14
Bảo_trợ 14
Nhiệt_@@ 14
Tâm_@@ 14
Tăng 14
9-10 14
lễ_đài 14
En@@ 14
cảnh_sát 14
thương_lái 14
chứ 14
Vào_khoảng 14
PE 14
Cành 14
lùng_sục 14
móc_nối 14
phần_tử 14
tỏ_tình 14
nhiệt_đới 14
giường_bệnh 14
Quy_@@ 14
Hoà_giải 14
đo_đạc 14
tỉnh_thành 14
Lan 14
Phát 14
AN@@ 14
phủ_@@ 14
Bình_Thành 14
gas 14
đối_thoại 14
quăng 14
ODA 14
ng_tr@@ 14
ừ 14
lược 14
Thầy_thuốc 14
TY 14
mạt_@@ 14
170 14
248 14
Cắt_@@ 14
ardi@@ 14
occ@@ 14
ident@@ 14
Brazil 14
Bre@@ 14
CL@@ 14
12/5 14
TT@@ 14
điện_lực 14
thoa 14
_CH@@ 14
Thuý 14
il@@ 14
2kg 14
Ranh 14
môn_sinh 14
rak 14
Tran_@@ 14
Lâ@@ 14
Nguy@@ 14
put 14
_thương 14
Nguyen_@@ 14
sa_@@ 14
ni@@ 14
Phiêu 14
bot 14
01/2015 14
ngơ 14
king 14
sy@@ 14
õ 14
iu 14
pol 14
New@@ 14
iland 14
Ta@@ 14
Năng 14
11.0@@ 14
si@@ 14
Go 14
PTNN 14
mp@@ 14
20/7 14
kk@@ 14
muôn 14
po 14
nh-@@ 14
sỹ 14
lar@@ 14
12.5 14
phản_quang 13
ngắm_nghía 13
hiểm_trở 13
4/2009 13
đài 13
bãi_tập 13
thuế 13
nệm 13
Mật_độ 13
chia_cắt 13
viện_phí 13
linh_hoạt 13
lên_@@ 13
cản_trở 13
8/2009 13
đầy_ắp 13
sáng_rực 13
khích 13
Kiến_thức 13
phản_hồi 13
Gió 13
nhện 13
Phụng 13
mìn 13
Phòng_@@ 13
rải_rác 13
Tập_@@ 13
cẩn 13
tựa 13
bổ_nhiệm 13
trung_học_@@ 13
mật 13
Lĩnh_vực 13
1/201@@ 13
phổi 13
tố_cáo 13
công_ơn 13
trời_@@ 13
động_@@ 13
Biểu_diễn 13
bài_chòi 13
bằng_lòng 13
Đặc_thù 13
Đức 13
bồ 13
thủ_lĩnh 13
tử_cung 13
thẳng_@@ 13
ập 13
Thắp 13
tự_nhủ 13
sắng 13
a_t@@ 13
khắc_nghiệt 13
Triển_lãm 13
Truyền_@@ 13
giáo 13
Lấy 13
nhà_khoa_học 13
phân_chia 13
e_@@ 13
chuối_tiêu 13
tiếp_chuyện 13
khai_phá 13
Ví_như 13
phèn 13
lầy 13
thụt 13
vũ_trang 13
1.4 13
phỏng_vấn 13
cơ_động 13
lau_chùi 13
Quy_mô 13
trộm 13
Đất_@@ 13
22.10 13
ban_ngày 13
cánh_cứng 13
mặc_niệm 13
quên_mình 13
ngắm 13
cổ_động 13
văn_bằng 13
bay_@@ 13
khổ_qua 13
Thực_trạng 13
cá_lăng 13
Nguyên_do 13
Thoả_@@ 13
tư_liệu_sản_xuất 13
Trước_tiên 13
Nơi 13
miền_xuôi 13
băng_nhóm 13
hệ 13
quy_chuẩn 13
Chất_thải 13
đi_đôi 13
9.10 13
Quốc_khánh 13
25.000 13
Thành_viên 13
Cấp_nước 13
Liệt_sỹ 13
cáo_trạng 13
10-15 13
Phát_động 13
trống 13
tận_mắt 13
mốc 13
dũng_cảm 13
chính_thức 13
rỗi 13
Khéo 13
rệp 13
thù_địch 13
bằng_phẳng 13
kiên_trì 13
ặc 13
sân_nhà 13
gác 13
Hồ@@ 13
cầm_chắc 13
nhận_dạng 13
Quốc 13
Căn_@@ 13
Phạm_Thị_@@ 13
mềm_dẻo 13
nền_tảng 13
chào_@@ 13
mào 13
nhà_tài_trợ 13
Xăng_dầu 13
bại_lộ 13
Phú_Yên 13
bướu_cổ 13
Vận 13
Chiến_@@ 13
ấn_phẩm 13
tảo 13
Cổ_@@ 13
ỉa 13
mặn 13
4/NĐ-CP 13
ali@@ 13
Liên_đoàn 13
xếp_@@ 13
Cải_@@ 13
cải_@@ 13
mạnh_khoẻ 13
trường_thọ 13
trưng_cầu 13
sợ_hãi 13
ẩy 13
đặt_hàng 13
Tiếp_cận 13
sâu_bọ 13
đấu_giá 13
chuyên_doanh 13
Bồ@@ 13
AT@@ 13
Võ_@@ 13
thuyết_phục 13
nghĩ@@ 13
đất_sét 13
khiếu_nại 13
xua_đuổi 13
biểu_quyết 13
vĩnh 13
chút 13
115 13
thanh_@@ 13
tinh_vi 13
phim 13
Khuyên 13
tế@@ 13
lương_y 13
tre@@ 13
421 13
sim 13
10m 13
lip 13
tơ-@@ 13
phen 13
phong_@@ 13
Hươ@@ 13
22/10 13
dâ@@ 13
hi_sinh 13
Vân_@@ 13
năm_@@ 13
NHC@@ 13
Thinh 13
Giai 13
Hiện_trạng 12
Chiến_binh 12
Tiểu_học 12
bao_gói 12
tái_phạm 12
điều_khiển 12
cử@@ 12
a_trời 12
1cm 12
con_con 12
giao_nộp 12
chóp 12
ngày_nay 12
hở 12
di_chuyển 12
ì 12
lên_đường 12
A3 12
per 12
rịch 12
Lực_lượng 12
viet@@ 12
đứt 12
cấp_điện 12
28.8 12
mảnh 12
ngôn_ngữ 12
29,@@ 12
bờ_cõi 12
tuỷ_sống 12
vết_thương 12
hoại_tử 12
phẳng 12
nhân_tài 12
Phạm_vi 12
ừ@@ 12
cọp 12
VPCP 12
Hùng 12
bùng_phát 12
Ban_đầu 12
óng_@@ 12
vánh 12
giới_hạn 12
thương_xót 12
ưu_việt 12
ngoại_cảnh 12
xốc 12
di_động 12
Củng_cố 12
cúm 12
vay_lãi 12
u_th@@ 12
2,5% 12
vải 12
ạ@@ 12
tự_tin 12
bà_@@ 12
Đó@@ 12
n_tiếp 12
thờ 12
49@@ 12
600@@ 12
ure 12
kal@@ 12
lorua 12
mã 12
0,9 12
513 12
5-6 12
Giải_phóng 12
1kg 12
SO@@ 12
aria 12
poly@@ 12
ariaceae 12
nạc 12
dám 12
trầm 12
KL 12
lắng_nghe 12
TP-@@ 12
bàn_ghế 12
Tạo_hình 12
phản_ứng 12
Thị_trấn 12
lẫy 12
ần_@@ 12
đồng_hành 12
Chỉ_tiêu 12
468 12
lặp 12
Biên_@@ 12
thân_thương 12
Thông_thường 12
Tr 12
đơn_giản 12
Phường 12
1963 12
khoai_@@ 12
mài 12
online 12
san_hô 12
xích_đu 12
khai_khẩn 12
máy_tính 12
máy_chiếu 12
Giữ 12
dương_tính 12
Đoan_Hùng 12
Từ_Liêm 12
1.12 12
27.4 12
phong_lưu 12
Cur@@ 12
onidae 12
hình_bầu_dục 12
trừ@@ 12
Bố_trí 12
úp 12
Bướm 12
phiế@@ 12
n_lá 12
Kể 12
phục_kích 12
mùng 12
tuần_@@ 12
ẻ 12
cầu_nối 12
đố 12
Fu@@ 12
Càng 12
cha_@@ 12
Tên 12
tác_nhân 12
ra_tay 12
vòng_hoa 12
Pegas@@ 12
Dani@@ 12
Xứ 12
hậu_cần 12
thẳng_thắn 12
1930 12
đối 12
giới_tính 12
Gửi 12
dứt_điểm 12
trí_óc 12
hành 12
0 12
khổ 12
Chú@@ 12
Luf@@ 12
Kar@@ 12
Bit@@ 12
thoát_ly 12
quật 12
lộn_xộn 12
6/NĐ-CP 12
miễn_là 12
fer@@ 12
nhiệt_độ 12
tua 12
bế_giảng 12
khổ@@ 12
thư_từ 12
Vì_thế 12
cộng_tác 12
Trước_hết 12
thực_nghiệm 12
80kg 12
bầu_@@ 12
/2018/NĐ-CP 12
Nó 12
miễn_dịch 12
Đón 12
3.8@@ 12
ký_ức 12
Già 12
nhập_ngoại 12
ĐV 12
S1 12
KD 12
TB-UBND 12
Phò@@ 12
83% 12
giãi_bày 12
mắm 12
tham_ô 12
nhà_tình_nghĩa 12
Việt 12
ứng_xử 12
Duyệt 12
bán_tự_động 12
công_thức 12
Chặn 12
86% 12
88% 12
Lưu_ý 12
stress 12
MH 12
một_khi 12
trang_web 12
Khỉ 12
Thi_đua 12
vii 12
nil@@ 12
Vie@@ 12
28/8 12
Điều_hành 12
rinh 12
Thông_th@@ 12
Dinh 12
di_t@@ 12
ul_@@ 12
phay 12
Tha 12
Gap 12
27/8 12
Vu 12
hr@@ 12
Li@@ 12
cảm_xúc 11
đồ_chơi 11
trở_ngại 11
Tuồng 11
Ngôi 11
đốc 11
gập 11
xa_xôi 11
ấn_t@@ 11
khoáng_chất 11
khí_@@ 11
phân_hoá_học 11
_h@@ 11
Mục_@@ 11
mù_chữ 11
tác_phong 11
vi_sinh_vật 11
bén 11
vàng_@@ 11
_kh@@ 11
trai_trẻ 11
tư_thục 11
Chùm 11
bút 11
ỳ 11
Đấy 11
Ngô 11
doanh_thu 11
xu_thế 11
ửa 11
nhầm 11
Cấp_uỷ 11
nguôi 11
út_@@ 11
hội_đồng 11
Bá@@ 11
n_trú 11
thi_t@@ 11
giản_đơn 11
điể@@ 11
Gia 11
Mười 11
12/2011 11
nhỏ_bé 11
thâm_@@ 11
đuốc 11
7,@@ 11
quá@@ 11
trực_ban 11
408 11
bài_học 11
lắp_ráp 11
Chúng_mình 11
khái 11
_chế 11
xuất_bản_phẩm 11
tôm_thẻ 11
tương_hỗ 11
Liêm 11
ư_lượng 11
sơ_bộ 11
hoà_mình 11
độc_hại 11
ướng_@@ 11
họp_hành 11
bình_phục 11
mộ 11
Kinh_doanh 11
bổ_ích 11
núi_rừng 11
Pi@@ 11
kinh_tế_@@ 11
quan_t@@ 11
iền 11
Mở_rộng 11
rừng_núi 11
Học_bổng 11
xướng 11
khám_xét 11
cờ_bạc 11
Uỷ_Ban 11
m_tối 11
1.000.000 11
ch_@@ 11
ngọt_ngào 11
Tư_@@ 11
giải_trí 11
rau_muống 11
Khảo_sát 11
Dân_tộc_học 11
nhãn 11
té 11
20.11 11
Vừng 11
sau_đại_học 11
Nông_Nghiệp 11
giá_như 11
uyển 11
ất_th@@ 11
mổ 11
quất 11
Ủ 11
Điều_ước 11
xoắn 11
Tin_tưởng 11
xả 11
diệp 11
đảng_uỷ 11
đơn_giá 11
Đa_dạng_@@ 11
nguyện_viên 11
giải_tán 11
ăn_ở 11
28.7 11
7/2017 11
vị_thành_niên 11
lưu_niệm 11
vừa_phải 11
tuổi_@@ 11
pháp_lệnh 11
lo_lắng 11
Khuôn_@@ 11
bí_thư 11
hầu_như 11
tác_hại 11
pan@@ 11
áp_phích 11
thắng_cảnh 11
giếng_khoan 11
yể@@ 11
Nét 11
vơ@@ 11
tải 11
Cảng_vụ 11
bình_yên 11
vụt 11
ấp_ủ 11
âm_lịch 11
_D@@ 11
Dâng 11
2040 11
sớm_@@ 11
u_@@ 11
ge 11
khổng_lồ 11
Giáo_viên 11
Tui 11
nghi_thức 11
phân_phối 11
câu_kết 11
Mỏ 11
két 11
đón_chào 11
stic 11
vung 11
chủ_thể 11
sứ_mạng 11
Đoạn 11
Thứ 11
hứa_hẹn 11
Bảo_quản 11
Huỳnh_@@ 11
mạng 11
Vi@@ 11
Phi 11
Long_@@ 11
or@@ 11
châm 11
ăng@@ 11
wing 11
Khao 11
rr@@ 11
dông 11
ï 11
ep 11
29/8 11
Cat 11
tic 11
20/11 11
û 11
Bô@@ 11
Mo@@ 11
nghiêm_minh 11
Đa 11
28/7 11
ano@@ 11
BND 11
bah 11
k_L@@ 11
Kung_@@ 11
đè 10
chồng_chéo 10
cống 10
tạp_hoá 10
hậu_phương 10
Đóng 10
ồi 10
3cm 10
luồn 10
dây_@@ 10
chun 10
nịt 10
dị_tật 10
rầu 10
Đạo_@@ 10
À 10
≥ 10
trong_suốt 10
đối_diện 10
kết_bạn 10
xí 10
m_tiến 10
tiền_án 10
tiền_sự 10
Việc_làm 10
bị_@@ 10
rừng_@@ 10
biển_@@ 10
Tỉnh_@@ 10
phối_kết_hợp 10
lén 10
yếu_thế 10
My 10
to_khoẻ 10
tái_@@ 10
náu 10
xoáy 10
liên_@@ 10
áo_ấm 10
6/2015 10
Tân_Thanh 10
Eo_@@ 10
Khô 10
Hải_Minh 10
giảm_giá 10
Đốt 10
rùa 10
vô 10
tin_@@ 10
có@@ 10
722 10
gáo 10
nhựa_@@ 10
Bordeaux 10
Bắp_cải 10
kêu 10
Lắp 10
46/201@@ 10
Gà 10
3/200@@ 10
lây_truyền 10
karaoke 10
game 10
bứng 10
liệu 10
7,4 10
7/2016 10
óm 10
vực 10
môi_giới 10
2019-2020 10
ắm 10
tiềm_ẩn 10
sấu 10
con_trẻ 10
Lớp_@@ 10
Chuyển 10
dung_mạo 10
6.000 10
TT-NHNN 10
làm_đẹp 10
rám 10
Trực_tiếp 10
Khởi_động 10
thiên_nhiên 10
120@@ 10
Cây_@@ 10
gia_vị 10
Sup@@ 10
Lân 10
Câ@@ 10
ớn 10
điều_luật 10
hàm 10
10/2017 10
ráo 10
then_chốt 10
đan_@@ 10
màu_mỡ 10
gạ@@ 10
tâm_tình 10
hoà_thuận 10
kết_cấu 10
hàng_không 10
Ngân_@@ 10
khố 10
kể_ra 10
Tiếp_@@ 10
mix 10
165 10
dung_tích 10
58@@ 10
274 10
258 10
672 10
73 10
Đặc_điểm 10
Ceramb@@ 10
icidae 10
25.9 10
15.@@ 10
130@@ 10
trông_chờ 10
kiên_định 10
thung_lũng 10
che_khuất 10
sương_mù 10
cường_độ 10
hà_khắc 10
giáp_@@ 10
tàn_dư 10
oà@@ 10
số_thành_viên 10
móc_túi 10
chánh 10
nhẹ_nhõm 10
nhộng 10
cái_@@ 10
virut 10
10/2009 10
dường 10
BYT 10
hiền 10
dứa 10
dạo 10
phì_nhiêu 10
0,4% 10
tạp_chất 10
môn_học 10
thông_@@ 10
bản_quyền 10
tràn 10
Ổ 10
86/201@@ 10
gốc_từ 10
cơ_khí 10
Tự_tin 10
ngoại 10
6/2016 10
chè 10
xấu_xí 10
độc_ác 10
Grow@@ 10
th 10
9/2018 10
đạo_đức_@@ 10
437 10
ra_hiệu 10
Đồ 10
Tinh_hoa 10
thân_tình 10
khuynh_@@ 10
tế_bào 10
Nhân_@@ 10
Vietnam 10
08@@ 10
BLĐTBXH 10
cơ_giới 10
ght_@@ 10
Master 10
con_cái 10
tác_giả 10
nhu_yếu_phẩm 10
Cân_@@ 10
kiên_cường 10
thông_tấn 10
báo_chí 10
dưa 10
trông_đợi 10
tự_tiện 10
00 10
khủng_bố 10
lán_trại 10
26.000 10
mướp_đắng 10
hiệp_@@ 10
Trình_diễn 10
Rumani 10
thoáng_khí 10
dài_hạn 10
/@@ 10
Thí@@ 10
cất 10
Thơ 10
phồng 10
thoả_mãn 10
Trâu 10
thắng 10
lãnh_thổ 10
nỏ 10
quốc_lộ 10
thuỷ_văn 10
ngập 10
thất_thường 10
phiên_dịch 10
điề@@ 10
Blan@@ 10
Ble@@ 10
Bel@@ 10
Châu 10
Hiện_tại 10
dưa_chuột 10
un 10
ứt 10
Hiện_tượng 10
tha 10
Xếp 10
Sừng 10
idium 10
sp 10
dom@@ 10
thử 10
28% 10
Kích_@@ 10
_dụ 10
Hình_thức 10
công_sức 10
2018-2020 10
Kiến_nghị 10
5.300 10
mặt_trận 10
một_chút 10
àu 10
đặc 10
kinh_tế_thị_trường 10
BC-@@ 10
5/2010 10
Hết 10
Thọ 10
Hầm 10
tim 10
Tiếp_nhận 10
Vài 10
rời 10
PH 10
quan_liêu 10
sàng_lọc 10
Uỷ_ban_Nhân_dân 10
VIE@@ 10
B40 10
vi_@@ 10
Si@@ 10
que@@ 10
ềnh 10
_Mi 10
y_@@ 10
kra@@ 10
ot 10
i_K@@ 10
giê 10
el 10
cha@@ 10
n_trung 10
De@@ 10
25/9 10
ade 10
Canh 10
huynh 10
Ne@@ 10
toi 10
Cha@@ 10
n.@@ 10
_nhân 10
Dra@@ 10
We@@ 10
áu 10
sư_cô 10
queo 9
km2 9
bảo_an 9
uống_nước_nhớ_nguồn 9
Sườn 9
NK@@ 9
CP@@ 9
885 9
X4 9
xăm 9
Bao_giờ 9
hiệp_thương 9
cấp_bách 9
phi_@@ 9
ết_tr@@ 9
Làm_việc 9
Trừ 9
24-@@ 9
chuẩn_xác 9
Gặp_@@ 9
đề_kháng 9
tấp_nập 9
ngoài_ra 9
đằm_thắm 9
vụng 9
chuyên_dụng 9
ngấm 9
chắt_lọc 9
nhà_vệ_sinh 9
thần 9
vụ_@@ 9
hẹp 9
viện_trợ 9
Ý_kiến 9
Gắn_bó 9
tin_yêu 9
quý_mến 9
hoạt_chất 9
84% 9
đỗi 9
5-7 9
tuốt 9
Cung_cấp 9
phình 9
gật 9
phân_hoá 9
nước_lã 9
làm_@@ 9
Mở 9
khổ_cực 9
cầu_đường 9
34@@ 9
thực_@@ 9
đon_đả 9
Phát_@@ 9
LTS 9
tuyên_phạt 9
Ores@@ 9
loang_@@ 9
loáng 9
xoá_bỏ 9
Nhập_@@ 9
20.@@ 9
cắm 9
nhậ@@ 9
xúc_cảm 9
công_nghệ_sinh_học 9
Quý_III 9
tụ_hội 9
30-40 9
nỗi 9
say_sưa 9
trợ@@ 9
Đàn_@@ 9
7/2015 9
tốp 9
sét 9
ứ_đọng 9
áo_phao 9
/2016/@@ 9
thẩm 9
vén 9
ngực 9
hoàn_trả 9
ẩm_thấp 9
Lồng_@@ 9
Điều_@@ 9
Đồ_án 9
buôn_bán 9
bấy_lâu 9
Nói_chuyện 9
hoan 9
hăng_hái 9
đức 9
30/9 9
barie 9
tờ@@ 9
_rời 9
ngạc_nhiên 9
ội 9
/2012/@@ 9
c_t@@ 9
bốc_xếp 9
Dân_làng 9
Lá 9
bạn_@@ 9
cao_độ 9
dải_phân_cách 9
chân_tình 9
phụ_gia 9
3.600 9
hạn_@@ 9
kép 9
Mầm 9
màng 9
06/201@@ 9
_thú 9
15/1 9
giờ_đây 9
m_tr@@ 9
địu 9
bằng_hữu 9
dầu_@@ 9
Vừa 9
khoảnh 9
chớp 9
đói_@@ 9
khóc 9
giọng 9
suy_giảm 9
bình_t@@ 9
Sao 9
ngành_dọc 9
Tháng_@@ 9
kích_dục 9
kiểm_nghiệm 9
cà_phê 9
hồ_tiêu 9
xung_yếu 9
Vẫn 9
tâm_@@ 9
Học_phí 9
ấc 9
lưu_hành 9
Uống 9
Chợ 9
miễn_nhiệm 9
Trợ_@@ 9
cây_th@@ 9
ân_@@ 9
Võ_thuật 9
/2010/@@ 9
nuôi_cấy 9
đỗ_quyên 9
đà 9
đạo_diễn 9
Mầm_non 9
công_bằng 9
Quốc_lộ 9
tội_lỗi 9
nhân_t@@ 9
iện 9
sấy 9
bản_vẽ 9
gói_thầu 9
uộc_@@ 9
bảo_hộ 9
ngẩng 9
mưa_dầm 9
tăng_sản 9
0,1 9
tiền_bạc 9
truyền_thuyết 9
Mức_độ 9
Già_làng 9
Hạ_Long 9
Phong_Nha 9
tịch_thu 9
sỏi 9
vì_thế 9
dò_xét 9
xoè 9
chuyên_@@ 9
Hội_thảo 9
Giải_pháp 9
độc_đáo 9
Khơi 9
Thành_phố 9
nứt_@@ 9
khoe 9
Đường_@@ 9
khắp_nơi 9
514 9
đậu_nành 9
huyết 9
Phá@@ 9
c_thảo 9
mai_phục 9
lợn_thịt 9
tha_@@ 9
che_kín 9
Đầu_tiên 9
vít 9
lát 9
phô_trương 9
Đăk@@ 9
gọn_gàng 9
chả 9
ruốc 9
sư_phạm 9
vinh_dự 9
ín 9
thế_lực 9
lo_âu 9
chuyể@@ 9
thất_truyền 9
12/2016 9
Ngoại_trừ 9
ặm 9
trước_sau 9
trỏ 9
chủ_quyền 9
thần_linh 9
trung_tuần 9
Tải 9
giúp_việc 9
7-12 9
hàm_@@ 9
Vỏ 9
vẹt 9
So@@ 9
trên_hết 9
vải_@@ 9
vóc 9
trói 9
nốt 9
Công_viên 9
ngue 9
NK 9
ưa@@ 9
ling@@ 9
công_tác_@@ 9
up 9
àm 9
Ak@@ 9
như@@ 9
Hả@@ 9
Khô@@ 9
Phu_@@ 9
a_h@@ 9
pum 9
trê@@ 9
ar_@@ 9
Ab@@ 9
ni_@@ 9
nê 9
xoe 9
Đô@@ 9
Trân_@@ 9
ví 9
Hinh 9
O2 9
Kiêm 9
bào_tử 8
mất_mùa 8
luật_lệ 8
Nhỏ 8
4.6 8
cầu_truyền_hình 8
hoang_tàn 8
đổ_nát 8
rơm_@@ 8
Đắt 8
tầm_vóc 8
60cm 8
toan_tính 8
gạch 8
15-@@ 8
103 8
Thuý_Nga 8
Tặng 8
vờ 8
Khoảng 8
bé_nhỏ 8
xoá_sổ 8
chí@@ 8
ốn 8
ứng_cử 8
đề_cử 8
tổng_lượng 8
Thiết_lập 8
nhãn_hiệu 8
Xuất_phát 8
huyệ@@ 8
đò 8
Na 8
30-@@ 8
xưa 8
Nấm_@@ 8
2-@@ 8
thậm_chí 8
san_ủi 8
mặt_phẳng 8
tác_phẩm 8
8/9 8
hiền_lành 8
chăm_chăm 8
Quyết 8
đị@@ 8
ị@@ 8
_lệ 8
5) 8
Kiểm_dịch 8
dẫu 8
thụ_tinh 8
quên 8
Thời_điểm 8
www.@@ 8
gov@@ 8
.vn@@ 8
). 8
nụ 8
Nguy_cơ 8
ỗi 8
1/2010 8
đùm 8
Nam_Trung_bộ 8
Ban_Giám_hiệu 8
băn_khoăn 8
thắc_mắc 8
gai 8
cảnh_tỉnh 8
tội 8
giấu 8
90-@@ 8
50-60 8
vã 8
Thầy_giáo 8
Quá_trình 8
Quy_hoạch_@@ 8
quyết_sách 8
đúng_đắn 8
Hình_thành 8
Thịt 8
17,6 8
chiếu_bóng 8
ới 8
hổ 8
Mắc 8
3/2014 8
đòi 8
TW@@ 8
ượng_@@ 8
tự_vẫn 8
bộc_trực 8
biên_chế 8
thức 8
trước_hết 8
22@@ 8
Tiền_Giang 8
Hưng_Yên 8
bóng 8
Số_lượng 8
tàn_lụi 8
Phan_Thanh_@@ 8
nhường 8
cốt_lõi 8
2,8 8
bắc_@@ 8
2.300 8
3.000 8
tàng_trữ 8
am_hiểu 8
lừa_đảo 8
ơn_@@ 8
mít_tinh 8
chỉ_định 8
thầu 8
sở_hữu 8
khuyết 8
vành 8
nắng_@@ 8
nướng 8
thuốc_lá 8
không_khéo 8
chỉnh 8
bản_chất 8
Cày 8
Ngâm 8
hoà 8
thuần_khiết 8
Chiến_sĩ 8
xâm_phạm 8
quyền_công_dân 8
dụ@@ 8
ình 8
hồ@@ 8
mong_chờ 8
ca_@@ 8
nhấn 8
chữ_nhật 8
123 8
lưu_lượng 8
tị@@ 8
ị 8
2008/@@ 8
7/2008 8
ẩn_chứa 8
ngưỡng 8
đảm_đương 8
cực_khổ 8
tâm_can 8
Bổ@@ 8
_dưỡng 8
mầm_mống 8
tiềm_tàng 8
hoa_quả 8
Vầng 8
vò@@ 8
dàng 8
đền_@@ 8
bồi 8
chật 8
tình_th@@ 8
ực_tế 8
Cơ_sở_dữ_liệu 8
một_@@ 8
Gặp 8
462 8
ức_trách 8
cấu_kết 8
bầu_bạn 8
nội_ô 8
phên 8
đại_trà 8
dân_lập 8
giáo_dục_phổ_thông 8
chế_@@ 8
rợp 8
260.000 8
320.000 8
dầu 8
thử_thách 8
bất_khả_kháng 8
Tốt 8
bán_kính 8
App@@ 8
ud 8
7,5 8
11.000 8
ngả 8
cam_chịu 8
làm_sao 8
TTL@@ 8
biên_dịch 8
ca_hát 8
tương_@@ 8
chỉ_thiên 8
đẫm 8
hung_hãn 8
tiểu_@@ 8
ký_sinh 8
thiên_@@ 8
6.700 8
1-3 8
nhất_thiết 8
20kg 8
mau_chóng 8
LĐT@@ 8
BĐG 8
đó_đây 8
lò@@ 8
át_@@ 8
phản_biện 8
3-6 8
hiện_vật 8
loài_người 8
Trước_@@ 8
bước_đi 8
dũng_mãnh 8
video 8
gà_công_nghiệp 8
xu_hướng 8
Năng_lực 8
cán_sự 8
èo 8
197@@ 8
Giàn 8
bêtông 8
lớn_tuổi 8
2/3 8
Sửa_đổi 8
thuận 8
Trung_học 8
1995 8
ngóc_ngách 8
176 8
Đặng_Văn_@@ 8
tù_và 8
loét 8
72@@ 8
Khí_hậu 8
đòn 8
Trần_@@ 8
9/200@@ 8
2O 8
tham_khảo 8
vẹn_nguyên 8
Ri 8
a_L@@ 8
mượt 8
Cao_@@ 8
pH 8
đạo_@@ 8
phân_đạm 8
hệ_sinh_thái 8
Tây_An 8
Bình_Hoà 8
hoa@@ 8
m_thư 8
gió_lùa 8
liềm 8
ud@@ 8
lâu_nay 8
Lý_@@ 8
Đủ 8
Bán 8
nồng 8
Hổ 8
ồn_ào 8
Chỉnh 8
65% 8
Đặc_trưng 8
thiến 8
USD 8
Trình_tự 8
Ánh_sáng 8
Trung_bình 8
172 8
105 8
giải_ngũ 8
kế_toán 8
Xu_thế 8
toàn_cầu_hoá 8
quốc_tế_hoá 8
10/2013 8
yêu_@@ 8
Lát 8
bốn_mươi 8
NQ-CP 8
Bác_Hồ_kính_yêu 8
Khen_thưởng 8
Tác_dụng 8
/2015/NĐ-CP 8
chụp 8
chân_thành 8
tản_@@ 8
bao_cao_su 8
3,3% 8
lat@@ 8
e-@@ 8
Bav@@ 8
is@@ 8
phách 8
ới_@@ 8
7,1% 8
4,8% 8
7,7% 8
Hô@@ 8
Xét_@@ 8
Tờ 8
í_th@@ 8
đế@@ 8
áng 8
bèn 8
trọc 8
NH@@ 8
Ö 8
ga@@ 8
đông_y 8
tran 8
ui 8
Jor@@ 8
Nam_Trung 8
As@@ 8
dò@@ 8
ran@@ 8
kon@@ 8
TR@@ 8
mit 8
Tong 8
Cân 8
ë@@ 8
ở_@@ 8
seo 8
rah 8
hi 8
ye@@ 8
Dj@@ 8
dia 8
Kw@@ 8
ặp 8
ìm 8
My_@@ 8
A. 7
chứng_minh 7
Dụng_cụ 7
ành_@@ 7
ngăn_trở 7
ì_xì 7
bộ_đồ 7
vac@@ 7
cin 7
sán_lá 7
cây_bụi 7
bạc_màu 7
2/@@ 7
Trái 7
16% 7
lò_mổ 7
Tương_@@ 7
Liên_hệ 7
phòng_ngự 7
lông_t@@ 7
nhà_báo 7
tác_nghiệp 7
1m 7
chặt_@@ 7
trụi 7
suy_kiệt 7
Phú 7
hà_@@ 7
bá 7
nuốt 7
cao_bằng 7
PC 7
cao_áp 7
vãi 7
kho_bãi 7
thâm_độc 7
khúc_@@ 7
sú 7
7-10 7
n_s@@ 7
ữa 7
Khai_@@ 7
nấp 7
hùng_hậu 7
Thúc_đẩy 7
2023 7
giám_đốc 7
6/2012 7
Điện_lực 7
đường_phố 7
Y_Tế 7
ao_t@@ 7
vinh_hạnh 7
Thế_thì 7
quảng_cáo 7
nội_thành 7
12.9 7
ôn_đới 7
ẩm_ướt 7
Thực_tế 7
kiện 7
anh_dũng 7
dính_dáng 7
Dần_dần 7
Cảm_ơn 7
2005 7
nguyện 7
Ngoại_ngữ 7
nhan_sắc 7
lý_tưởng 7
QP-@@ 7
toàn_thân 7
ngứa 7
cóp 7
cá_lóc 7
239 7
/2010 7
trái_vụ 7
nấy 7
đồ_án 7
Chuẩn 7
Ngoại_vụ 7
ẩm_@@ 7
Giám 7
139 7
Chờ_đợi 7
cướp 7
kỷ_cương 7
lễ_tết 7
1/500 7
ửi_@@ 7
nhà_vườn 7
tự_tạo 7
Cho 7
Thế_nào 7
hữu_hiệu 7
10.000 7
nhạc 7
y_t@@ 7
iết 7
cao_sản 7
hạch_toán 7
7/2011 7
u_ám 7
Dùng_@@ 7
Cách_mạng_công_nghiệp 7
rưỡi 7
lượm 7
thế_@@ 7
khuyên_nhủ 7
khắc_ghi 7
tích_luỹ 7
an_t@@ 7
Giả@@ 7
m_thiểu 7
56,@@ 7
Bạo_lực 7
Biể@@ 7
thông_suốt 7
nghỉ_dưỡng 7
ườm 7
11-12 7
ny 7
Hội_chữ_thập_đỏ 7
Hạng 7
ở@@ 7
_mồm_long_móng 7
nơi_@@ 7
nhẵn 7
cò 7
thất_thu 7
mất_mát 7
chợ_@@ 7
xông 7
Ví_dụ 7
ar 7
trái_@@ 7
sai 7
Ghi_nhận 7
bị_động 7
ghẻ 7
đất_hiếm 7
mặt_khác 7
thời 7
nhận_xét 7
tai_nạn 7
trước_@@ 7
tận_thu 7
lá_m@@ 7
triệt 7
hoạt 7
áp 7
Đừng 7
thường_trú 7
Cộng_đồng 7
chướng_ngại 7
/2015 7
trước_tiên 7
thần_th@@ 7
ốc_@@ 7
Sương 7
Sơ_kết 7
uốn 7
̣ 7
̃@@ 7
9/2016 7
chìa_khoá 7
thất_thoát 7
Mù@@ 7
n_cưa 7
tinh_dầu 7
trong_sáng 7
3,4 7
1.4@@ 7
Đề 7
ố 7
lung_tung 7
Tây_Nguyên 7
10kg 7
9.0@@ 7
tài_năng 7
quẳng 7
Vậy_thì 7
ăn_uống 7
vẹn 7
Vui_mừng 7
ồng_tr@@ 7
Khối 7
tiền_nong 7
âm_u 7
làng_xóm 7
hành_@@ 7
cuối_cùng 7
ng_t@@ 7
chú_tâm 7
xưởng 7
ghế@@ 7
No_@@ 7
Ái 7
kiểm_ngư 7
êu 7
nghiệp_@@ 7
uốn_l@@ 7
nhả 7
hỏng 7
đối_địch 7
Tri_thức 7
ạo_@@ 7
nhập_khẩu 7
lái_buôn 7
Võ_Văn_@@ 7
vinh_quang 7
ch_th@@ 7
Chân 7
ươi_@@ 7
phạm_pháp 7
Khí_tượng_Thuỷ_văn 7
khí_tượng 7
Rắn_@@ 7
243 7
trang_trí 7
59@@ 7
151 7
hung_t@@ 7
ợn 7
45-@@ 7
6-8 7
thổi_@@ 7
Rung 7
8.000 7
Đầu 7
4/200@@ 7
er@@ 7
G 7
Thuỷ 7
nhân_loại 7
chống_cự 7
quyền_sở_hữu 7
thẫm 7
Khái_@@ 7
Cương_lĩnh 7
quá_độ 7
Chủ_nghĩa_@@ 7
Điều_lệ 7
diều 7
nhộn_nhịp 7
bạch_đàn 7
Vẻ 7
thăng_hạng 7
ph 7
ng_tuổi 7
căn_bản 7
đối_kháng 7
nhân_quyền 7
º@@ 7
đường_mòn 7
chợt 7
lùm 7
nặng_nề 7
qua_lại 7
đèo 7
tức_giận 7
ầm_ĩ 7
imi@@ 7
x-@@ 7
yên_@@ 7
hốt_hoảng 7
_dịch 7
nghĩa_địa 7
̃ 7
hàn_the 7
Hệ_số 7
mạnh_thường_quân 7
tạo_lập 7
giám_hộ 7
Họp_@@ 7
tính_toán 7
bịch 7
/2014 7
sốt 7
chữa_@@ 7
nhẹ_nhàng 7
3ha 7
định_canh 7
đại_bàng 7
ảo 7
hành_lang 7
vệ 7
bất_ổn 7
Tự@@ 7
_tín 7
56@@ 7
tạm_bợ 7
Nguyên_nhân 7
thơm_nức 7
khô_héo 7
bại 7
19.10 7
đỡ_đẻ 7
sản_phụ 7
nhiễm_trùng 7
băng_huyết 7
dường_như 7
vút 7
V 7
dum 7
sỉ 7
ami@@ 7
Ó 7
12.0@@ 7
12/9 7
Lai 7
Đôn 7
ring@@ 7
nghệ 7
tác 7
èm 7
lý 7
sei 7
k_M@@ 7
kilô@@ 7
tân_th@@ 7
Yên 7
Tây_nguyên 7
E@@ 7
tram@@ 7
Thuỷ_văn 7
189 7
9/10 7
Cương 7
im@@ 7
cay 7
Kiê@@ 7
dak 7
điển 7
19/10 7
nga 7
xấp_xỉ 6
16.0@@ 6
sân_bay 6
4/2012 6
Quý 6
Quy_chuẩn 6
xót 6
78% 6
48.@@ 6
520 6
Fus@@ 6
arium 6
it@@ 6
tle 6
núm 6
BCĐ 6
trang_trải 6
sai_phạm 6
ia_@@ 6
Nguyễn_Việt_@@ 6
thách 6
Khối_@@ 6
7.4@@ 6
vặt 6
nện 6
Trần_Văn_@@ 6
Tủ 6
kinh_ngạc 6
Kỳ_@@ 6
184 6
604 6
VHTTDL 6
tràn_@@ 6
Cải_tiến 6
nộ@@ 6
i_tiêu 6
thông_dụng 6
giá_thành 6
Rõ_ràng 6
tính_năng 6
dược_@@ 6
chảy_máu 6
chiế@@ 6
Trách_nhiệm 6
chộp 6
190@@ 6
đại_bộ_phận 6
Công_cụ 6
chạy_chữa 6
đế 6
trù@@ 6
dị_vật 6
bết 6
mẩu 6
con_đẻ 6
trùng_lặp 6
75@@ 6
NQ-@@ 6
dính 6
nhạy_cảm 6
khuynh_hướng 6
Cú 6
bè_@@ 6
3.7@@ 6
Tiếp 6
đứng_chân 6
trữ 6
Lợi_ích 6
Cắm 6
sổ 6
quy_@@ 6
đấu_nối 6
Kiện_t@@ 6
oàn 6
Vận_chuyển 6
Thí_dụ 6
420 6
200kg 6
mẫn_cảm 6
ước_mong 6
11/2016 6
Tin_học 6
20-@@ 6
Cám_ơn 6
Huỳnh_Thanh_@@ 6
giấu_giếm 6
tàng 6
365 6
TC 6
quốc_sách 6
hàng_đầu 6
Đồng_bào 6
học_trò 6
lùi 6
góp_ý_kiến 6
Đổi_mới 6
12/2012 6
Chuyển_@@ 6
Xâm_@@ 6
rơm_rạ 6
trợ_cấp 6
vỡ 6
đầu_cơ 6
tăng_giá 6
tuỳ_tiện 6
rẽ 6
du_kích 6
1,2% 6
lột 6
250@@ 6
chiểu 6
ẩm_thực 6
thuyền 6
lướt_ván 6
hòm 6
mười_lăm 6
việc_@@ 6
mở_đường 6
Bưởi 6
Phú_Diễn 6
ngoại_tỉnh 6
Dây 6
Ag@@ 6
lợn_nái 6
Hố 6
lưng_chừng 6
d-@@ 6
vệ_@@ 6
nhãn_mác 6
đi_sâu 6
nhạt_nhẽo 6
nấm_mốc 6
phá_h@@ 6
38-@@ 6
khoáng_vật 6
Chủ_yếu 6
thầy_cô 6
Khách 6
rữa 6
bố_dượng 6
mến_@@ 6
phải_chi 6
thấm_th@@ 6
Trung_học_@@ 6
Vi 6
con_nuôi 6
cự 6
Qua_@@ 6
tự_động 6
ọ@@ 6
bấm 6
dây_leo 6
ấn 6
chăm_chú 6
cán 6
Cứu_@@ 6
xoăn 6
ác_@@ 6
Cỏ 6
đáo 6
18.11 6
lớp_@@ 6
3/2016 6
bầu_dục 6
trộm_cắp 6
hộ@@ 6
i_thương 6
10-11 6
60-70 6
Chủ_đề 6
phục_dựng 6
7-@@ 6
xoay_tr@@ 6
dán 6
Dec@@ 6
is 6
mer@@ 6
niềm_nở 6
của_@@ 6
ìu 6
Hiền 6
Trịnh_@@ 6
32@@ 6
.... 6
2016-2021 6
8,5% 6
264 6
n_tích 6
Cấp_@@ 6
tập_@@ 6
Nộ@@ 6
i_trị 6
ee@@ 6
năm_xưa 6
quân_thù 6
rời_rạc 6
kết_hôn 6
Vương_@@ 6
Trường_@@ 6
lưỡng_lự 6
8/10 6
Tiết 6
kiệm 6
Độ 6
kiềm_chế 6
òn_t@@ 6
Giải_quyết 6
Liên_Hợp_Quốc 6
truy_cập 6
XD 6
VP 6
Bị 6
đêm_ngày 6
28-@@ 6
Đầu_@@ 6
kiểm_kê 6
IUU 6
gan_dạ 6
điều_hoà 6
nghe_nhìn 6
tuyên_án 6
sin 6
nghiện 6
0.@@ 6
Đổ_@@ 6
kiểm_định 6
Chuyên_@@ 6
Năng_lượng 6
hồi_sinh 6
hiệp 6
31/3 6
30/4 6
Tỷ 6
hợp_lệ 6
Hậu 6
Lộc 6
ire 6
Com@@ 6
ite 6
Nis@@ 6
sor@@ 6
con_nít 6
khóm 6
ợ_@@ 6
ôn_tập 6
3/4 6
địa_chính 6
khẩn_cấp 6
810 6
946 6
đừng 6
Vận_tải 6
Di_chúc 6
phụng_sự 6
nghị_định 6
Dành 6
chung_chung 6
hô_hào 6
tiểu_vùng 6
tư_thương 6
tập_trung_dân_chủ 6
6,1% 6
ấm_@@ 6
KHĐT 6
sứ_mệnh 6
mọng 6
đục_@@ 6
95@@ 6
Lựa_chọn 6
Phòng_ngừa 6
Bắc_Nam 6
kết_duyên 6
Thi_hành 6
Nguyễn_Xuân_@@ 6
Toán_@@ 6
IC@@ 6
6/2018 6
VH@@ 6
địa_danh 6
4/2015 6
cửa_ngõ 6
tàu_bay 6
cửa_@@ 6
tóc 6
Phạm_Xuân_@@ 6
303 6
290 6
ương_@@ 6
giấy_báo 6
nhập_học 6
lưỡi 6
Trần_Xuân_@@ 6
Tình 6
tầm_cỡ 6
phân_vân 6
tra_cứu 6
nghẽn 6
tiêu_hoá 6
đặc_trị 6
diều_hâu 6
Nhà_cửa 6
vắng_lặng 6
CT-TTg 6
Ngọc_Ánh 6
ìn_@@ 6
lũ_quét 6
thu_th@@ 6
thân_nhân 6
đơn_sơ 6
ng_l@@ 6
Cát_Hải 6
Tiết_kiệm 6
am_tường 6
Hi_vọng 6
vụ_việc 6
Ân_@@ 6
kê_khai 6
Hỷ 6
Tháp 6
fur@@ 6
bas@@ 6
Vic@@ 6
Visa 6
Reg@@ 6
ent 6
az@@ 6
in@@ 6
48% 6
Can 6
gra@@ 6
Ro 6
t_tr@@ 6
Chanh_@@ 6
Tin 6
hoc 6
n-@@ 6
al_@@ 6
đơ 6
ju 6
Trôm 6
Cl@@ 6
thanh_minh 6
/10 6
Thâm 6
Ta 6
Rô@@ 6
Thi@@ 6
o_@@ 6
18/11 6
pro@@ 6
KH@@ 6
yo 6
chăng 6
Đương 6
kh 6
uk 6
ví@@ 6
ang@@ 6
Yêu 6
Khen 6
Chinh 6
ě@@ 6
giấy_@@ 5
đính 5
Của 5
Xuất_hiện 5
ba_mẹ 5
Chế_độ 5
tuyền 5
thông_thạo 5
lột_xác 5
chọc 5
Bụng 5
6/2013 5
Dự_trữ 5
che_giấu 5
i_trọng 5
Bé 5
cự_ly 5
Kỹ_năng 5
kỹ_lưỡng 5
thực_ra 5
Cả@@ 5
m_t@@ 5
cằn_cỗi 5
ngoại_thành 5
bạn_bè 5
loa_kèn 5
Co 5
Núi 5
tán_@@ 5
bọc 5
Mừng_@@ 5
ạ_@@ 5
thí 5
dể 5
6.2018 5
quầy 5
đũa 5
trông_mong 5
Khuyến_@@ 5
xế 5
tối_ngày 5
viê@@ 5
QH@@ 5
nhà_hàng 5
éo 5
chiến_trường 5
hình_dạng 5
Cập_nhật 5
3/2017 5
thiết_lập 5
ai_t@@ 5
tư_l@@ 5
iệu_hoá 5
xì 5
Nguyễn_Huỳnh_@@ 5
mong_đợi 5
57.000 5
Đố@@ 5
Độ_ẩm 5
70-80% 5
y_trồng 5
kẹp 5
ặng_@@ 5
ăn_trộm 5
tiểu_thương 5
Tay 5
Trông 5
khấu_hao 5
31.7 5
7m 5
nẩy 5
hoá@@ 5
_sinh 5
Mong 5
25-@@ 5
Râu 5
cách_mạng_công_nghiệp 5
tập_sự 5
sốt_ruột 5
ệ_@@ 5
cấp_thoát_nước 5
bẩy 5
ỷ_lại 5
hoang 5
Phong_cảnh 5
Bà@@ 5
o_tử 5
kích_@@ 5
hữu 5
tội_ác 5
500@@ 5
87@@ 5
huỷ_bỏ 5
thứ_sáu 5
2,4% 5
u_tạo 5
thông_điệp 5
nhồi 5
Nổi_bật 5
xôi 5
Bỗng_nhiên 5
chế_tạo 5
xen_canh 5
độ_@@ 5
phì 5
≤ 5
đường_sá 5
Vùng_đất 5
biến_chuyển 5
y_tr@@ 5
trường_giáo_dưỡng 5
biến_chứng 5
tử_vong 5
khô_cằn 5
10/2016 5
phục_viên 5
Lửa 5
chế 5
n_lựa 5
phụ_lục 5
cạn_kiệt 5
phí_sản_xuất 5
ờ_@@ 5
xoa 5
Mặt 5
Thanh_@@ 5
ghiền 5
64@@ 5
đại_@@ 5
bảo_lưu 5
khảm 5
nặng_lãi 5
Nằm 5
chìm 5
nhà_đất 5
iếu 5
ọi 5
Ý 5
buồn 5
ngược 5
thân_mật 5
cậ@@ 5
đền_ơn_đáp_nghĩa 5
Cô_@@ 5
vay_@@ 5
bợ 5
ừng_@@ 5
hoang_@@ 5
phí_@@ 5
sai_trái 5
Nguyễn_Ngọc_@@ 5
6-7 5
ửng 5
nắng_nóng 5
Đợi 5
mặt_biển 5
cơ_sở_dữ_liệu 5
Khí@@ 5
ch_lệ 5
Công_ước 5
chỉ_số 5
thuộc_tính 5
lẻn 5
số_báo_danh 5
quốc_@@ 5
Danh_sách 5
nan_@@ 5
khó_coi 5
2002 5
Đẳng 5
Nhà_đầu_tư 5
cây_cỏ 5
tù_đày 5
khán_giả 5
hoang_hoá 5
nguyên_vẹn 5
In_@@ 5
bướu_@@ 5
dữ_dội 5
thanh_toán 5
giáo_dưỡng 5
giáo_trình 5
i_tiết 5
Hội_đồng_quản_trị 5
ẹo 5
quây 5
đường_biên 5
nhốt 5
hành_nghề 5
tài_khoản 5
hò_hét 5
bác_bỏ 5
ụp 5
Cứ 5
đình 5
thông_thường 5
Đặt 5
gũi 5
Khởi_@@ 5
3/2019 5
đậu_tương 5
bóng_mát 5
hiền_từ 5
biện 5
vô_cơ 5
chát 5
Nghệ_thuật 5
Thủ_tục 5
ngóc 5
Khái_niệm 5
1.200 5
liên_đới 5
vừa_rồi 5
biết_ơn 5
Dân_sự 5
ính 5
Cứ@@ 5
u_t@@ 5
bệnh_xá 5
190.000 5
bè_bạn 5
Bùi_Thế_@@ 5
400@@ 5
én 5
triệu_tập 5
Chắc 5
léo 5
Hoàng_@@ 5
Cộng 5
ba_má 5
trẻ_thơ 5
can_đảm 5
thúc 5
Kính_Thiên 5
Đeo 5
9/2014 5
trái_phiếu 5
vấn_nạn 5
hậu_hĩnh 5
Chính_trị 5
700@@ 5
nghành 5
chống_@@ 5
ỏi 5
chiến_sỹ 5
cầm_đồ 5
môn_phái 5
hò@@ 5
_la 5
ợi_chờ 5
tẹo 5
Cảnh_quan 5
Nguyễn_Văn_Hưng 5
mất_tích 5
trục_vớt 5
hoàng_hôn 5
Hiệu_trưởng 5
chế_tác 5
Bến 5
vừa_mới 5
Dễ 5
lục_địa 5
che_đậy 5
hàng_@@ 5
Trải 5
7/2013 5
protein 5
tiêng 5
ton 5
Ky 5
Ko 5
ring_@@ 5
Hang 5
plu@@ 5
31/7 5
Đoan_@@ 5
mo_@@ 5
Tri 5
í@@ 5
k_S@@ 5
Ý@@ 5
Lay@@ 5
lum 5
chiêm 5
ưu_@@ 5
Kai 5
cp 5
Thiên 5
Han 5
rei 5
bây 5
lơ_lửng 4
Đặng_Thị_@@ 4
2/NĐ-CP 4
tích_trữ 4
để_@@ 4
Thành_tích 4
Học_@@ 4
EU 4
Đài_phát_thanh 4
chức_@@ 4
ẩn_náu 4
đàn_ông 4
muối_ăn 4
thể@@ 4
_trọng 4
riêng_lẻ 4
4-6 4
hành_t@@ 4
Trang_@@ 4
Phí@@ 4
_tổn 4
mũi_@@ 4
trẻ_@@ 4
ùng_@@ 4
hoại 4
trái_lại 4
trêu 4
pháp_@@ 4
luật_@@ 4
mai_sau 4
ăn_tạp 4
đĩ 4
45.000 4
cương_vị 4
30-50 4
nghiệm 4
4/2010 4
tê_liệt 4
khinh_@@ 4
Mặc 4
Tuyển_@@ 4
Tuyệt_đối 4
ng_trệ 4
tổ_tiên 4
iền_@@ 4
Sưu_tầm 4
ực_th@@ 4
uộc 4
Quản 4
11/201@@ 4
16,@@ 4
phanh 4
đầu_máy 4
ồn_ã 4
74,@@ 4
Hạ@@ 4
_tầng_cơ_sở 4
Cốt_@@ 4
Nhật 4
lương_bổng 4
Vết 4
ö@@ 4
ö 4
chủ_chốt 4
Tân_Lạc 4
Hoà_Bình 4
Da_@@ 4
Xanh 4
ưởi_@@ 4
Quế 4
Lực_lượng_vũ_trang 4
31.10 4
Con_cái 4
c_thúc 4
Lòng 4
đồng_sự 4
Cơ_sở_hạ_tầng 4
bát 4
ý 4
KH-UBND 4
Hội_đồng_Nhân_dân 4
ết 4
Nhìn 4
thất_thiệt 4
Góp 4
Biểu_dương 4
Trần_Văn_Minh 4
9.1 4
chốc 4
1,4% 4
20,@@ 4
22,5 4
mông 4
Man_@@ 4
đái 4
báo_@@ 4
Bật 4
lăng_xê 4
trốn_tránh 4
TTg-@@ 4
rìu 4
phân_huỷ 4
ấ@@ 4
thải_loại 4
bất_ngờ 4
800m 4
diêm_@@ 4
nhe 4
Lâu_nay 4
:@@ 4
V.@@ 4
bẹ 4
thất_bát 4
Kệ 4
Quân_khu 4
quản_trị 4
giả_bộ 4
tự_sát 4
344 4
4/2016 4
ù_@@ 4
vùng_trời 4
KTN 4
Đền_@@ 4
chức 4
Bùi_Minh_@@ 4
công_ích 4
Võ_Việt_@@ 4
01/2016 4
liệu_@@ 4
cách_biệt 4
Bao_@@ 4
QVN 4
ựu 4
chấp_thuận 4
uỷ_ban 4
màng_@@ 4
đau_ốm 4
thần_thánh 4
ện 4
ngờ 4
ái_tình 4
di_truyền 4
Vật_liệu 4
lõm 4
trầy_xước 4
Kịch_bản 4
500.000 4
khốc_liệt 4
Chủ_trương 4
Chương_@@ 4
2026 4
0,3% 4
Cỏ_@@ 4
Phụ 4
lục 4
Sức_khoẻ 4
gan_@@ 4
Minh_Vương 4
vun_đắp 4
ào_ào 4
phóng_sự 4
clip 4
14.000 4
chỉ_thực 4
210 4
Bấy_@@ 4
cỏ_cây 4
bong_gân 4
Đào_Văn_@@ 4
è 4
ẩn_nấp 4
Biết 4
à@@ 4
nh_thể 4
ọng 4
ồ@@ 4
tắc 4
sẹo 4
thở 4
ngấy 4
Ban_Bí_thư 4
TL 4
40kg 4
vú 4
đi_@@ 4
3/2009 4
hoàn 4
ngưng_trệ 4
ắt_@@ 4
_thích 4
ế_@@ 4
tía 4
Công_nhận 4
Xuất_@@ 4
đồng_loại 4
Hai_mươi 4
14.4 4
tín_nhiệm 4
100.000 4
máy_bay 4
cụm_từ 4
337 4
biệt_lập 4
Đất_đai 4
ngoằn_ngoèo 4
Soạn 4
ngành_@@ 4
nghĩa_trang 4
Phước_Hưng 4
Phước_@@ 4
Phước_Hoà 4
Phước_Hiệp 4
Hợp_nhất 4
Cao_điểm 4
tranh_chấp 4
Nhân_khẩu 4
Đúng 4
tồn_dư 4
tải_trọng 4
gian_nan 4
tiêu_khiển 4
Mỗ@@ 4
435 4
5/2009 4
Né 4
11/2011 4
uyện 4
sưu_tầm 4
Khai_mạc 4
Sân_vận_động 4
Lúc_nào 4
_tông 4
quý_trọng 4
Đậu 4
nhất_thể_hoá 4
hoà_tan 4
Nguyễn_Đình_@@ 4
kim_ngạch 4
ốc 4
tốn 4
lâm_thời 4
tố@@ 4
i_d@@ 4
Võ_Đình_@@ 4
Kha 4
11.3 4
tôm_sú 4
Phát_hành 4
12-15 4
0,2% 4
văn_thơ 4
CĐ@@ 4
PH@@ 4
xấu_hổ 4
vụn 4
dòng_họ 4
thư_th@@ 4
SN 4
biến_dạng 4
lầm 4
ầm_@@ 4
móng 4
agar 4
thuỷ_@@ 4
hành_quân 4
dạ_@@ 4
lau 4
mẩy 4
Nhà_Văn_hoá 4
xấp 4
ốm_yếu 4
231 4
la_hét 4
xác_suất 4
18@@ 4
RAT 4
Khúc 4
miếng 4
riêng_biệt 4
ào 4
thăng_@@ 4
hạng_@@ 4
Thẩm_quyền 4
dự_trù 4
Phước_Lộc 4
nghỉ_ngơi 4
khiêu_vũ 4
ững_@@ 4
gối_đầu 4
đốt_phá 4
tranh_luận 4
nhà_chùa 4
đình_@@ 4
tích 4
_lực 4
chằng_@@ 4
quấy_@@ 4
biểu_mẫu 4
Bao_nhiêu 4
đau_lòng 4
Sơ_đồ 4
72.000 4
xó@@ 4
m_th@@ 4
tư_cách_pháp_nhân 4
sẩy 4
hoán 4
giầy_dép 4
nông_cụ 4
Hoà_@@ 4
thầy 4
phi_cơ 4
nguyên_@@ 4
tủ_sách 4
tạ@@ 4
Chính_quyền 4
trường_phái 4
ngụ 4
bài_bạc 4
ầu_@@ 4
ỏng 4
mả 4
Nguyễn_Hoàng_@@ 4
Sâm 4
350@@ 4
60kg 4
Đố 4
sự_@@ 4
7. 4
đền_đáp 4
ế_t@@ 4
1980 4
91% 4
đấu_sĩ 4
ngoèo 4
ngày_đêm 4
226 4
Nội_chính 4
iến 4
bập 4
Hoá_ra 4
sen 4
Kon_Tum 4
nhởn_nhơ 4
Nguyễn_Thanh_Hải 4
tạm_cư 4
chìa 4
âm_@@ 4
chủ_sở_hữu 4
mai_một 4
Duy_@@ 4
tình_cảnh 4
Điền 4
lử@@ 4
Lin@@ 4
ann@@ 4
Karen 4
Trịnh_Xuân_@@ 4
Đạm 4
xuất_bản 4
ý@@ 4
liệt 4
Thá@@ 4
i_dương 4
hộ_sinh 4
12/2007 4
bao_trùm 4
KH-@@ 4
Niên 4
Trà_@@ 4
bóng_râm 4
ăn_đủ 4
QĐ-@@ 4
3,0 4
Hường 4
chen 4
ben@@ 4
mặn_mà 4
khuây 4
Cộng_hoà_xã_hội_chủ_nghĩa_Việt_Nam 4
lụa 4
700.000 4
Kim_Lân 4
coi_chừng 4
Tăng_@@ 4
Bạt_@@ 4
bỏ@@ 4
Thuận_@@ 4
Truyền 4
600.000 4
SM 4
Mỹ_Dung 4
Sum@@ 4
lâm_@@ 4
Phi_@@ 4
Vịnh 4
Kum@@ 4
-B@@ 4
ATGT 4
11/2012 4
31% 4
axit_amin 4
thiêng 4
lự@@ 4
ung_@@ 4
ngang_@@ 4
26/12 4
31/10 4
Go@@ 4
Hoan_@@ 4
TTg 4
Ha 4
sâm 4
liên_minh 4
Nhi 4
Xa_@@ 4
Hồ_Chí 4
nh_tinh 4
_V@@ 4
oa 4
ing_@@ 4
ret 4
beng 4
blu@@ 4
Che@@ 4
Jung 4
Đau 4
ics 4
khá@@ 4
ngao 4
ăn_tiêu 4
Hồng_Hạnh 3
chào_đón 3
Mẫu 3
Báo_@@ 3
cáo_viên 3
Tuy@@ 3
ên_truyền_viên 3
báo_đáp 3
Đôn_@@ 3
Trình_bày 3
tóc_tai 3
ỉ 3
2009-@@ 3
nhỏ_tuổi 3
điều_hoà_nhiệt_độ 3
cá_tầm 3
Thống_nhất 3
cụt 3
phòng_vệ 3
Chậm 3
Chùa 3
vách 3
3/NĐ-CP 3
12/2013 3
chắc_chắn 3
Nguyễn_Minh_@@ 3
Chính_uỷ 3
Đờn 3
120.000 3
tiết_canh 3
ày_@@ 3
xói 3
kia_@@ 3
thôn_xóm 3
tín_hiệu 3
õng 3
đầu_tàu 3
lặn 3
Tổ_dân_phố 3
lòng_đường 3
đãi_ngộ 3
Song 3
hành_xử 3
đúng_mực 3
Phổ_biến 3
tu_@@ 3
điệu 3
hát 3
Học_sinh 3
ẻ_@@ 3
Tầm 3
nhà_lớn 3
lim 3
phát_@@ 3
loay_hoay 3
bài_toán 3
gỡ 3
Ngăn_chặn 3
lợ@@ 3
sầu 3
nức_tiếng 3
i_thay 3
nước_đá 3
Dạo 3
ngắn_gọn 3
băm 3
biên_giới 3
lên_đồng 3
97,@@ 3
Thông_số 3
òm 3
xem_chừng 3
Nhu_cầu 3
đa_phần 3
tự_phát 3
chém_@@ 3
nguôi_ngoai 3
Hồ_@@ 3
sử_dụng_@@ 3
ắc_@@ 3
ỏm 3
giao_tiếp 3
lipid 3
234 3
Buộc 3
phổ_quát 3
bầ@@ 3
tuỳ_thuộc 3
gia_cường 3
nén 3
hộ_khẩu 3
Thảo_@@ 3
xã_@@ 3
Bỗng 3
mỏ 3
thân_@@ 3
sĩ 3
túc 3
kềnh 3
ịnh_@@ 3
= 3
ỉnh_@@ 3
tự_lập 3
lỡ 3
Trị_giá 3
xen_kẽ 3
đối_mặt 3
vị_thế 3
Sở_hữu_trí_tuệ 3
chuộng 3
2.5 3
6,4 3
cây_lâu_năm 3
tổng_quát 3
Cẩn_thận 3
Bình_quân 3
Nhà_t@@ 3
ình_@@ 3
hậu_h@@ 3
đáo_hạn 3
tấm_tắc 3
C. 3
chành 3
khứa 3
Chờ 3
bước_tiến 3
Giao_dịch 3
Thay_mặt 3
nhân_sĩ 3
thâm_niên 3
thông_tư 3
292 3
Ham@@ 3
Lấp 3
hữu_dụng 3
Hai_@@ 3
cha_ông 3
đượ@@ 3
bán_buôn 3
tiến_quân 3
6/2017 3
trẻ_hoá 3
Chánh_án 3
kiếng 3
tuyển_sinh 3
bí_ẩn 3
trang_hoàng 3
chuyển_dạ 3
Tu_@@ 3
tái_hiện 3
ôm_ấp 3
Chuyển_đổi 3
chỉnh_sửa 3
Nhện 3
ăng_@@ 3
địa_hình 3
Dự_thảo 3
nhất_thời 3
tả 3
thuỳ 3
ông_bà 3
Quốc_Khánh 3
bệnh_phẩm 3
01-@@ 3
83 3
ùa 3
0-@@ 3
F 3
sôi_động 3
đậm_nét 3
ằn_@@ 3
ngán 3
thiệp 3
Thưa_@@ 3
Tha_@@ 3
phái_@@ 3
mầu 3
kiêm_nhiệm 3
đối_nội 3
đường_thuỷ 3
Truyền_th@@ 3
Nông_sản 3
mơ_ước 3
xa_cách 3
183 3
tổ@@ 3
găng 3
nhận_@@ 3
Văn_học 3
đích 3
20/2 3
chúng_nó 3
Nuôi_trồng 3
thuyền_trưởng 3
lẻ_loi 3
581 3
Tiết_mục 3
riết 3
bộ_môn 3
Đại 3
899 3
Khách_@@ 3
óng 3
mới_mẻ 3
Cải_cách 3
Thi_công 3
ngăn_cách 3
truy_nã 3
cướp_giật 3
Trần_Minh_@@ 3
nhị 3
phiền_hà 3
Tây_Nam 3
trung_chuyển 3
cao_tốc 3
nhảy 3
Nổ@@ 3
i_trội 3
ắ@@ 3
ng_tai 3
không_phận 3
Tìm 3
chủ_quản 3
Cụ@@ 3
_thể_hoá 3
ổi 3
Khá 3
bao_giờ 3
bộc_lộ 3
gài 3
BO@@ 3
N1 3
4/5 3
5/4 3
bịt 3
thủ@@ 3
ng_thẳng 3
Thu_Thuỷ 3
Toan 3
Tôn_vinh 3
xộc 3
xuất_phát 3
Hồng_@@ 3
bình_minh 3
bại_liệt 3
đau_yếu 3
tổng_@@ 3
điện_thoại 3
Gia@@ 3
ừu_@@ 3
dìu 3
3-@@ 3
ml 3
Chiế@@ 3
thừa 3
hú 3
đun_nấu 3
váng 3
dẻo 3
dặm 3
bất_th@@ 3
ần 3
cô_độc 3
trật 3
Lãi_suất 3
rúc 3
ãi_bày 3
lên_lớp 3
44@@ 3
lóng 3
Quỹ_Hỗ_trợ 3
Hướng 3
Tiền 3
63/201@@ 3
8/2013 3
nhát 3
hát_@@ 3
vị@@ 3
0,4 3
Tuyể@@ 3
Đánh_giá 3
giẫm 3
Bày_tỏ 3
43@@ 3
ẹt 3
152 3
Cẩn_trọng 3
Bọ 3
nổi_danh 3
nóc 3
ngày_kia 3
50.@@ 3
ũ@@ 3
Tí@@ 3
uỷ_viên 3
vội 3
phát_hành 3
xuất_viện 3
chuyên_sâu 3
chuyên_biệt 3
hối 3
thớ 3
Can@@ 3
Phân_bón 3
sá 3
Bầu_@@ 3
Quyên 3
trưởng_đoàn 3
xế_chiều 3
ăn_cắp 3
_chừng 3
n_t@@ 3
mụ 3
Gọi 3
Chớ 3
Hàng_hải 3
Cộng_@@ 3
Từ_@@ 3
biên_tập 3
Thư_ký 3
_dạ 3
chất_béo 3
thế_nào 3
huấn 3
ghìm 3
2019-@@ 3
giao_hữu 3
Dạ 3
bàn_cờ 3
2001 3
huyết_@@ 3
dụ 3
vàng_lá 3
aly 3
Hữu_Nghị 3
Nguyên_liệu 3
chấp_nhận 3
Sùng 3
560 3
để_dành 3
DS 3
quả_cảm 3
lẳng 3
tele@@ 3
phone 3
thửa 3
Kết_nối 3
Bộ_ngành 3
kẻo 3
755 3
5,3% 3
vội_vàng 3
ame 3
Sở@@ 3
Quý@@ 3
nhân_danh 3
nang@@ 3
niêu 3
Thao_@@ 3
Bê 3
tak@@ 3
E 3
LĐ-@@ 3
mí@@ 3
Truy@@ 3
ên_@@ 3
Thay 3
Tra@@ 3
ks 3
yong 3
Đảng_viên 3
AN_@@ 3
Kat 3
Cách_mạng 3
Van 3
tiể@@ 3
nh. 3
ê_@@ 3
rum 3
BO 3
PN 3
Nguyễn_Thị_Thu 3
Ma_@@ 3
âng_@@ 3
ili@@ 3
Châu_@@ 3
jean 3
hê@@ 3
Cambo@@ 3
Dư@@ 3
Bah@@ 3
pia 3
Sung 3
Lãi 2
quản_lý_@@ 2
Chi_tiết 2
sĩ_quan 2
8-@@ 2
tôi_@@ 2
Bãi_@@ 2
pháp_quy 2
Nhanh_chóng 2
bỡ_ngỡ 2
cữ 2
Nhập 2
tăng_@@ 2
cường_lực 2
kẽ 2
giờ@@ 2
nít 2
đậm_đà 2
bất_động_sản 2
Trọng_lượng 2
415 2
Nho_@@ 2
nón_@@ 2
hình_nón 2
Khảo_@@ 2
1,1% 2
Hợp_đồng 2
76@@ 2
3.000.000 2
chẵn 2
i_tạo 2
nóng_ruột 2
TV@@ 2
thóp 2
vỡ_lẽ 2
Vấn_đề 2
tư_liệu 2
194 2
3/2011 2
Viết_@@ 2
chờ_mong 2
chán 2
V6 2
quát 2
đăng_@@ 2
MW 2
chắn_@@ 2
trông_@@ 2
6/2017. 2
Thay_đổi 2
sáp_nhập 2
đổi 2
85-@@ 2
liên_hoàn 2
2/2017 2
Kèm 2
tăng_gia_sản_xuất 2
đăng_tải 2
mũi_nhọn 2
thanh_mai 2
bình_lặng 2
ngót 2
Rước 2
cải_tiến 2
Cổng 2
xước 2
đối_@@ 2
với_@@ 2
múa 2
Ồ 2
hài_hoà 2
TĐ 2
thận 2
tốc 2
tráo 2
gậy 2
Nguyễn_Phi_@@ 2
thong_dong 2
Nghiê@@ 2
m_túc 2
167 2
Tác_hại 2
SL@@ 2
BXH 2
chùi 2
_diệt 2
Thăng_Long 2
1km 2
SX@@ 2
Thể_hiện 2
Ham 2
Yên_Bái 2
Quảng_Ninh 2
Thì 2
mông_@@ 2
đút 2
cất_@@ 2
ầ@@ 2
Hòn 2
Sứ 2
rành 2
gỗ@@ 2
_thể 2
giờ_@@ 2
Vũ_Văn_@@ 2
Đoạt 2
Mẹo 2
M8 2
Miên 2
12.500 2
võng 2
độ_pH 2
Tiểu 2
che_chắn 2
sẫm 2
Chú_@@ 2
hội_th@@ 2
nôn 2
lừa 2
20cm 2
lăm_@@ 2
20h00 2
ạnh 2
ham_@@ 2
8/200@@ 2
ỡn 2
Muộn 2
nạm 2
39.@@ 2
900 2
hỗ 2
nylon 2
Phủ 2
Cộng_sản 2
9/2010 2
Nhiệt_độ 2
rầm 2
Gieo 2
ối_@@ 2
rậm_@@ 2
ì_@@ 2
ngoại_lai 2
nhịn 2
Phục 2
võ_sĩ 2
Tốt_nghiệp 2
Nguyễn_Thanh_Sơn 2
Chừng 2
bệt 2
t_t@@ 2
Bàn_giao 2
cơ_yếu 2
Muốn 2
638 2
ường_tr@@ 2
ục 2
kinh_tế_tri_thức 2
tết_@@ 2
dàn 2
476 2
34.@@ 2
chài 2
một_tí 2
Thành_phần 2
36% 2
61,@@ 2
178 2
nhiệ@@ 2
ham_mê 2
Chim 2
nồng_nhiệt 2
ná 2
chúng_mày 2
Dựa 2
Sự_nghiệp 2
cẩm 2
rứt 2
gia_cố 2
363 2
Cô_giáo 2
đếm 2
quản_lý_Nhà_nước 2
Hoài_Nam 2
Trần_Thanh_Hải 2
kim_loại 2
pháp_nhân 2
quan_lại 2
Vũng_@@ 2
Chua 2
dúi 2
vèo 2
Chiến_đấu 2
995 2
Kim_@@ 2
bỏng 2
Ép 2
thuộc_cấp 2
iể@@ 2
Đào_Đức_@@ 2
Tuấn 2
30.9 2
tự_phê_bình 2
phê_bình 2
Thi_đấu 2
do_dự 2
11/2008 2
ẩn 2
văn_hoá_phẩm 2
Phạm_Đình_@@ 2
Tòng 2
đắt 2
nổi_tiếng 2
cài 2
Tìm_hiểu 2
Song_song 2
hoàng 2
thực_tập 2
cách_thuỷ 2
1000@@ 2
Cổng_Thông 2
linh_@@ 2
gối 2
197 2
1.100 2
164 2
2015-2020 2
4,2 2
6. 2
_tây 2
tan_tành 2
hé 2
cụp 2
lụ@@ 2
Giảm 2
kỷ_luật 2
Im_lặng 2
tha_thứ 2
Trang_thiết_bị 2
bánh_tẻ 2
thổ@@ 2
chẽ 2
55@@ 2
chui 2
2.3 2
xoắn_@@ 2
ýt 2
Tiểu_khu 2
870 2
chỉnh_trang 2
thiết 2
lốc 2
thế_thì 2
Khối_lượng 2
nguyên_chất 2
khởi_nghĩa 2
1945 2
Trần_Vũ_@@ 2
Ñ@@ 2
dắt_@@ 2
Tìm_kiếm 2
Kiên_quyết 2
tỷ_lệ_@@ 2
Việt_Trung 2
mong_ước 2
Đấu_tranh 2
Trần_Huy_@@ 2
Giáp 2
1400 2
đươ@@ 2
thường_niên 2
749 2
Điều_khoản 2
Tam_@@ 2
gõ_cửa 2
Di_dời 2
12/2017 2
4.3 2
Hải_@@ 2
Giang 2
Tranh_thủ 2
kẻ_trộm 2
nitrat 2
Trân_trọng 2
tại_sao 2
bí_hiểm 2
ung_t@@ 2
Châu_Âu 2
Gồm 2
ni_cô 2
ừa 2
văn_nghệ_sĩ 2
vă@@ 2
Xuất_bản 2
song_ngữ 2
vắng 2
5-3 2
vợt 2
xóc 2
đoản 2
Radio 2
chắt 2
SK 2
sp@@ 2
ray 2
Plus 2
Per@@ 2
meth@@ 2
Wi@@ 2
max 2
búa 2
ương_t@@ 2
Phản_ánh 2
Tỏ 2
Nguyễn_Xuân_Sơn 2
Đô_thị 2
nhiệt_thành 2
thiết_@@ 2
2021-@@ 2
nạt 2
tháng_một 2
03/2017 2
Nguyễn_Văn_Dũng 2
than 2
y.@@ 2
PO@@ 2
00@@ 2
6B 2
Lê_Hồng_Phong 2
cóng 2
Chào 2
Lò 2
thân_t@@ 2
Thị_xã 2
đến_cùng 2
dung_lượng 2
mét_khối 2
Rau_@@ 2
On@@ 2
col 2
Trung_học_cơ_sở 2
Trung_học_phổ_thông 2
CĐ-@@ 2
khẩn 2
năng_@@ 2
lực_@@ 2
Tránh 2
Khái 2
404 2
DV 2
ạn_thảo 2
Đài_@@ 2
ệt 2
mười_hai 2
2016-2020 2
khảo_cổ 2
bổ@@ 2
Thiế@@ 2
t_thực 2
cá@@ 2
dối 2
ngoái 2
Ông_@@ 2
Phan_Trọng_@@ 2
100ha 2
Tỉnh_Đoàn 2
ụt 2
VX 2
2,1% 2
bồ_câu 2
Hồng_Nam 2
nhất_@@ 2
Bồng 2
nhiêu_@@ 2
rã 2
bàn_cãi 2
Mang 2
nuôi_dưỡng 2
Viết 2
đùi 2
Thế_giới 2
sải 2
hăng 2
góc_độ 2
đánh_@@ 2
Mặt_trời 2
33,@@ 2
65@@ 2
7,2 2
dè_chừng 2
Tân_Cảng 2
Đống_Đa 2
Thủ 2
tướng 2
tế-@@ 2
vacxin 2
có_thai 2
uốn_ván 2
ói_@@ 2
12.11 2
lễ_nghi 2
húc 2
413 2
398 2
147 2
UBND@@ 2
Mì 2
vi_lượng 2
ẹn 2
ưa_chuộng 2
benz@@ 2
oằn 2
bùa 2
bảo_trợ 2
mồ_côi 2
thị_thành 2
chung_cuộc 2
Phục_hồi 2
cục 2
làm_gì 2
xa_xăm 2
2011-@@ 2
Hiệu 2
An_Hoà 2
Bùi_Thị_Xuân 2
thanh_bình 2
1,5-2 2
chẳng_những 2
Sa@@ 2
Đa@@ 2
Khuy@@ 2
ăn_gian 2
Thành_@@ 2
4/2018 2
điếm 2
80,@@ 2
53,@@ 2
phước 2
sulf@@ 2
ur 2
nhạt 2
Liên_t@@ 2
mửa 2
hôm_qua 2
phẳng_lặng 2
đơn_độc 2
khoảng_không 2
ghi_điểm 2
Thuế 2
BC 2
xui 2
/2011/@@ 2
8/2011 2
Thị_uỷ 2
Thành_uỷ 2
lâu_đời 2
ướ@@ 2
ten 2
nơ 2
trọng_tải 2
ông_cha 2
8-1 2
8-5 2
lụt 2
Tổng_lượng 2
Dao_@@ 2
nhợt 2
NC 2
ầ 2
xổ_số 2
kiến_thiết 2
photo 2
12/2008 2
dắt 2
chước 2
Mặc_kệ 2
Phước_Mỹ 2
219 2
vá 2
Dược_liệu 2
22.7 2
id@@ 2
Yến 2
Điển 2
Định_hướng 2
Kho@@ 2
Phù_Đổng 2
Dọc 2
oz@@ 2
ed 2
lus 2
Ei@@ 2
13% 2
liếm 2
Cha_con 2
Vâng 2
phe_@@ 2
túm 2
đất_liền 2
4/2011 2
nấu_nướng 2
Dao 2
Nguyễn_Thanh_@@ 2
Mừng 2
TBT 2
then 2
đảm 2
Phan_Văn_@@ 2
Khổng 2
lưu_huỳnh 2
Buông 2
132 2
990 2
nghi_lễ 2
tinh_hoa 2
Pháp_lệnh 2
gồ 2
CH 2
Võ_Ngọc_@@ 2
Sỹ 2
soạn_thảo 2
nhỏ@@ 2
Hiện_@@ 2
Trần_Trọng_@@ 2
đạp 2
8/2016 2
Nguyễn_Tuấn_@@ 2
giá@@ 2
c_độ 2
Chí_@@ 2
185 2
ị_@@ 2
vị 2
phân_kỳ 2
104 2
Khanh 2
_trình 2
nhà_xưởng 2
Nguyễn_An_@@ 2
Pha 2
DL 2
Luật_Giáo_dục 2
cá_tra 2
hoành_tráng 2
Phối 2
Thắng 2
hoà_trộn 2
TTr 2
TTN 2
Việt_@@ 2
ut 2
đanh 2
Hung 2
UBTVQH 2
t-@@ 2
Kem 2
Đ-@@ 2
jah 2
đông_du 2
chang 2
ale@@ 2
Na@@ 2
Ninh 2
Aro@@ 2
jar 2
miêu 2
25/12 2
bit 2
Đào_@@ 2
nhấ@@ 2
t_thể 2
STT 2
top 2
trụ 2
te 2
rắp 2
Uy_@@ 2
Hu@@ 2
Hoang_@@ 2
Tranh 2
Âu 2
9/201@@ 2
nar@@ 2
doanh_nhân 2
236 2
uyết 2
Lo 2
Ja_@@ 2
ỡ@@ 2
hoạch 2
80@@ 2
Vitamin_A 2
12/11 2
Je@@ 2
Măng_@@ 2
TQ 2
Thứ@@ 2
tân_t@@ 2
22/7 2
Yê@@ 2
_Lê_@@ 2
17.11 1
đẽo 1
quân_nhân 1
ụm 1
Qui_@@ 1
phất 1
uỷ_ban_@@ 1
mớ 1
chi_cục 1
Quí 1
giỡn 1
hèn 1
bảo_tàng 1
mộng 1
liếc 1
Hiến 1
31.000 1
Hồ_Ngọc_@@ 1
lôi 1
Đậy 1
Ngôi_sao 1
Liên_Bộ 1
chĩa 1
bạ 1
xuất_nhập_cảnh 1
rách_@@ 1
rưới 1
đồ_vật 1
ng_trắng 1
kèo 1
cấp_@@ 1
véo 1
4.9@@ 1
cãi_@@ 1
lộn 1
Vị_trí 1
100.000.000 1
còm 1
bả 1
Dược_@@ 1
may_mắn 1
tiến_cử 1
trà_@@ 1
co_@@ 1
Hợp_tác 1
Thể_Thao 1
nhật_thực 1
cằm 1
hay_là 1
vỡ@@ 1
ạc 1
bấy_nhiêu 1
sinh_@@ 1
con_đ@@ 1
ỷ_l@@ 1
ảm_đạm 1
minh_@@ 1
so_sánh 1
bãi_nhiệm 1
kí 1
Ba_mươi 1
rũ 1
nói_@@ 1
láo 1
cà_chua 1
Chữ@@ 1
lắc 1
tàn_phá 1
lưỡi_câu 1
Luân_@@ 1
sưng 1
lục_@@ 1
ồn 1
ểu 1
luộc 1
xẹp 1
mãi_mãi 1
méo_mó 1
iên_t@@ 1
kỳ_đà 1
ẩn_n@@ 1
kẻ_c@@ 1
ắp 1
trần_truồng 1
vốn_tự_có 1
liên_doanh 1
Sản_xuất 1
ngày_sinh 1
19/5 1
đại_lễ 1
9/2009 1
lừng_danh 1
kĩ_thuật 1
bùi_@@ 1
ùi 1
tiểu 1
buồn_rầu 1
8/2012 1
thuốc_súng 1
họ_hàng 1
dạy_dỗ 1
rủi 1
bờ_rào 1
hít 1
sậm 1
văn_phòng 1
Đối_@@ 1
cộc 1
rên 1
nầy 1
TP. 1
no_nê 1
quát_mắng 1
Mạ@@ 1
Lắp_đặt 1
dã_chiến 1
ngậm 1
mời_thầu 1
đấu_thầu 1
chậm_chạp 1
ĩnh 1
tươi_cười 1
Tài_Chính 1
Tuyên_bố 1
sưởi 1
Biến_đổi 1
đùa_@@ 1
cú_@@ 1
thợ 1
Thu_Hà 1
chỗ_đứng 1
nứt_nẻ 1
Lợn 1
Cách@@ 1
_tân 1
&@@ 1
tính_tình 1
toang 1
tép 1
rậm_rạp 1
5m 1
dâu_@@ 1
Đất_nước 1
khấn_@@ 1
ổng 1
sướng 1
gấp_@@ 1
cấu 1
mùi_vị 1
Phẩm_@@ 1
Hạnh_@@ 1
cảm 1
vỡ_lở 1
cật 1
bổ_trợ 1
mạo_hiểm 1
Giao_@@ 1
lòng_trắng 1
thúng 1
uố@@ 1
uột 1
tê_giác 1
03/2018 1
quát_tháo 1
mệnh_lệnh 1
Phân_loại 1
Bố_@@ 1
Tổ_Quốc 1
vắng_mặt 1
400.000 1
Tổ_tiên 1
đẹp_đẽ 1
quơ 1
lượn 1
43/201@@ 1
nguy_cấp 1
ngào 1
tờ 1
đánh_cá 1
íu 1
một_t@@ 1
ợp 1
vẫy 1
phong_lan 1
thương_hàn 1
Nguyễn_Thái_Bình 1
Tổng_Biên_tập 1
Sông_Cầu 1
nòi_giống 1
bênh_vực 1
ăn_quả 1
rạng 1
nịnh 1
Bắt 1
Hiếu_@@ 1
cứa 1
hỗn_láo 1
vênh 1
Tiể@@ 1
7.200 1
gõ 1
Thúc_@@ 1
Đĩnh 1
như_thể 1
thề@@ 1
nội_các 1
gánh 1
Huỳnh_Quang 1
tranh_@@ 1
42/201@@ 1
9/2017 1
chiền 1
huýt_sáo 1
465 1
khôn_khéo 1
biế@@ 1
n_thành 1
ngước 1
rót 1
thưa_thớt 1
Kéo 1
máu_@@ 1
níu 1
khoe_khoang 1
Lê_Đức_@@ 1
Nhã 1
nồi_@@ 1
khoai_môn 1
thu_giữ 1
nhuyễn_thể 1
dốt 1
mũi_tên 1
buồn_bã 1
đom_đóm 1
nhìn_nhận 1
vòng_quanh 1
chiếu_phim 1
tinh_t@@ 1
ướng 1
bồ@@ 1
thề 1
_hội_@@ 1
đánh_hơi 1
cản_@@ 1
1/NĐ-CP 1
9.7@@ 1
anh_chị 1
nhấm 1
tật 1
cám_ơn 1
chối_cãi 1
bọt 1
Phương_@@ 1
Mặt_trăng 1
truy_cứu 1
233 1
cốc 1
i.@@ 1
vành_đai 1
Công_thương 1
nhọt 1
gắp 1
Phạm_Tấn_@@ 1
nôn_mửa 1
Kênh 1
giả_dối 1
548 1
tuột 1
379 1
lễ_@@ 1
quýt 1
tối_mịt 1
ngoáy 1
vồ 1
khóc_lóc 1
nhắm 1
2008-@@ 1
nhè 1
dũng_sĩ 1
giao_ban 1
em_trai 1
hồn 1
Quách_@@ 1
Dục 1
mào_gà 1
ngoặc 1
169 1
4A 1
ẵng 1
m_thẻ 1
ngày_@@ 1
Thanh_Hùng 1
nghèo_khổ 1
Quần 1
ngủ_@@ 1
bao_vây 1
làm_ruộng 1
loá 1
Ô 1
nghịch 1
cúi 1
bắp_chân 1
Thông_điệp 1
Mở_đầu 1
nắn 1
mập 1
khấn 1
Bắt_đầu 1
Đài_Truyền_hình 1
giặt_giũ 1
cảm_ơn 1
Uỷ_ban_@@ 1
2.6@@ 1
tí_@@ 1
xíu 1
nòng 1
linh_hồn 1
đầu_gối 1
9/2008 1
16.11 1
cãi 1
Lương_Thị_@@ 1
nao_núng 1
đồng_đều 1
5/2018 1
bao_lâu 1
Hoàng_đế 1
Kiệt 1
Ngăn_ngừa 1
xù 1
từ_chối 1
khe_@@ 1
khẽ 1
hà@@ 1
_hơi 1
227 1
vội_vã 1
rầm_@@ 1
rĩ 1
Bầu 1
ban_chấp_hành 1
3,7 1
uốt_@@ 1
uốt 1
Huỷ_@@ 1
Luật_@@ 1
lòi 1
nón 1
rùng_mình 1
Thảo_luận 1
nhục 1
Xuất_khẩu 1
bưng_bít 1
gươm 1
nhọn_hoắt 1
nạng 1
nguyê@@ 1
vo@@ 1
giu@@ 1
khoác 1
sờn 1
ớp 1
ban_mai 1
Thư_viện 1
10.0@@ 1
truyện_cổ_tích 1
sáp 1
Chấp_hành 1
015 1
ao_động 1
giật_mình 1
Vật_@@ 1
đồ_ăn 1
thông_hiểu 1
reo 1
102 1
đường_dây 1
Triệ@@ 1
u_tập 1
buồn_cười 1
ũng 1
Mơ_@@ 1
chiêm_@@ 1
Chánh_Thanh_tra 1
phần_thưởng 1
kiệt_sức 1
chuối_@@ 1
lùn 1
ché 1
Viên_chức 1
11/2010 1
mệt_mỏi 1
thoái_lui 1
Ngược 1
iễng 1
Chuối 1
nức_@@ 1
hai_@@ 1
vân_@@ 1
Mất 1
bỗng_nhiên 1
Trắng 1
ngược_lại 1
ưởng 1
nhà_thuốc 1
bẩn 1
ì_ạch 1
năm_ngoái 1
festival 1
Ánh_Tuyết 1
9/2011 1
khoáng 1
trôi_dạt 1
Trụ_sở 1
Ký_túc_xá 1
cao_tầng 1
để_bụng 1
há 1
mai_@@ 1
khát 1
_lộ 1
phụ@@ 1
ng_hoàng 1
-10 1
phi_pháp 1
vết_tích 1
bao_tay 1
dỗ_dành 1
kẹt 1
Thăm 1
1917 1
bản_án 1
nín 1
_trừ 1
chờ_đợi 1
ngớ_ngẩn 1
Công_điện 1
735 1
mỉa_mai 1
chùng 1
thành_thục 1
Khang 1
iều_@@ 1
Bám 1
tát 1
âm_vang 1
nheo 1
7/2009 1
thiết_nghĩ 1
ghét 1
ọn_@@ 1
châu_Á 1
công_ước 1
1990 1
KCN 1
rập 1
Học_viên 1
mở_cửa 1
ấp_úng 1
Loại_bỏ 1
òi 1
quỵ 1
i_trắc_nghiệm 1
í_ới 1
tê_tê 1
iễ@@ 1
gót 1
Điển_hình 1
lim_@@ 1
dim 1
góp_ý 1
bã 1
bánh 1
đít 1
bực 1
bàn_chân 1
nói_dối 1
mỡ 1
Hào 1
Trạng_@@ 1
khuyên_@@ 1
Nguyễn_Huệ 1
hợp_@@ 1
ghen_tị 1
Sư_phạm 1
vang 1
phùng 1
gặt 1
nham_@@ 1
lệch 1
thật_thà 1
Kiểm_@@ 1
hung_@@ 1
15/3 1
rên_rỉ 1
10.000.000 1
đăng_kí 1
nhím 1
ND@@ 1
đà@@ 1
sặc_sỡ 1
ch_choè 1
Thuỵ@@ 1
_sĩ 1
chán_nản 1
nồi_áp_suất 1
ba_ba 1
len 1
giam_cầm 1
chồm 1
bưng 1
bát_ngát 1
phạm 1
m_xuê 1
nản_lòng 1
mướp 1
tiếc_nuối 1
căm 1
Doanh_nhân 1
bất_hợp_pháp 1
chúc_tụng 1
nhấp 1
họng 1
đấm 1
róc_rách 1
bài_bản 1
tranh_cãi 1
ẻ@@ 1
nhấp_nháy 1
ẹ 1
ất_t@@ 1
285 1
mái_chèo 1
khoa_trương 1
kỳ@@ 1
_nh@@ 1
căm_ghét 1
cánh_@@ 1
em_gái 1
Hồi_@@ 1
ụng 1
oai_@@ 1
dáng 1
dễ@@ 1
vuốt 1
tò_vò 1
mày 1
tâu 1
Thích 1
ngải 1
tàn_tật 1
xiêu 1
15/11 1
Hội_sở 1
:5 1
ỗng 1
bay_lượn 1
trượt 1
ầu 1
khoeo 1
xúm 1
Nội_@@ 1
tối_tăm 1
kiểm_toán 1
bệnh_t@@ 1
sáng_sủa 1
Thầy 1
ở_trần 1
40g 1
Mỹ_Lộc 1
Mỹ_Lợi 1
Tp 1
thơm_phức 1
Quãng 1
I_@@ 1
Sông_@@ 1
77 1
Cù_@@ 1
Ngọc_@@ 1
Khoa_@@ 1
đụng 1
Trợ 1
khờ 1
hã@@ 1
TE 1
Đẻ 1
Luật_gia 1
chia_tay 1
Con_@@ 1
ruột 1
tỉnh_táo 1
yêu_mến 1
hàn 1
gội 1
ngoảnh 1
chế_nhạo 1
Thuốc 1
335 1
hoan_@@ 1
lún 1
tí 1
nước_biển 1
trơ_trọi 1
trăng_@@ 1
Dự_th@@ 1
ba_lô 1
lẫn_lộn 1
tắc_kè 1
Tiến_độ 1
sụt 1
nhà_kho 1
thú_@@ 1
thiên_hướng 1
rối 1
bất 1
2007/@@ 1
méo 1
nhão 1
ân_hận 1
Thanh_toán 1
Quần_áo 1
hoen_ố 1
Tiểu_sử 1
799 1
11/2009 1
dừa 1
hoà_bình 1
1928 1
9/2015 1
èm_@@ 1
oà 1
QĐ@@ 1
cao_nguyên 1
Ô@@ 1
Lê_Quang_@@ 1
tưởng 1
nẻo 1
mồng 1
hùm 1
Liên_kết 1
vờn 1
thành_thạo 1
lông_@@ 1
ăn_mặc 1
tức 1
-5 1
vót 1
tuyệt 1
tội_nghiệp 1
90.000 1
Áo 1
sà 1
50.000 1
QH14 1
yên_ổn 1
gò 1
cứu_@@ 1
ĩ@@ 1
Chuyển_giao 1
tiếc 1
Có@@ 1
_lý 1
mưa_phùn 1
_dụng 1
đấu_vật 1
thân_mềm 1
:3 1
89@@ 1
402 1
quỳ 1
_trường 1
đu_đủ 1
quy_đổi 1
quẫy 1
Uỷ_@@ 1
mềm_@@ 1
nhũn 1
1:1 1
sờ 1
Đặc_sản 1
văn_phòng_phẩm 1
cấp_tập 1
cuộc_đời 1
10/2011 1
còn_@@ 1
1/200@@ 1
rắn_@@ 1
Trang_bị 1
93,@@ 1
làm_lành 1
cở 1
gào 1
Cao_Văn_@@ 1
Kế_t@@ 1
oán_viên 1
mũ 1
chim_sẻ 1
làm_bạn 1
thầy_mo 1
cụ@@ 1
Khả_năng 1
nhỏ_xíu 1
ẻn 1
qua@@ 1
5/2011 1
trêu_ghẹo 1
Triệu_chứng 1
i_tuyển 1
:2 1
Tổ@@ 1
19h30 1
sần_sùi 1
còng 1
ruồi 1
dòi 1
Thu_Hồng 1
động-Thương 1
húp 1
cởi 1
nghịch_ngợm 1
nước_@@ 1
chè@@ 1
nước_mặn 1
23.000 1
Nhận_định 1
dấu_tích 1
30/6/2017 1
nhét 1
tín_ngưỡng 1
sờ@@ 1
n_lòng 1
được_mùa 1
bện 1
thừng 1
Phấn 1
Man@@ 1
Ít 1
óp 1
đắng 1
ít_ra 1
tật_nguyền 1
429 1
èo_t@@ 1
1,5-@@ 1
bóc 1
xuất_trình 1
bản_chính 1
ăn_hỏi 1
800.000 1
què 1
cửa_sổ 1
cắp 1
cảm_tạ 1
quắt 1
thừa_thãi 1
mù 1
1.000-@@ 1
từ@@ 1
ngôi_sao 1
mắng 1
tiệ@@ 1
t_trừ 1
đen_kịt 1
2.200 1
rung_rinh 1
Lũ_@@ 1
Mở_màn 1
Văn_chương 1
phản_đối 1
chói 1
7.8@@ 1
ngượng 1
chớ 1
lụi 1
nói_th@@ 1
thong_thả 1
thao_thức 1
Đơn_@@ 1
giản_hoá 1
Công_việc 1
bả@@ 1
tăng_trọng 1
Kế_hoạch_hoá 1
tạm_ứng 1
nòi 1
vơi 1
thống_@@ 1
khói 1
Hội_tụ 1
tuy_vậy 1
cửa_sông 1
Lệ_phí 1
thốc 1
yên 1
Ế 1
CHÍ@@ 1
buồn_ngủ 1
Huỳnh_Ngọc_@@ 1
mượt_mà 1
kinh_hãi 1
chó_săn 1
Suy@@ 1
Năm_@@ 1
ãi_@@ 1
rết 1
ấu 1
nay_@@ 1
h5 1
Ổn_định 1
ễnh 1
cách_chức 1
thỏi 1
ngồi_bệt 1
lưỡi_@@ 1
phân_rã 1
kiệt_@@ 1
xẻ 1
khó_chịu 1
gian_lận 1
lùa 1
eo_@@ 1
chung_thuỷ 1
thi_hài 1
hoa_văn 1
Quốc_Hùng 1
mịt_@@ 1
tất 1
Trần_Viết_@@ 1
hò_reo 1
phiền_muộn 1
ợt 1
hôn_@@ 1
Lịch_trình 1
óm_lại 1
rặng 1
sục_s@@ 1
ạo 1
ác_liệt 1
Đệ_@@ 1
xó 1
siết 1
8-2 1
thỉnh_thoảng 1
nhún 1
ìa_@@ 1
thủ_công 1
một_nửa 1
hoán_@@ 1
Trần_Đình_@@ 1
rái_cá 1
Là@@ 1
òn 1
471 1
rẻ 1
1.600 1
2.3@@ 1
thánh 1
37-@@ 1
hiệu_ứng 1
gióng 1
mênh_mông 1
Thanh_Mai 1
sần 1
thui 1
quệt 1
bóng_gió 1
Loài 1
sán 1
thuần_thục 1
40.@@ 1
váy 1
giấc_ngủ 1
thái 1
hi_hữu 1
vỗ 1
bệnh_@@ 1
hiếm 1
253 1
ờ 1
giằng 1
rón_rén 1
bày_@@ 1
khoắng 1
mẹ_@@ 1
R-@@ 1
hâm_nóng 1
can_ngăn 1
trích_dẫn 1
vượn 1
lo_toan 1
gừng 1
sủa 1
lấy_@@ 1
tháo_@@ 1
ch_thú 1
khoẻ_khoắn 1
nhuộm 1
đánh_thức 1
Gia_nhập 1
giật 1
ồng_trại 1
:1 1
54@@ 1
Mai_Văn_@@ 1
2.12 1
11/2013 1
yêu_quý 1
thò 1
nửa 1
Ưu_điểm 1
ngươi 1
cai_sữa 1
ngốc 1
cau 1
cốm 1
ếnh 1
mật_ong 1
hao_hụt 1
yếu_ớt 1
bao_la 1
trùng_lắp 1
khước_từ 1
quanh_co 1
tan_nát 1
chuyển_tải 1
Rắc 1
vụng_về 1
ngót_nghét 1
10.500 1
giọt 1
đưa_@@ 1
cúng_bái 1
tạm_biệt 1
Văn_th@@ 1
ngụm 1
86@@ 1
270.000 1
thẳng_tắp 1
nghèo_khó 1
330 1
2.8@@ 1
đâu_đấy 1
ghen 1
17/11 1
ala@@ 1
CQ@@ 1
P-@@ 1
koi 1
pro 1
Luân 1
rin@@ 1
mao 1
MTT@@ 1
we 1
Web@@ 1
site 1
iêu_@@ 1
Quang_Vinh 1
Chi_tiêu 1
Châ@@ 1
_m@@ 1
Thị 1
Tuyên_@@ 1
Đăng 1
cc@@ 1
ine 1
–@@ 1
16/11 1
Tương 1
SO 1
Nông_lâm 1
aa 1
sel 1
ngươ@@ 1
gel 1
Cab@@ 1
Ky@@ 1
thông_thương 1
kiêng 1
bao@@ 1
chor@@ 1
án_@@ 1
Si 1
uộ@@ 1
Hu 1
nua 1
tó@@ 1
nitơ 1
hưng 1
Logistics 1
bua 1
adan 1
man@@ 1
_sơn 1
lat 1
bềnh 1
le_@@ 1
CH@@ 1
Â 1
CHI@@ 1
NH 1
SA@@ 1
ble@@ 1
Chuyên 1
Dinh_@@ 1
Ữ 1
nhì 1
ck 1
Văn_thư 1
TĐ@@ 1
TN-@@ 1
