ơ@@ 73550
p@@ 40732
' 39641
, 36988
tơ@@ 34212
h 33882
i 28557
k@@ 25513
̆@@ 24540
. 23751
d@@ 22867
ng 21781
ĕ@@ 20182
j@@ 18829
k 18823
ă 17567
b@@ 17406
rong 15428
l 15170
ơm 14604
h@@ 13961
ung 12694
ĭ 12322
ad@@ 11293
l@@ 11191
p 10719
g@@ 10670
̆ 10651
u 10442
ô@@ 9995
n@@ 9768
năm 9725
ch 9695
t 9688
lơ@@ 9269
r@@ 9140
đơ@@ 8800
r 8794
ŏ@@ 8747
ŏ 8699
t@@ 8153
y@@ 7888
rim 7831
m 7754
nh 7540
ăn 7284
nh@@ 6867
we@@ 6720
ĭ@@ 6694
at@@ 6659
ŭ@@ 6599
m@@ 6487
u@@ 6469
sơ@@ 6303
inh 6204
no@@ 6080
Y@@ 5754
Nă@@ 5662
ho@@ 5633
ma 5336
nam 5027
trương 4986
long 4920
ê@@ 4868
ă@@ 4576
đ@@ 4402
i@@ 4246
măng 4115
đe@@ 4069
tanh 3966
ng@@ 3884
huyên 3862
minh 3824
ưng 3802
ring 3770
nang 3750
ei 3623
Vinh_@@ 3614
ơ 3598
xa 3547
cham 3320
al@@ 3287
on 3192
J@@ 3181
đa@@ 3071
B@@ 3064
la 3036
s@@ 3012
ngai 2983
nă@@ 2926
jung 2889
lo@@ 2835
kông 2809
lei 2799
rơ@@ 2758
ô 2700
w@@ 2694
ăt 2676
ê 2674
iêu 2651
chơ@@ 2596
( 2595
) 2595
o@@ 2574
tơ 2561
ang 2518
ri 2445
hôi 2422
tru@@ 2358
thu 2337
bok 2324
lư 2261
au 2234
khan 2211
du@@ 2184
c 2166
; 2155
sư@@ 2132
ch@@ 2108
ru@@ 2088
tho 2043
ro@@ 2014
ôn 2000
H@@ 1994
mư@@ 1962
trong 1953
ăng 1921
Thanh 1916
ư@@ 1912
hơ@@ 1834
glo@@ 1781
yo@@ 1776
ing 1756
nu 1755
tr@@ 1741
um 1731
mang 1668
bo@@ 1639
n 1599
ap@@ 1577
ab@@ 1563
an@@ 1551
mai 1535
tê 1526
bô 1514
ao 1506
đe 1490
nu@@ 1443
U@@ 1428
Đang 1390
sa 1375
yu@@ 1357
kh@@ 1300
ari@@ 1281
ư 1274
Đ@@ 1255
cho@@ 1225
pu@@ 1197
phong 1186
đông 1183
ên 1176
an 1164
: 1151
anu 1149
ngo 1142
la@@ 1134
hơ 1129
ul 1105
ôi 1094
K@@ 1085
kinh 1074
đăng 1070
ar@@ 1066
– 1065
ah 1055
ve@@ 1053
dr@@ 1048
am 1040
xu@@ 1028
ua 1027
sư 1027
ak@@ 1001
ât 990
Tơ@@ 984
ph@@ 978
bal 977
uy 963
hoa 960
Ah@@ 959
ŭ 957
" 951
lang 947
liêm 946
ku@@ 931
ks@@ 921
L@@ 918
đoan 917
Pơ@@ 915
sơ 909
rao 906
tăm 904
pal 887
tinh 879
ah@@ 872
em 869
ge@@ 863
in 861
mir 850
rol 849
sinh 848
te@@ 840
the 835
1 835
kê@@ 831
UBND 830
trinh 830
chinh 818
thi 815
êng 808
đu@@ 804
đô 787
iê@@ 777
nghiêp 774
at 772
viên 761
lak 759
anh 758
ba 757
di@@ 751
cơ 748
M@@ 736
/ 733
pli@@ 729
le@@ 729
? 727
ngư@@ 718
chi 717
2019 713
iêm 709
ĕ 708
thê 707
Minh 699
y 692
br@@ 685
tri 679
mô 675
rang 674
ran 666
ngo@@ 662
2020 653
hanh 651
chư@@ 644
3 634
Bo@@ 633
như 628
as@@ 620
ty 618
5 618
nhôm 612
Trong 609
9 609
khu@@ 596
ling 595
ai 595
văn_@@ 594
rê@@ 593
2 590
Tru@@ 582
rông 581
bi 580
ha 578
ke@@ 576
4 572
hu@@ 571
it 569
pô 565
al 561
10 560
tu@@ 560
thoi 559
chu 557
ky 554
trân 554
ong 552
6 552
ting 546
go@@ 544
toan 543
ngu@@ 541
ăm 534
biê@@ 525
thôn 525
ôm 519
đang 516
đ 513
8 511
dư 510
ning 499
Du@@ 499
lu@@ 499
rin 498
mơ@@ 495
nap 494
nai 489
đam 487
mi 480
nghê 479
Đai 475
mi@@ 474
tiêu 473
tô 473
vu 472
7 472
rat 460
il 458
bư@@ 458
Ơ@@ 454
ăk 454
đai 453
Sơn 452
nơ@@ 452
ka@@ 447
pl@@ 445
ban 440
gi@@ 439
ro 438
mo 438
tam 437
nông 436
lê@@ 435
man 430
riêng 428
P@@ 428
tư 428
am@@ 426
Sơ@@ 420
môi 418
eh 418
ơn 417
ka 417
thu@@ 413
kong 412
giao 411
nông_dân 411
Rim 409
Đinh_@@ 409
Huyên 408
om 405
đinh 404
lư@@ 404
an_ninh 402
nuô@@ 401
gô 401
Nh@@ 400
ne 390
dân 388
qua 386
trơ 383
hi@@ 382
đê@@ 382
en 379
hl@@ 378
im 377
tiê@@ 376
Tho@@ 367
et 367
tich 366
na 365
da@@ 364
sa@@ 363
lê_@@ 359
gang 359
chương 358
re 353
đi 348
ưm 348
D@@ 343
nghi 343
đôi 343
ôc 341
iêng 341
lương 338
bu@@ 334
ti 334
quy 331
tep 330
thông 328
mu@@ 327
Khu@@ 326
lai 326
ap 326
ken 321
rô@@ 318
Mai 316
lơi 316
phai 312
me 312
tro 310
ia 300
ơ-@@ 300
dơi 299
nar 299
su@@ 297
quy@@ 295
N@@ 294
a@@ 289
hăm 289
Adri@@ 288
19 287
ko@@ 286
mo@@ 283
Thuân 283
… 281
thư 277
hư@@ 276
vi 274
lâm 273
02 272
'@@ 269
Kim 268
tuk 268
ki@@ 267
pơ 266
Hoa 264
Nam 262
Ad@@ 261
so@@ 260
ji 260
dang 259
Ba 258
ôi_@@ 257
ơng 257
ach 256
a 256
100 255
ai@@ 253
đơn 252
phân 250
100% 249
S@@ 247
dăm 247
ti@@ 246
lah 245
to 245
manh 242
năng 242
qu@@ 238
x@@ 237
roi 235
thương 235
công 233
vân 233
meu 233
de@@ 231
ngh@@ 230
1000 230
thư@@ 230
_H@@ 229
Nghi 229
sô 229
v@@ 228
Chu 228
Co@@ 228
Qua 226
CCB 225
công_an 225
Lư 225
! 224
lo 222
mon 221
_@@ 219
01 218
vê 216
Ma 215
T@@ 214
tao 214
nhem 214
yol 213
si 212
răng 208
bo 207
-@@ 207
chu@@ 206
rau 206
HĐND 204
Kon_@@ 204
HCM 201
eu 201
che@@ 201
bak 198
điêu 198
dưng 198
vid@@ 198
san 196
lui 196
pit 195
hương 194
Đinh 189
phat 189
chơ 188
đao 187
Binh_@@ 187
nhu@@ 187
xem 187
mah 186
Viêt_@@ 182
th@@ 181
hê 180
lung 180
Ng@@ 179
cu 179
tương 179
đong 178
KHKT 178
tuyên 178
tum 177
ghê 177
Phong 174
Pho 174
điên 174
tă@@ 172
chi@@ 171
e 171
bum 170
ay@@ 169
hô 169
nô@@ 169
Sư 168
gr@@ 168
Hao 168
NHCSXH 167
cô 166
kiên 166
hơp 166
Ph@@ 165
Oh 164
Yu@@ 164
dal 163
nan 163
trang 163
leh 161
Dru@@ 161
ngu 161
đê 160
tech 160
ranh 160
Bi 159
chuyên 158
wal 158
Sư@@ 156
2025 156
kê 156
tâng 156
ơi 156
ag@@ 155
tông 155
ươ@@ 154
gal 153
Thi_@@ 150
bu 150
tiêm 150
hy@@ 150
yer 150
khoa 148
Tr@@ 148
Diêu 148
.. 146
yan 146
danh 146
05 145
kham 145
chê 145
tra@@ 144
giai 144
ô_@@ 144
ke 143
âu 143
khai 143
MTTQVN 142
ly 141
lô@@ 141
Thu 140
hop 139
quân 139
jo@@ 139
& 139
tha@@ 138
ak 138
kiêm 138
nguyên 136
kia 136
thanh 135
nhâ@@ 134
dung 133
phang 133
Măng 132
bê 132
o 132
ju@@ 131
_l@@ 130
ân 130
Tinh 130
Trung_tâm 129
nghiêm 129
suôn 129
bô@@ 129
bi@@ 128
Trung_ương 128
đô@@ 128
ăc 128
đâu 128
Trương 127
MTTQ 127
yang 126
ta@@ 126
Thinh 125
cung 125
phê 125
Kinh 125
Chi 125
PTD@@ 124
ưu 123
huy 123
cư 122
Mi@@ 121
thiên_tai 119
lăn 119
Binh 118
bl@@ 117
i_@@ 116
LHPN 116
văn 115
đa 115
châ@@ 114
ram 114
rac 114
Trương_@@ 113
lưng 113
ba_@@ 113
khoan 112
liên 111
Mi 111
atu@@ 110
nhân 110
ca@@ 110
ha@@ 110
mong 108
An@@ 108
ja 108
hang 107
k_@@ 107
03 107
apo@@ 107
phi 106
Chăm 105
Ơ 105
lơ 105
gương 104
Ch@@ 104
Công_an 104
Biên 104
ami 103
ương 103
bet 103
tang 103
THPT 102
chư 102
tra 101
ra 101
Huy@@ 101
nh_@@ 101
tin 101
tiên 100
c_@@ 99
Ŭ@@ 98
han 98
bao 98
ada 97
12 97
liên_quan 97
Bô 97
thao 96
đi@@ 96
thôi 96
I@@ 96
Mon 96
ä 96
UB@@ 96
cai 94
se@@ 94
Đâu 94
num 94
Chương 94
li@@ 92
tăng 92
ly@@ 92
liêu 92
ưa 92
khuyên 92
Bao 91
li 91
Lê_Văn_@@ 90
doanh 89
but 88
Năm 88
tai 88
quân_sư 87
Vinh_Quang 87
tranh 87
sang 86
khoang 86
plo@@ 85
truy@@ 85
chiêu 84
dah 84
khôi 84
ky@@ 83
ron 83
Di@@ 83
QS 83
da 82
Xuân_Anh 82
c@@ 81
niêm 81
khâu 80
quan 80
be@@ 80
chưa 80
găm 80
lu 80
ji@@ 79
ne@@ 79
uyên 79
NV@@ 79
anh@@ 78
kai 78
nghiê@@ 78
HC@@ 77
kan 77
Quy@@ 76
hư 76
bia 76
thiê@@ 76
kiê@@ 76
nôi 76
pe@@ 76
Nguyên_@@ 75
Bung 75
sô@@ 75
thăng 75
Kh@@ 74
S 74
kul 74
rap 74
âm 73
Ta_@@ 73
Cty 73
_K@@ 72
ưh 72
akh@@ 72
Dư 72
phu 72
Ho@@ 72
lao 71
nam_@@ 71
06 71
An 70
ông 70
cưa 70
TTYT 70
Nhơn 69
met 69
binh 69
giam 69
diên 68
XIII 67
dương 67
kg 67
đan 67
thông_tin 67
phu@@ 67
30 66
êm 66
bre@@ 66
khang 66
chuyên_môn 65
bung 65
suk 65
11 65
an_sinh 64
thai 64
15 64
ple@@ 64
lăm 64
Lu@@ 64
35 63
50 63
tâm 63
R@@ 63
to@@ 63
ưng_@@ 63
đuôi 63
le 63
câu 63
Ha_@@ 62
tuy@@ 62
nhi 61
pla@@ 61
20 61
riê@@ 61
đo@@ 61
Ngo 61
phô 61
sat 61
cam 61
lot 61
A@@ 61
phông 60
_T@@ 60
Min_@@ 60
hon 60
thân 60
vaccine 60
diêu 60
ta 59
CLB 59
tê@@ 59
lich 59
t_@@ 59
po@@ 59
â@@ 58
quyên 58
I 58
TN@@ 58
ru 58
04 58
canh 58
luk 58
1.@@ 58
trung 57
XH 57
blo@@ 57
30a 57
liê@@ 57
thong 57
sum 57
Mô 57
chi_tiêu 56
ching 56
Văn_@@ 56
Đê 56
2021 56
dich 56
re@@ 55
mưng 55
rung 55
gia 55
Đoan 55
bê_tông 55
Qu@@ 55
trai 55
moi 55
TNHH 55
đen 55
01/@@ 55
2018 55
că@@ 54
bơ 54
ming 54
che 54
môt 54
xe 54
rơ 54
chiên 53
mua 53
59 53
Đu@@ 53
khuân 53
sưa 53
chiê@@ 52
chăng 52
thâm_canh 52
ghi 51
khu 51
Ling 51
wi@@ 51
5@@ 51
UV 51
duy@@ 51
đo 50
Dung 50
Bi@@ 50
don 50
Ban 50
THCS 50
am_@@ 50
A 50
pr@@ 50
dong 49
sil 49
Sơ 49
6% 49
Thanh_@@ 49
Yang 49
O@@ 49
Lê_@@ 48
200 48
he 48
khe@@ 48
xe@@ 48
ang@@ 48
rê 48
Ba@@ 48
pra@@ 47
he@@ 47
muô@@ 47
tân_@@ 47
ac 47
uyên_@@ 47
07 47
thô@@ 46
tôn 46
LHTN 46
G@@ 46
Ăn 46
run 46
Lang 46
giao_lưu 46
XVIII 45
oi@@ 45
mương 45
40 45
ala 45
phun 45
Yan 45
Te@@ 45
... 45
tôm 44
biên 44
GDTX 44
eng 44
ich 44
ngai_@@ 44
quy_mô 44
lô 44
Ty 44
hông 44
umi 44
cô@@ 44
ngân 43
nhân_dân 43
pi@@ 43
nong 43
gian 42
ngoai 42
lik 42
tôi 42
Ru@@ 42
ngô 42
Vinh 42
gia@@ 42
truy 42
công_dân 42
Th@@ 41
du 41
khư 41
jong 41
tiêng 41
37,@@ 41
4@@ 41
Ư@@ 41
phe 41
m3 41
Đ 41
Ha 40
ênh 40
chiêm 40
135 40
24 40
17 40
Dr@@ 40
km 40
Bu@@ 40
ngoi 40
18 39
hao 39
lip 39
chanh 39
TB@@ 39
Đôi 39
ai_@@ 39
99% 39
Tiên_@@ 39
Bia 39
0@@ 39
9@@ 39
đông_@@ 39
Dân 39
- 39
pra 38
chao 38
Văn 38
lay@@ 38
Đi 38
tuy 38
25 38
XII 38
tu 38
thơ 37
lê 37
CTĐ 37
ol 37
ăh 37
trung_tâm 37
nhung 37
pho 37
chau 37
xê@@ 37
hn@@ 36
lưu 36
Đông_@@ 36
Long 36
wing 36
bom 36
xuân 36
Phong_@@ 36
băng 36
uch 35
3.@@ 35
6,@@ 35
do@@ 35
rai 35
ng_@@ 35
hui 35
vi@@ 35
d 35
dê 35
Ku@@ 35
bôi 34
thiêu 34
rum 34
2017 34
bai 34
2016 34
M2 34
hung 34
tak 34
80 34
5,@@ 33
LS 33
4.@@ 33
Pu@@ 33
Mai_@@ 33
W@@ 33
Tô 33
linh 33
su 33
plu@@ 33
19,@@ 33
biêt 33
thâm 32
ra@@ 32
nung 32
An_ninh 32
09 32
34% 32
V@@ 32
đau 32
8@@ 32
2.@@ 32
Thư 32
khô@@ 32
aw@@ 32
_V@@ 32
tia 32
Hương 32
tân 32
pol@@ 31
lum 31
37 31
pe 31
khung 31
Quy 31
vai 31
se 31
jan 31
di 31
tong 31
HĐ@@ 31
6@@ 31
90% 31
nham 31
ĐBQH 31
Gi@@ 31
60 31
hoi 31
inh_@@ 31
ren 31
huân 31
m2 31
XX 30
500 30
Huy 30
phương 30
At@@ 30
Tây_Sơn 30
Tung 30
VN 30
cân 30
phao 30
duy 30
chung 30
mai@@ 30
45 30
9% 30
văn_minh 29
uy_@@ 29
nghiên 29
công_nhân 29
89 29
ươi 29
tung 29
He 29
nhiê@@ 29
Uy 29
khôn 29
hecta 29
PTNT 29
12/201@@ 29
sung 29
sinh_viên 29
HĐH 28
tre@@ 28
72 28
vinh 28
5% 28
Tân_Thanh 28
oi 28
giang 28
KHCN 28
quen 28
58 28
mat 28
chro@@ 28
2015 28
08 28
tơ-@@ 27
blu@@ 27
Nguyên 27
UBKTT@@ 27
W 27
sơn 27
nhi@@ 27
8.@@ 27
keo 27
4% 27
UBMTTQ 27
khinh 27
8% 27
C@@ 27
LH@@ 27
Tam 27
7% 27
ral 27
GDNN 27
bênh 27
An_@@ 27
53 27
jal 26
400 26
11.@@ 26
Hai 26
tuân 26
the@@ 26
ắt 26
96% 26
jo 26
may 26
_Đ@@ 26
Kr@@ 26
Canh_@@ 26
lăng 26
hay 26
85% 26
lông 26
khuy@@ 26
bri@@ 26
XI 25
ma@@ 25
wi 25
La 25
Cham 25
Pr@@ 25
Tô@@ 25
rơi 25
me@@ 25
5.@@ 25
name 25
ca 25
mac 25
Tuân 25
Viê@@ 25
tho@@ 25
Vu 25
IV 25
ot 25
28 25
iu 25
chon 25
thê@@ 25
pro@@ 25
liên_thông 25
TC@@ 25
đư@@ 24
UV@@ 24
BTV 24
Nha 24
UB 24
ợ@@ 24
14,5% 24
My 24
bang 24
uy@@ 24
ch_@@ 24
BCH 24
16 24
ưu_tiên 24
bông 24
Br@@ 24
ï@@ 24
74 24
Xuân_@@ 24
thu_ngân 24
T 23
jah 23
phôi 23
05/@@ 23
MTV 23
lâ@@ 23
ä@@ 23
xi_măng 23
Jo@@ 23
trom 23
pia 23
lau 23
ping 23
ri@@ 23
Đông 23
14 23
10@@ 23
huy@@ 23
Ngo@@ 23
dro@@ 23
nhau 23
O 23
1% 23
pha 23
ươm 23
khô 23
khơi 22
ech 22
21 22
câ@@ 22
nhan 22
95% 22
La@@ 22
xung 22
Khoa 22
gan 22
sau 22
7@@ 22
hr@@ 22
đêm 22
Let 22
TAND 22
bot 22
22 22
Xa_@@ 22
47 22
20% 22
14,@@ 22
phim 22
K 22
CNH 21
nhân_@@ 21
27/7 21
hiên 21
ông_@@ 21
tan 21
,@@ 21
Chinh_@@ 21
van 21
70 21
Ar@@ 21
ĐT 21
yu 21
ato@@ 21
Pl@@ 21
lương_@@ 21
30/@@ 21
dơ 21
or@@ 20
es@@ 20
Lư@@ 20
cư@@ 20
điê@@ 20
27 20
B 20
đu 20
suy 20
Ê@@ 20
Viên 19
hu 19
up 19
Tham 19
ND 19
Lao 19
rô 19
13 19
xăng 19
no 19
1.000 19
ep 19
16/@@ 19
300 19
Thanh_Quang 19
nilon 19
TW 19
M9 19
alu@@ 19
10% 19
phiêu 19
vươn 19
2% 19
chang 19
700 18
Trân_@@ 18
trung_thu 18
Ngh@@ 18
chai 18
pa 18
Công_ty 18
quet 18
ơm_@@ 18
10/201@@ 18
CSGT 18
Kang 18
luân 18
13@@ 18
angu@@ 18
liên_hoan 18
Nhi 18
trao 18
tak@@ 18
150 18
ngoan 18
Kông 18
thương_binh 18
62 18
KH 18
thiên 18
55 18
đinh_hương 18
ket 18
chưng 18
tol 18
_M@@ 18
in_@@ 18
uk 18
TT 18
Al@@ 18
Yang_@@ 18
bon 17
Ti 17
1.9@@ 17
CHQS 17
297 17
bah 17
450 17
chen 17
vuông 17
pho@@ 17
thông_qua 17
30/10 17
59,@@ 17
Kê 17
mu 17
cu@@ 17
ô_tô 17
cao 17
ala@@ 17
chê@@ 17
28,@@ 17
Xuân 17
nga 17
A_@@ 17
miêu 17
LĐTB 17
Thêm 17
đâ@@ 17
85 17
TH@@ 17
PT@@ 17
65 17
_sơn 17
Ka 17
NQ 17
29 16
sim 16
2/9 16
Cat 16
18.@@ 16
sen 16
Ai 16
Nông_dân 16
TNT 16
nha 16
ế@@ 16
_r@@ 16
nhanh 16
luôn 16
bor 16
bit 16
Thu@@ 16
2009 16
3% 16
kho 16
can 16
31/@@ 16
5/201@@ 16
Go_@@ 16
pa@@ 16
LĐ-TB 16
750 16
năn 16
tâ@@ 16
LLVT 16
ble@@ 16
Cor@@ 16
ona 16
XIV 16
3,5 16
lam 16
BCĐ 15
24/24 15
giơ 15
No@@ 15
7/9 15
ũ@@ 15
quang 15
GAP 15
Nông 15
Tri 15
HD 15
ay 15
ỡ@@ 15
so 15
kheo 15
X@@ 15
xây 15
Lê_Công_@@ 15
24/12 15
Lương_@@ 15
9/9 15
văn_phong 15
jar 15
ik 15
pro 15
lor@@ 15
bar 15
TDTT 15
ge 15
Cu 15
tră@@ 15
QĐ-UBND 15
Kiêm 15
NN 15
King 15
1@@ 14
TP 14
Quy_Nhơn 14
HT@@ 14
PCCC 14
bach 14
gio@@ 14
_S@@ 14
thi@@ 14
KTXH 14
mê 14
96 14
Sơ_@@ 14
rah 14
khi@@ 14
ê_h@@ 14
ê_hương 14
gel 14
du_@@ 14
kho@@ 14
mông 14
dep 14
A1 14
Chinh 14
Công 14
khao 14
9. 14
PN@@ 14
nê@@ 14
lat 14
Phi 14
chăm 14
K3 14
cơ_quan 14
41% 14
Mu@@ 14
52 14
Lay@@ 14
ica 14
top 14
40% 14
Đông_Xuân 14
Ri@@ 14
ko 14
ong_@@ 14
Kông_@@ 14
17.@@ 14
50% 14
88 14
đôn 14
chiu 13
NTM 13
41,@@ 13
27% 13
công_an_viên 13
apo 13
27.@@ 13
Gho@@ 13
DS-KHHGĐ 13
63% 13
98% 13
Bach 13
24@@ 13
3@@ 13
Phu_@@ 13
134 13
dinh 13
min 13
41 13
120 13
CN 13
ngư 13
TB 13
98 13
TĐ 13
6/@@ 13
BVTV 13
chuôi 13
_L@@ 13
Mi_@@ 13
08/@@ 13
5,4 13
Lai 13
15% 13
1,@@ 13
Thai 13
tau 13
CNVC 13
TBT 13
m_@@ 13
Hu 13
Tân 13
Z@@ 13
Diên 12
Ga@@ 12
tỉ 12
nh.@@ 12
III 12
ềnh 12
tham 12
Loan 12
9/@@ 12
AT@@ 12
niêu 12
Tông 12
io 12
mô@@ 12
BQL 12
VIII 12
2024 12
Vân_Canh 12
KHHGĐ 12
căn 12
sơ_@@ 12
yêu 12
nho@@ 12
Tơ 12
vi_sinh 12
San 12
2.4 12
Krông_@@ 12
600 12
vă@@ 12
0% 12
tân_binh 12
muôn 12
nông_lâm 12
BigC 12
kiêu 12
đên 12
amin_@@ 12
bi_@@ 12
26/7 12
Câu 12
Thư@@ 12
thang 12
ăm@@ 12
Rong 12
loh 12
9.@@ 12
chỉ@@ 12
KSS 12
13.@@ 12
44,@@ 12
33% 12
viêm 12
500m2 12
DTTS 12
dây 12
ANTQ 12
54 12
PCTT 12
ve 11
chia 11
Lo@@ 11
Mo@@ 11
Phu@@ 11
mâm 11
non 11
nhân_viên 11
53% 11
39 11
Chi_@@ 11
Đinh_Văn_@@ 11
34 11
xoang 11
10/@@ 11
ade 11
ao@@ 11
36 11
g 11
ANTT 11
84 11
ni@@ 11
Đak@@ 11
mã 11
/201@@ 11
_t@@ 11
31 11
Xa 11
dâng 11
xuyên 11
kilôgam 11
CSXH 11
ba@@ 11
dân_gian 11
Trinh 11
Hoan_@@ 11
Oh@@ 11
xâm 11
95 11
trung_ương 11
26,@@ 10
chuyên_gia 10
agu@@ 10
90 10
kh 10
yê@@ 10
bra 10
ờm 10
2.5@@ 10
337 10
Xu@@ 10
494 10
S. 10
28@@ 10
23/7 10
koi 10
5/@@ 10
K2 10
7/201@@ 10
5.5 10
Thân 10
ar 10
test 10
dei 10
TKCN 10
2003 10
ẽ 10
nal 10
49 10
TNVN 10
Rin 10
hong 10
20@@ 10
HL 10
02/@@ 10
Bôi 10
chông 10
ham 10
nguyên_nhân 10
Tha 10
cheng 10
E 10
To@@ 10
Ja_@@ 10
Kon_Tum 10
1,7 10
phan 10
Châu_Phi 10
ớ@@ 10
ak_@@ 10
Ale@@ 10
bơi 10
nia 10
trăm 10
Hô 10
09/@@ 10
KT-XH 10
7.@@ 10
tri_ân 9
asu 9
New_Zealand 9
191 9
Su@@ 9
pi 9
we 9
Văn_Minh 9
6,5 9
1,2 9
Han_@@ 9
lar@@ 9
68 9
tham_gia 9
94 9
21.@@ 9
ăng@@ 9
diệp 9
Po@@ 9
.0@@ 9
99,@@ 9
4,5 9
os@@ 9
d_@@ 9
A2 9
JICA 9
luân_@@ 9
950 9
go 9
nho 9
98,@@ 9
bềnh 9
sel 9
11@@ 9
12,3 9
duy_tu 9
đàn 9
15.4 9
Canh 9
Thiêu 9
Toan 9
uộ@@ 9
122 9
12.@@ 9
ake 9
2022 9
mau 9
sỉ 9
pen 9
_N@@ 9
TN 9
T&T 9
PT 9
tek 9
92% 9
Siêu 9
42,@@ 9
nơi 9
Tu@@ 9
ku 9
Ma@@ 9
thi_công 9
nh. 9
Hanh 9
tô@@ 9
106 9
ton 9
beng 9
iên 9
vong 9
â 9
Kiên 9
khe 9
mum 9
tư@@ 9
230 9
ề@@ 9
ngâm 9
23,@@ 9
67 9
Ri 9
69 9
75 9
29/10 9
Đao 9
39,@@ 9
Anh 9
Đăng_@@ 9
405 9
Kw@@ 9
48@@ 9
94% 9
Da@@ 9
Ap@@ 9
ga@@ 9
60% 9
66 9
247 9
298 9
04.@@ 9
Di 8
237 8
Chăm_@@ 8
Văn_Long 8
38 8
376 8
47% 8
II 8
hy_sinh 8
91 8
4/201@@ 8
đĩ 8
2.000 8
ưu_@@ 8
Vui 8
350 8
mắt 8
CNTT 8
put 8
thanh_niên 8
87% 8
56 8
2,@@ 8
26/@@ 8
kWh 8
bắt 8
Tâ@@ 8
p_@@ 8
97% 8
Lâm 8
pol 8
Am@@ 8
A3 8
giơ@@ 8
_s@@ 8
ding 8
138 8
Ra@@ 8
khi 8
4/@@ 8
9,5 8
105 8
12.0@@ 8
12,9 8
dai 8
650 8
BHYT 8
n_@@ 8
Bah@@ 8
đông_xuân 8
26/12 8
siêng 8
Tha@@ 8
Đô 8
nua 8
nêu 8
Đôi_@@ 8
142 8
ẹ@@ 8
sông 8
26@@ 8
Bi_@@ 8
Thư_@@ 8
15/9 8
29/8 8
92,@@ 8
— 8
mình 8
800 8
57 8
Chiên 8
kra@@ 8
ing@@ 8
68@@ 8
2,3 8
449 8
Jor@@ 8
75,@@ 8
T_@@ 8
1.0@@ 8
ng_l@@ 8
6/6 8
11/9 8
174 8
gg@@ 8
nhưng 8
97 8
13/@@ 8
o_@@ 8
220 8
250 8
3/@@ 8
Nghiên 8
ĩ@@ 8
04@@ 8
8,2% 8
bê@@ 8
2011 8
Môi 8
140 8
cương 8
Tiê@@ 8
Luân 8
155 7
loa 7
thuy@@ 7
GD@@ 7
NN-@@ 7
14/@@ 7
118 7
63 7
ring@@ 7
14@@ 7
sun 7
dan 7
2.4@@ 7
49% 7
202 7
kiêng 7
_khai 7
22.@@ 7
Tham_gia 7
33 7
rắp 7
xanh 7
108 7
7,7 7
cac@@ 7
bin 7
an_@@ 7
gio 7
ã 7
ngăn 7
ul@@ 7
_m@@ 7
Vitamin 7
kha@@ 7
14/9 7
26 7
Lâ@@ 7
amu@@ 7
sân 7
30.@@ 7
Tuy 7
Tra 7
khanh 7
chủ 7
ret 7
ang_@@ 7
1.3@@ 7
tưng 7
357 7
13,@@ 7
dak 7
chính 7
7.5 7
24/9 7
môn 7
Sinh 7
10.@@ 7
7,5% 7
ali@@ 7
12,@@ 7
chinh_@@ 7
tương_thân 7
Ke@@ 7
_Mi 7
1,8 7
1.8@@ 7
25.@@ 7
43 7
5,2% 7
siêu 7
116,@@ 7
16.@@ 7
kuk 7
GD 7
22/@@ 7
15/@@ 7
6.@@ 7
Az@@ 7
bra@@ 7
Trung_@@ 7
Lau 7
107 7
giao_thương 7
chỉnh 6
Ca@@ 6
55% 6
16@@ 6
70% 6
j 6
nhang 6
giao_thông 6
dân_số 6
r_@@ 6
381 6
51 6
nhô 6
0,2 6
thưa 6
Ngân 6
gn 6
Tuyên 6
305 6
154 6
0,@@ 6
R 6
ML 6
Thương 6
tri@@ 6
dâu 6
sin 6
1930 6
15,@@ 6
sỹ 6
02% 5
340 5
ar_@@ 5
Phiêu 5
384 5
ngue 5
16/11 5
Ranh 5
hit 5
trơ@@ 5
f@@ 5
tham_mưu 5
15@@ 5
16.000 5
Xuân_Quang 5
taluy 5
bơm 5
mui 5
Nghê 5
6.9@@ 5
10,@@ 5
1.6@@ 5
722 5
6/2018 5
hoạch 5
ok@@ 5
Go 5
270 5
chân 5
teo 5
38@@ 5
sao 5
12/11 5
CN@@ 5
H-@@ 5
hưu 5
86,@@ 5
44% 5
81,@@ 5
31/10 5
15.000 5
38% 5
Ma_@@ 5
ti_vi 5
68% 5
2.900 5
c-@@ 5
si-@@ 5
hôn 5
cc@@ 5
ine 5
uỷ 5
HD@@ 5
Thơ 5
Ð@@ 5
ac@@ 5
trụ 5
231 5
Minh_@@ 5
đốc 5
Lê_Kim_@@ 5
Tinh_@@ 5
đoan_@@ 5
l_@@ 5
un 5
nghiêm_minh 5
phân_công 5
Băng 5
khen 5
chuyên_canh 5
Nhân 5
dri@@ 5
Tiên 5
Chủ 5
195 5
77,@@ 5
77% 5
19.@@ 5
nhăng 5
sit 5
96@@ 5
CP 5
333 5
PAC 5
999 5
nhì 5
15.6 5
long_@@ 5
sàn 5
ê_b@@ 5
co 5
2,1 5
í 5
310 5
326 5
121 5
như@@ 5
13.6 5
451 5
27/8 5
Ghi 5
Hoang_@@ 5
3,2 5
nghe 5
niên 5
tiên_phong 5
347 5
QĐND 5
ưa@@ 5
Cưu 5
ả@@ 5
07@@ 5
189 5
136 5
Lan 5
06@@ 5
h30@@ 5
’ 5
11h 5
10.5 5
ok 5
16.6 5
dăm_@@ 5
kk@@ 5
18/12 5
Diêm 5
01/2015 5
93 5
7/2018 5
36,@@ 5
17@@ 5
3,8 5
5,5% 5
127 5
nhơ 5
Tây 5
tinh_vi 5
2,5 5
Kung_@@ 5
8/@@ 5
205 5
48,@@ 5
24% 5
08% 5
48% 5
Ê 5
61 5
16.0@@ 5
83% 5
Tang 5
126 5
ran@@ 5
60@@ 5
5,5 5
160 5
02/2018 5
20/11 5
tân_t@@ 5
Liêm 5
2,6 5
2.500 5
1,4 5
ung_@@ 5
gu@@ 5
2014 5
32 5
57,@@ 5
3,6% 5
O2 5
ngao 5
bong 5
ria 5
rei 5
60.000 5
ô_phi 5
trôi 5
Bưu 5
1.450 5
Ko@@ 5
Quan 5
18/9 5
Hoan 5
12/9 5
24/@@ 5
380 5
28/@@ 5
10/2018 5
20/10 5
Tý 5
7,1% 5
4,8% 5
7,7% 5
Trường 5
11.3 5
Cơ 5
mo_@@ 5
nao 5
Quang 5
De@@ 5
Tiêm 5
86% 5
248 5
88% 5
198 5
TU 5
19/@@ 5
8/201@@ 5
Tà_@@ 5
ét 5
thể 5
Thay 5
Bom 5
71 5
2/8 5
ngan 5
ninh 5
6,6% 5
96,@@ 5
23,5 5
395 5
374 5
367 5
cao_su 5
6,7 5
ây_@@ 5
Tư_@@ 5
Kim_Lân 5
4.4@@ 5
245 5
ka_@@ 5
ger 5
tằm 5
stress 5
192 5
Pi@@ 5
27.4 5
94,@@ 5
11% 5
thua 5
ví 5
si@@ 5
x 5
115 5
3.0@@ 5
Gap 5
dưa_leo 5
0,5 5
Đan 5
170 5
Tho 5
chăn 5
Khô@@ 5
5.000 5
22/7 5
tro@@ 5
Thương_@@ 5
Thao 5
dân_sinh 5
Ab@@ 5
ni_@@ 5
180 5
2.9@@ 5
30/7 5
158 5
jon 5
viên_@@ 5
198@@ 5
Khoan 5
7,9 5
VAC 5
362 5
19% 5
Thôn 5
cách 4
tham_ô 4
quan_liêu 4
củ_cải 4
IP@@ 4
M 4
22/10 4
11.0@@ 4
băng_rôn 4
đông_y 4
Cụ 4
810 4
946 4
Kuy@@ 4
ng-@@ 4
nh_t@@ 4
nhấ@@ 4
t_thể 4
be 4
Thông_tin 4
điển 4
30.3 4
6,6 4
78 4
20.4 4
23 4
Đinh_Thị_@@ 4
ươn 4
xy 4
khá@@ 4
sôi 4
ami@@ 4
In 4
4.900 4
Ngay 4
29@@ 4
0,7% 4
1,6 4
77@@ 4
5,8 4
8,6 4
đơ 4
Kha@@ 4
hươ@@ 4
đeo 4
ặp 4
74@@ 4
36@@ 4
6,5% 4
27@@ 4
240 4
thông_minh 4
toi 4
sa_@@ 4
ìm 4
Centr@@ 4
al_G@@ 4
rou@@ 4
265 4
8,7 4
trung_du 4
ĐH@@ 4
HIV 4
AIDS 4
dấu 4
12A 4
404 4
DV 4
BND 4
25/9 4
Li 4
xi 4
de 4
tương_lai 4
_CH@@ 4
năm_@@ 4
mô_tô 4
đua 4
Khê 4
lây 4
phân_@@ 4
111 4
14% 4
4,5% 4
22% 4
Giai 4
vi_@@ 4
324 4
30% 4
1,9 4
Đa_@@ 4
Năng 4
80% 4
Pham 4
thân_nhân 4
đơn_sơ 4
iêm_@@ 4
Sang 4
bán 4
Niên 4
Hà_@@ 4
Trà_@@ 4
421 4
480 4
săn 4
Tâm_@@ 4
Tây_nguyên 4
Ba_@@ 4
theo 4
Hư@@ 4
74% 4
ca_nô 4
bat 4
nên 4
xi@@ 4
Sa 4
lý 4
238 4
10/10 4
Hoang 4
phô_trương 4
un@@ 4
Lê@@ 4
co_@@ 4
_ch@@ 4
pum 4
28/8 4
ao_t@@ 4
ale 4
46@@ 4
7/@@ 4
467 4
5.300 4
143 4
76% 4
93% 4
92 4
81 4
văn_hoá 4
lộ 4
lan 4
Ữ 4
.@@ 4
1953 4
1954 4
ven 4
HTX 4
10,5 4
23.@@ 4
quy_@@ 4
835 4
7.6@@ 4
3.3@@ 4
99 4
bí 4
meo 4
nil@@ 4
tr 4
tic 4
Nha_Trang 4
9/2012 4
28/7 4
I-@@ 4
5.0@@ 4
37@@ 4
0,9 4
513 4
pháp 4
808 4
Hà_Văn_@@ 4
Phú 4
Vũ_Văn_@@ 4
Đoạt 4
Nguyễn_Văn_@@ 4
Mẹo 4
M8 4
Miên 4
545 4
_che 4
81% 4
VNPT-@@ 4
Gate 4
VNPT 4
19@@ 4
2,2 4
46,@@ 4
549 4
h_@@ 4
âm_mưu 4
185 4
486 4
5,7% 4
419 4
3m 4
678 4
9.9@@ 4
66@@ 4
Tuyên_@@ 4
Nên 4
3.3 4
6,4% 4
30,@@ 4
737 4
161 4
263 4
720 4
không_gian 4
thể_chế 4
Đinh_Xuân_@@ 4
144 4
eb@@ 4
mp@@ 4
Thi 4
159 4
nhu 4
LĐ 4
Dinh 4
Tâm 4
440 4
12@@ 4
thay 4
trac@@ 4
2,9 4
273 4
182 4
6.0@@ 4
334 4
/12 4
1,5% 4
Y 4
Quân_@@ 4
k_L@@ 4
y_@@ 4
153 4
ading 4
14.4 4
649 4
29% 4
294 4
25,@@ 4
26% 4
1.7@@ 4
177 4
toa 4
New_@@ 4
il@@ 4
K1 4
cho 4
35.000 4
40.000 4
Ĕ@@ 4
88,@@ 4
89% 4
hi 4
Big_C 4
113,@@ 4
18/@@ 4
thung 4
lon 4
trăng 4
răm 4
VH-@@ 4
TT-TT 4
dân_quân 4
14.@@ 4
580 4
19.0@@ 4
780 4
540 4
lanh 4
thô 4
dia 4
co@@ 4
ví@@ 4
Ngu@@ 4
ks 4
game 4
phô@@ 4
1.300 4
277 4
phong_@@ 4
373 4
soi 4
tươi 4
tầm 4
soát 4
ung_thư 4
cổ 4
197 4
4.000 4
262 4
119 4
9.3 4
MT 4
18/11 4
264 4
mí@@ 4
Giao_lưu 4
307 4
Xi 4
anh_@@ 4
nguy 4
193 4
8,3 4
145 4
Tra_@@ 4
Ken@@ 4
lut_@@ 4
3000 4
328 4
Ân 4
20.@@ 4
Tiêu 4
vui 4
Đau 4
Cu@@ 4
Thông 4
XV 4
lâm_@@ 4
khoanh 4
không 4
i_K@@ 4
04/@@ 4
10m 4
07/@@ 4
Ngoc_@@ 4
Xung 4
21/@@ 4
01/201@@ 4
king 4
thă@@ 4
2/@@ 4
VIE@@ 3
B40 3
thai_@@ 3
Bio@@ 3
ga 3
17/@@ 3
lương_y 3
công_tác_@@ 3
hôn_nhân 3
Phương 3
1963 3
1.2@@ 3
64 3
sei 3
09@@ 3
/10 3
8/9 3
2.3 3
1975 3
8.4 3
5,9% 3
29,@@ 3
Vitamin_A 3
thân_yêu 3
Ki@@ 3
thêm 3
5g 3
19/10 3
Liên_quan 3
16.4 3
ghe 3
19/11 3
kinh_doanh 3
TP_HCM 3
An_Nhơn 3
Phươ@@ 3
2,5% 3
05@@ 3
thanh_tra 3
2,3% 3
172 3
KH@@ 3
Vươn 3
mg 3
437 3
TH 3
20/7 3
ây 3
MTT@@ 3
Q@@ 3
226 3
nah 3
chơi 3
lân 3
82% 3
7.4@@ 3
Vai 3
QH 3
2kg 3
26.@@ 3
60.@@ 3
149 3
10/12 3
20/@@ 3
trũng 3
protein 3
31% 3
axit_amin 3
châm 3
tiên_@@ 3
ĐV 3
AN@@ 3
S1 3
thơm 3
KD 3
48 3
vụ 3
Danh 3
4,9 3
tư_@@ 3
131 3
336 3
6,3% 3
2.600 3
288 3
163 3
Trung 3
dịch 3
01/2018 3
479 3
k_S@@ 3
The_@@ 3
hat 3
cập 3
mạng 3
E@@ 3
tram@@ 3
mơ 3
17/11 3
12.000 3
9.000 3
An_Khê 3
NHC@@ 3
472 3
229 3
Cho 3
12.5 3
XIX 3
0/@@ 3
221 3
TƯ 3
23/10 3
30/9 3
46 3
280 3
327 3
luy 3
69,@@ 3
_th@@ 3
thu_th@@ 3
86 3
5,9 3
2.0@@ 3
môn_sinh 3
24/7 3
tam@@ 3
op@@ 3
360 3
ó 3
2002 3
9/10 3
Tran_@@ 3
Phan_@@ 3
Hưng 3
_thương 3
61% 3
Nguyen_@@ 3
184 3
604 3
116 3
76 3
thu_h@@ 3
vani 3
F@@ 3
RE@@ 3
31/7 3
bao_cao_su 3
3,3% 3
3,@@ 3
TR@@ 3
3/2018 3
20.5 3
Thương_binh 3
New@@ 3
z@@ 3
iland 3
dân_cư 3
loang 3
amin 3
hô@@ 3
n_trung 3
12/@@ 3
9/201@@ 3
Gia_Lai 2
Quang_@@ 2
Yên 2
150.000 2
10,3 2
50@@ 2
46% 2
Kri@@ 2
4.8@@ 2
50,@@ 2
73% 2
WB 2
Jan 2
3-5 2
112 2
44 2
vật 2
Cương 2
79 2
12% 2
15kg 2
1,4% 2
20,@@ 2
22,5 2
462 2
02@@ 2
03/201@@ 2
nm 2
"@@ 2
_R@@ 2
0,4% 2
tả@@ 2
o_th@@ 2
ề_@@ 2
điệp 2
bay 2
hi_sinh 2
2008 2
25@@ 2
91,@@ 2
623 2
4,@@ 2
tỉ@@ 2
tiể@@ 1
ngơ 1
LĐ-@@ 1
Hiên 1
chuỗi 1
Đăk_@@ 1
Vi@@ 1
phen 1
