ơ@@ 100672
, 94146
p@@ 59223
' 58424
̆@@ 52673
tơ@@ 49212
. 43417
i 42649
h 41068
ng 39069
j@@ 34420
ĕ@@ 32398
d@@ 31817
k@@ 31770
b@@ 29598
h@@ 28037
l 26428
k 24682
rong 23814
t 23750
ĭ@@ 23609
ơm 20652
ŭ@@ 18427
ĭ 18383
ă 18073
m 16547
y@@ 16391
năm 15995
u 15532
g@@ 15254
l@@ 14956
rim 14324
và 13608
ă@@ 13575
đ@@ 13320
lơ@@ 13257
các 12969
r@@ 12942
ŏ@@ 12839
đơ@@ 12789
we@@ 12664
ch 12419
p 12361
ad@@ 12341
ô@@ 12219
n 11996
̆ 11799
ŏ 11441
n@@ 11355
minh 11089
nh@@ 10345
ăn 10140
t@@ 9461
nh 9119
r 9063
sơ@@ 8839
ng@@ 8303
của 8048
ung 8003
m@@ 7570
trong 7537
; 7386
có 6860
được 6812
u@@ 6725
không 6178
long 6100
ê@@ 5916
ở 5911
̂@@ 5827
nam 5492
đa@@ 5360
riêng 5292
ô 5228
ơ 5174
no@@ 5038
ma 5017
sa 4915
an 4778
Y@@ 4772
cham 4714
ưng 4699
( 4630
với 4616
huyện 4601
đi 4592
) 4571
tinh 4566
nang 4535
ôn 4447
nă@@ 4425
ho@@ 4375
cho 4364
khan 4277
: 4182
tỉnh 4151
thu 4148
ch@@ 4142
jung 4134
la 4015
on 4012
Nă@@ 4009
măng 3987
tru@@ 3986
ngày 3985
đang 3949
kông 3926
tho 3919
tr@@ 3911
at@@ 3883
iêu 3834
về 3819
ph@@ 3773
cái 3733
thực_hiện 3692
/ 3687
kh@@ 3645
sư 3607
x@@ 3603
i@@ 3602
ing 3590
đan 3564
ư 3490
anh 3481
K@@ 3421
ro@@ 3408
để 3394
tanh 3392
inh 3391
am 3388
theo 3381
H@@ 3359
B@@ 3305
trên 3297
Vinh_@@ 3235
bo@@ 3219
đã 3206
s@@ 3194
v@@ 3180
êng 3177
tơ 3162
trương 3119
ăm 3115
đông 3100
ngai 3048
J@@ 3026
người 3024
pu@@ 2966
c 2962
ang 2913
ăt 2911
xã 2893
al@@ 2843
ban 2822
ao 2816
là 2788
w@@ 2764
Đ@@ 2763
ks@@ 2735
đến 2731
đinh 2689
mới 2628
xây_dựng 2609
lo@@ 2595
Pơ@@ 2575
nd 2562
te@@ 2537
mư@@ 2529
glo@@ 2502
tổ_chức 2480
UBND 2465
ring 2464
hôi 2447
hơ@@ 2420
ku@@ 2413
1 2409
những 2404
tại 2401
nghiêp 2383
ê 2370
dr@@ 2357
phát_triển 2339
Tơ@@ 2339
ub@@ 2314
làng 2309
a 2287
ât 2280
ư@@ 2267
lư 2265
phong 2255
bok 2227
học 2203
từ 2193
ên 2184
sở 2177
ôi 2140
đe 2106
một 2085
hoa 2066
số 2061
trường 2060
thi 2053
an@@ 2035
sơ 2032
au 2027
ru@@ 2025
ri 2019
đô 2015
ap@@ 2012
việc 1963
công_tác 1951
ba 1946
sinh 1936
ăng 1903
yu@@ 1899
đó 1893
trinh 1873
kinh 1863
2020 1862
tăm 1858
nh_th@@ 1833
nhà 1828
vĩ@@ 1812
làm 1799
2 1768
lê@@ 1762
ŭ 1744
Thanh 1740
e@@ 1735
vào 1734
cho@@ 1730
3 1714
ạnh 1712
um 1707
uy 1701
cao 1698
– 1694
cây 1688
bô 1685
ua 1669
con 1642
chơ@@ 1638
lớp 1629
xu@@ 1627
hội 1625
anu 1625
khi 1612
y 1603
2019 1598
sau 1597
tê@@ 1596
viên 1588
địa_bàn 1586
nhiều 1547
chư@@ 1544
củi 1536
L@@ 1531
pal 1526
phân 1525
ông 1518
qua 1514
hỗ_trợ 1510
như 1507
yo@@ 1497
rơ@@ 1492
cấp 1487
du@@ 1487
di@@ 1486
cùng 1471
tê 1462
nông_thôn 1449
triển_khai 1442
đồng 1439
đăng 1437
rê@@ 1412
tháng 1410
địa_phương 1410
o 1410
Sơ_@@ 1401
đ 1386
sản_xuất 1380
ra 1376
vĩnh 1371
đe@@ 1370
thoi 1369
ưm 1367
cơ_sở 1366
5 1364
o@@ 1363
chi 1353
mai 1350
san 1334
này 1329
ari@@ 1324
nông_nghiệp 1321
Đang 1321
dân 1308
thu@@ 1308
toan 1306
quyết_định 1296
nu 1294
lu@@ 1276
a@@ 1273
hộ 1272
sa@@ 1265
" 1261
sư@@ 1258
thanh 1254
Đinh 1253
điều 1252
4 1252
10 1250
văn_hoá 1250
mang 1241
bình_định 1238
nu@@ 1237
đoan 1231
ul 1228
phối_hợp 1226
tich 1222
nước 1218
in 1212
rao 1212
kế_hoạch 1210
Binh_@@ 1209
đất 1207
kê@@ 1205
bộ 1204
thường 1204
ai 1201
nông 1200
ah 1198
ab@@ 1197
buổi 1196
hơ 1182
ap 1179
ngoài 1178
chương_trình 1178
̂ 1169
hanh 1164
giống 1151
hoạt_động 1149
phòng 1140
tư 1134
ar@@ 1129
kinh_tế 1122
6 1121
lúc 1120
9 1117
iêm 1108
th@@ 1105
hồ 1096
rông 1095
U@@ 1095
em 1091
at 1088
thê 1080
ha 1078
đạt 1074
quản_lý 1072
chợ 1067
cơ 1063
liên 1057
rol 1047
sự 1040
trồng 1040
hai 1039
gi@@ 1038
tiêu 1037
ak@@ 1036
8 1035
chỉ_đạo 1034
nông_dân 1034
nhân 1033
la@@ 1030
quy_định 1028
Bo@@ 1027
Sa 1027
đầu_tư 1026
pl@@ 1022
gia_đình 1018
gần 1011
đu@@ 1010
lại 1006
dân_tộc 1000
sáng 998
giáo_dục 994
ty 991
quy 989
thôn 986
chính_sách 986
? 983
nâng 981
tri 980
rồi 979
giao 979
ân 978
bi 977
ngành 973
nghèo 970
ngo 966
ngu@@ 959
tham_gia 957
nghê 951
P@@ 947
Rim 946
bác 944
tôi 941
ơng 941
sang 932
pli@@ 929
hội_đồng 928
ko@@ 925
tốt 920
ơ-@@ 920
br@@ 918
đảng 915
trơ 912
nhân_dân 907
tô 904
mơ@@ 903
ka@@ 901
lấy 898
nguồn 898
trước 897
hiệu_quả 895
nhiệm_vụ 895
cơ_quan 894
xã_hội 892
bán 892
tạo 890
ky 879
lên 878
thời_gian 877
mô 872
Chu 870
chu 869
nữa 865
hôm 863
chinh 863
tao 862
liên_quan 861
ơn 860
công 858
Minh 858
7 853
sân 847
sử_dụng 847
mo 847
khu@@ 842
còn 840
khai 835
bal 834
Nông 832
rất 831
lư@@ 828
nói_chuyện 826
mình 823
văn 822
đai 822
chủ_tịch 820
Ph@@ 815
đơn 814
Ad@@ 813
đo@@ 810
rừng 809
liêm 808
lương 808
đầu 807
hôm_qua 804
cũng 800
văn_@@ 797
điều_kiện 793
q@@ 792
trăm 789
lạ 785
đô@@ 775
thăm 771
vốn 771
bà 771
sinh_viên 770
tt@@ 762
đào_tạo 761
trẻ_em 755
M@@ 753
thả 749
an_toàn 741
bãi 741
an_ninh 740
c@@ 736
dự_án 734
ke@@ 733
lai 732
ting 729
tiêm 726
ô_@@ 724
xem 722
na@@ 720
iê@@ 719
lang 719
nhà_nước 716
le@@ 716
nhôm 714
vùng 712
nay 712
khu 711
as@@ 710
chương 707
hàng 705
the 702
phó 700
quả 699
giám_đốc 698
triệu 695
vận_động 695
bảo_vệ 694
mir 692
nai 691
tuyên_truyền 689
bố 685
chất_lượng 685
bằng 685
giảm 682
lúa 680
đam 680
Nam 676
định 673
thông 671
vu 670
lần 666
ro 666
hướng_dẫn 665
Ê@@ 664
lê_@@ 662
ah@@ 662
bị 660
ngư@@ 660
Gi@@ 660
đây 658
mô_hình 655
việt_@@ 654
đi@@ 654
người_dân 650
đảm_bảo 650
thương 650
loại 646
đơn_vị 641
kiểm_tra 633
tu@@ 632
ran 632
chỉ 631
thì 631
điêu 628
hơn 624
đồng_bào 623
giúp 623
đối_với 622
mua 622
chiều 622
mẹ 618
thành_phố 617
phải 617
biết 615
toàn 614
bò 614
ôm 613
phai 608
cô 602
nội_dung 601
pháp_luật 601
go@@ 598
ach 594
khoảng 591
bư@@ 587
phát 586
tam 586
tớ 585
so@@ 584
đê 583
hoặc 582
vụ 582
vi 581
bệnh 580
sơn 580
kinh_phí 579
thực 578
tha@@ 578
Văn 578
phong_trào 576
sẽ 576
căn_cứ 575
ngân_sách 575
ti@@ 575
khác 573
xa 570
tiê@@ 570
ong 569
hội_viên 568
giai_đoạn 566
ky@@ 564
ngo@@ 562
Ban 562
100% 560
nhằm 558
trung 550
ka 549
lak 549
đường 547
Sơ@@ 546
Tru@@ 545
góp_phần 543
võ 543
trân 542
thông_tin 541
gang 541
thuộc 540
dượng 540
tăng 538
le 537
tương 536
ly 536
kết_quả 535
nhất 532
do 530
19 530
hiện 529
rang 529
na 528
đúng 528
Khu@@ 526
môi_trường 525
môi 525
chị 524
tập_trung 522
Đai 522
rể 521
mi@@ 520
chính_phủ 519
trách_nhiệm 519
cách 519
Ch@@ 519
biê@@ 518
ling 517
kong 516
cần 515
thao 514
Ah@@ 514
chưa 510
â@@ 509
mi 508
_@@ 508
phương 506
công_trình 506
mùa 505
ăk 505
có_thể 504
cả 504
chăn_nuôi 503
tăng_cường 503
học_tập 502
nuôi 500
gia 499
12 497
chống 497
ta@@ 496
phục_vụ 493
một_số 493
Ơ@@ 493
đoàn 492
công_an 491
ưu 490
HĐND 490
nhau 489
chu@@ 488
năng 487
100 487
báo_cáo 485
… 485
cá 483
âm 483
binh 481
thiên_tai 481
Ng@@ 481
nên 480
hi@@ 480
cán_bộ 479
lo 477
đời_sống 475
lao_động 475
từng 470
rẫy 470
dư 469
nap 469
thứ 466
lich 466
hôm_nay 465
Thu 465
bên 464
to 464
thuốc 464
- 460
Sơn 460
am@@ 459
pô 459
phô@@ 457
N@@ 457
tổng 456
phụ_nữ 455
hôm_@@ 455
thị_xã 454
đôi 453
t_@@ 453
đẩy_mạnh 452
rat 452
tiếp_tục 450
bao 449
thịt 449
thuỷ_sản 449
it 449
02 446
đề 446
hệ_thống 445
01 444
im 444
dân_tộc_thiểu_số 443
thư 443
thị_trấn 443
thực_phẩm 442
nông_lâm 442
vườn 441
nt 438
jo 438
biển 437
gà 436
k_@@ 436
du_lịch 434
học_sinh 434
kia 432
pơ 431
ban_hành 430
phòng_chống 429
D@@ 429
tổ 428
đủ 428
cây_trồng 428
đảng_bộ 427
sớm 426
Tho@@ 426
da@@ 424
tỷ_lệ 423
đao 423
om 423
dưới 422
cuộc 422
me 422
ươ@@ 421
V@@ 421
chính_trị 420
ngh@@ 420
tt 419
tích_cực 419
2025 417
cành 416
phê 415
lớn 414
lâm 414
đại_hội 413
luật 413
chú 413
thấy 413
chê@@ 413
ôc 413
thể_thao 411
ngân 410
il 409
y_tế 408
ami 407
chín 405
tối 405
đàn 404
bo 403
đề_án 403
pt@@ 402
nếu 402
bảo 400
hương 399
tới 399
phun 398
trung_ương 398
động 398
liên_hoan 398
chủ 397
nghề 397
uỷ_ban_nhân_dân 397
dịch 394
lãnh_đạo 394
phi 394
1000 393
trang 393
sáu 392
ta 392
núi 391
kỳ 390
giao_thông 389
đoàn_thể 389
ken 389
g 388
huy 388
Tai 388
vì 387
giai 387
hu@@ 387
khó_khăn 386
thêm 385
kg 385
trâu 384
chính_quyền 384
tỷ 383
mục_tiêu 383
Chương 382
đê@@ 379
dịch_bệnh 378
to@@ 378
Nh@@ 378
điểm 376
2018 375
lá 374
phat 374
chính 373
2017 373
hl@@ 373
trưởng 372
2015 372
hô 372
khai_thác 371
re@@ 370
kể 369
dang 369
hiện_nay 368
tro 368
11 367
nuô@@ 366
Th@@ 366
nghị_quyết 365
tình_hình 365
khoang 365
nơ@@ 365
xuống 364
giám_sát 364
trưa 364
vân 363
Lu@@ 361
sâu 360
đồng_thời 360
họp 359
màu 359
tra@@ 359
ning 359
bảy 358
diện_tích 358
Đinh_@@ 357
thư@@ 356
thường_xuyên 355
uy@@ 355
kinh_doanh 354
truyền_thống 354
tai 353
Bô 353
nhỏ 352
tông 352
Viêt_@@ 352
mười 351
vươn 350
phát_huy 350
nơi 350
kịp_thời 349
sản_phẩm 349
quan_tâm 349
Đao 349
đặc_biệt 348
non 348
thành 348
su@@ 348
miền 347
đều 347
êm 347
Sơ 347
al 346
xử_lý 345
Tr@@ 345
15 344
vay 344
hang 343
ple@@ 343
dự 341
nhưng 341
đâu 341
dựng 340
chịu 340
chủ_trì 339
bà_con 337
mặt 335
mỗi 335
Binh 335
tám 333
rin 333
chăm_sóc 332
5@@ 332
tin 331
di 331
thô@@ 330
q 330
trình 329
ĕ 329
d 328
kỹ_thuật 327
thi_đua 327
yêu_cầu 327
cụ_thể 326
chi@@ 326
tho@@ 326
phần 325
ki@@ 325
gô 325
! 325
tiền 324
nghi 324
tă@@ 324
lập 323
bi@@ 323
rau 323
phê_duyệt 322
bình 321
Sư 321
mo@@ 320
phù_hợp 319
yu 319
bảo_đảm 318
sinh_hoạt 318
má 317
quan 317
Liên_hoan 317
Ngh@@ 317
Trung_ương 316
giữa 315
ti 315
tài_chính 314
hê 313
4@@ 312
vi@@ 312
30 312
bước 312
hơp 312
vaccine 311
hạt 311
mức 311
nghe@@ 311
man 311
bra 311
thông_qua 310
đề_nghị 308
khoa 308
cá_nhân 307
chung 306
bổ_sung 306
... 305
kim 305
mu@@ 305
trung_tâm 304
bu@@ 303
Thương 303
đối_tượng 302
che@@ 302
vừa 301
ne 301
chủ_động 300
et 300
thơ@@ 300
tâng 298
Tinh 296
Đê 296
hoàng_hôn 295
sạch 295
Chi 295
yuk 295
Trong 295
quá 294
tuổi 294
met 294
Adri@@ 294
qu@@ 291
chỗ 290
tra 289
xuân 289
hư@@ 289
Kim 289
kỉ@@ 288
ia 288
20 287
bốn 287
vê 285
anh_trai 284
huyện_uỷ 283
xanh 283
thành_viên 283
đồng_chí 283
hecta 283
ôi_@@ 283
biện_pháp 281
nghiệp 281
đưa 281
cuối 281
kìa 281
thâm 281
S@@ 280
hết 279
đại_biểu 279
nhanh 277
thị 276
tập_huấn 276
mưa 275
giá_trị 275
hoàn_thành 275
thi_hành 274
đảng_viên 274
điên 274
2016 273
tiên 273
-@@ 273
A@@ 273
de@@ 271
triển 270
suốt 270
bền_vững 269
gây 269
xế 269
sống 268
giải_pháp 268
gắn 268
văn_phòng 268
ngày_mai 267
giữ 267
chuyện 267
dùng 266
mà 266
v 266
quá_trình 265
làng_nghề 265
Ho@@ 265
lĩnh_vực 264
lò 264
tham_mưu 264
b 264
nha@@ 264
dai 263
Nghi 263
chuẩn_bị 262
cu@@ 262
nãy 262
re 261
lễ 260
châ@@ 260
nar 260
Trương 260
kèm 259
xây 259
ương 259
25 258
năng_suất 258
ranh 258
mọi 257
nhìn 256
thiê@@ 256
bu 256
thanh_niên 255
cạnh 255
làm_việc 255
gọi 254
cậu 254
lượng 254
ngoai 254
địa 253
chức_năng 253
chim 253
đợt 253
bô@@ 253
quy@@ 252
hành_động 252
tuk 252
tâm 250
chị_gái 250
QĐ-UBND 250
nghiêm 249
nọ 249
ngày_kia 249
tổng_hợp 247
đẹp 247
hay 247
QĐ-TTg 247
thu_hoạch 246
uống 246
chạy 246
tưới 245
sô 245
hợp 244
xuất 244
lắm 244
Kông 244
hình 243
so 243
Thuân 243
Văn_@@ 243
thành_lập 242
bón 242
truy@@ 242
đa 241
thủ_tục 240
cm 240
hướng 240
li@@ 240
quy_hoạch 240
centimet 240
en 239
05 239
vẫn 238
ei 238
thương_binh 237
mươi 236
cháu 236
giải_quyết 236
dài 235
chi_bộ 235
tuyên 235
văn_bản 235
tiến_hành 234
hội_đồng_nhân_dân 234
phô 234
kiên 234
môn 233
gd@@ 233
roi 233
luôn 232
rộng 232
giá 232
ts 231
ưu_tiên 230
tập 229
uỷ_ban 229
dịch_vụ 229
ênh 229
liêu 229
bí_thư 228
phân_công 227
uận 227
nn 226
nói 226
tinh_thần 226
chuyên 226
chọn 225
chức 225
muốn 225
kilôgam 225
nguyên 224
tay 224
thôi 224
chiếm 224
va@@ 224
ly@@ 224
Hoa 224
vật_nuôi 223
danh 223
ả 222
nâu 222
lực_lượng 222
vệ_sinh 222
thông_tư 222
ngư 220
trẻ 220
trường_hợp 220
mèo 220
nan 220
thời 219
pháp 219
tham 219
cp 219
Thông_tư 219
nhiệm_kỳ 218
thường_trực 218
dăm 218
2021 217
hăm 217
ưa 216
chơ 216
bê 215
cơ_cấu 215
T@@ 215
chưng 215
sản 214
bàn 214
co@@ 214
vàng 214
kiêm 214
Ku@@ 214
gương 213
ký 213
nguy@@ 213
Lư 213
diện 212
viên_chức 212
ii 212
quốc_gia 211
thủ_tướng 211
nào 211
giỏi 211
com 211
nghị_định 211
tep 211
Mai 211
tránh 210
.. 210
cổ_truyền 210
_H@@ 210
kế 209
trạm 209
giấy 209
hoà 209
rô@@ 209
xơ 209
phạm_vi 208
sông 208
hành_chính 208
iêng 208
nghệ 207
ngô 207
cắt 206
khoá 206
đăng_ký 206
lưng 206
mắt 205
nôi 204
chuyển 203
nhu_cầu 203
bố_trí 203
nh_@@ 203
việc_làm 202
khoa_học 202
tia 201
vuông 201
sức_khoẻ 201
thủ_trưởng 201
dơ 201
đen 200
âu 200
bạn 199
đạo_đức 199
Uy 199
'@@ 199
quần 198
trật_tự 197
hoá 197
gồm 197
canh 197
Phong 197
gùi 196
nhờ 196
nho 196
20@@ 196
eh 196
nhận 195
độ 195
m2 195
ai_@@ 195
& 195
jan 195
quyền 194
nghe 194
tiêu_chí 194
chủ_trương 194
the@@ 194
HCM 194
chí_@@ 193
quân 193
thể 193
dân_cư 193
ma@@ 193
yêu 193
pho@@ 193
huyên 193
tỉa 192
phí 192
sức 192
heo 192
di_tích 192
hội_nghị 192
yê@@ 192
G@@ 192
Thi_@@ 192
hồ_@@ 191
tự 191
tiếng 191
khoan 191
Du@@ 191
ổn_định 190
vi_phạm 190
thu_nhập 190
6@@ 190
tau 190
but 190
Măng 190
đoàn_kết 189
O@@ 189
CCB 189
nhận_thức 188
9@@ 188
nhâ@@ 188
tư_tưởng 188
ng_@@ 188
chăm 187
trở 187
công_nghệ 187
meu 187
rựa 186
â 186
trao 186
bố_mẹ 186
tất_cả 185
khô 185
đào 185
xét 185
Quy_Nhơn 185
03 184
dung 184
chánh 184
cộng_đồng 183
tham_quan 183
Đâu 183
gái 182
e 182
50 182
nhất_là 182
tiến_bộ 182
ac 182
Qua 182
KHKT 182
vật_tư 181
thân 181
2009 181
đánh_giá 180
truyền 180
cu 180
li 180
dal 180
han 180
si 180
gia_cầm 179
giao_lưu 179
đại 178
thím 178
vấn_đề 178
suối 178
giới 177
khe@@ 177
quan_trọng 176
cuộc_sống 176
thích 176
năng_lực 176
mon 176
bak 176
đội 175
ba@@ 175
xác_định 175
xảy 175
ngu 175
ngày_càng 174
gia_súc 174
phương_tiện 174
vo 174
Yu@@ 174
tên 173
da 173
cấp_uỷ 173
bum 173
xác 172
một_ngàn 172
lượt 172
cỏ 172
bơ 172
Ba 172
chất 171
phát_hiện 171
phu 171
xi@@ 171
ke 171
hành 170
thanh_tra 170
kiểm_soát 170
ba_@@ 170
Co@@ 170
An@@ 170
Trung_tâm 170
sưa 170
chó 169
hạn_chế 169
tìm 169
thiết_thực 169
nhi@@ 169
atu@@ 169
chuyên_môn 168
lũ 168
rà_soát 168
quy_trình 168
iên 168
nhem 168
Trương_@@ 168
8@@ 167
xem_xét 167
lam 167
0@@ 167
huy_động 167
manh 167
vật_chất 166
nội 166
dạy 166
tặng 166
phu@@ 166
5/@@ 166
tỉnh_uỷ 165
khu_vực 165
chặt 165
bet 165
dậy 164
ít 164
động_vật 164
khung 164
hop 164
khỉ 163
thuận_lợi 163
sao 163
áp_dụng 163
tuyến 163
tình 162
vững 162
thiên 162
ai@@ 162
chết 162
định_kỳ 161
7@@ 161
thoát 161
40 161
ngủ 161
bẫy 161
gì 161
vu@@ 161
s 160
quyết 160
chỉ_tiêu 160
hình_thức 160
tri@@ 160
biên 160
gốc 159
bắp 159
quang 159
%@@ 159
Ma 159
Hao 159
lợn 158
phấn_đấu 158
kê 158
01/@@ 158
giáo 157
đạo 157
hỗ 157
lao 157
ne@@ 157
đình 156
rau_an_toàn 156
giải 155
xong 155
công_nhận 155
phong_cách 155
Mi 155
r_@@ 155
phơ 155
Ngu@@ 155
2010 154
gỗ 154
chê 154
Mi@@ 154
chú_trọng 153
phối 153
bây_giờ 153
lui 153
vững_mạnh 153
trình_độ 153
đong 153
Long 153
xê@@ 153
bỏ 152
điều_chỉnh 152
mạnh 152
tu 152
ơi 152
eu 152
bài 151
tàu 151
ngân_hàng 151
báo 151
phổ_biến 151
Oh 151
MTTQVN 151
phang 151
tán 150
hái 150
ngay 150
kết 150
phát_động 150
Kh@@ 150
giáo_viên 149
trai 149
tiêu_chuẩn 149
hố 149
lý 149
dành 149
nêu 149
35 149
ấ@@ 149
tâ@@ 148
nghiên 148
_l@@ 148
X@@ 148
tín_dụng 147
công_dân 147
trị 147
phân_cấp 147
trực_thuộc 147
diễn 147
cây_ăn_quả 147
ji@@ 147
Phong_@@ 147
dân_làng 146
du 146
khuyến_khích 146
gửi 146
họ 146
Nguyên_@@ 146
cung 145
tiết_kiệm 145
gặp 145
phía 145
kiến_thức 145
thuỷ_lợi 145
vid@@ 145
mục 144
gian 144
kiểm 144
nhiệm 144
sát 144
ra@@ 144
dưng 144
pit 144
mac 144
tak 144
đem 143
iể@@ 143
cư 143
ngôi 143
vì_vậy 143
bầy 143
văn_minh 143
ngành_nghề 143
mong 143
yer 143
mợ 142
kỹ 142
quản 142
hại 142
dân_vận 142
hảo 142
hải_sản 141
sắn 141
sat 141
tum 141
đáp_ứng 140
22 140
ngọn 140
lợi 140
nâng_cấp 140
apo@@ 140
Kuy@@ 140
Kinh 140
nghi@@ 139
doanh_nghiệp 139
thai 139
mương 139
xe 139
cam 139
ay@@ 139
diên 139
chuyển_biến 138
lei 138
nô@@ 138
n_@@ 138
1.@@ 138
răng 138
lung 138
Tơ 138
xuất_hiện 137
sách 137
cứ 137
nhóm 137
mở 137
ca@@ 137
địa_điểm 136
tuyển_dụng 136
công_nghiệp 136
chi_hội 136
yang 136
găm 136
quốc 135
14 135
chuối 135
tác 135
chỉ_thị 135
cơ_chế 135
thịnh 135
kiê@@ 135
Kon_@@ 135
chi_phí 134
kt 134
phá 134
thế 134
lâm_nghiệp 134
45 134
Nhơn 134
Tham 133
NĐ-CP 133
yol 133
đầy_đủ 132
đậu 132
đề_xuất 132
thấp 132
quà 132
chuyên_đề 132
bôi 132
UB@@ 132
cải_thiện 131
hưởng_ứng 131
khá 131
hiệp 131
hom 131
gieo 131
tư_pháp 131
quốc_tế 131
chư 131
gạo 131
chúng 130
khối 130
khang 130
LHPN 130
Pho 130
Thinh 130
va 129
cung_cấp 129
danh_sách 129
lân 129
duy_trì 129
ven 129
dê 128
hồ_sơ 128
nạn 128
bạo_lực 128
đô_thị 128
ha@@ 128
nuôi_trồng 127
doanh 127
đấy 127
500 127
quy_chế 126
chứng_nhận 126
khâu 126
trắng 126
3@@ 126
đặt 126
tấn 126
năm_học 125
chuẩn 125
suất 125
km 125
po@@ 125
thă@@ 124
tính 124
18 124
áo 124
chuyên_ngành 124
an_@@ 124
i_@@ 124
quy_mô 124
bầu 124
NHCSXH 124
je@@ 124
Giao 124
uỷ 123
1@@ 123
sinh_trưởng 123
72 123
đê_điều 123
bảo_tồn 123
chúng_tôi 123
pt 123
ja 123
Ngân 123
tech 123
xóm 122
án 122
tiến 122
tiếp 122
lưu 122
khoản 122
tiêu_thụ 122
cứu 122
tài_nguyên 122
phường 122
kai 122
sô@@ 122
trợ 121
doc@@ 121
thẩm_quyền 121
đánh 121
thay_đổi 121
ruộng 121
trực_tiếp 121
w 121
đại_đoàn_kết 121
cháy 121
bình_đẳng 121
phương_án 121
pha 120
thẩm_định 120
đối 120
vận_chuyển 120
vui 120
kha@@ 120
Tô 120
biến 119
xoá_đói_giảm_nghèo 119
200 119
dao 119
nghiên_cứu 119
ễn_@@ 119
túi 119
dễ 119
Lao 119
điện 118
mở_rộng 118
thuê 118
cát 118
dịp 118
chế_độ 118
nội_vụ 118
ngựa 118
thông_báo 118
thú 118
Đôi 118
trồng_trọt 117
mầm 117
cựu_chiến_binh 117
tươ@@ 117
pe@@ 117
dục 116
cổ 116
công_việc 116
rõ 116
đảng_uỷ 116
săn 116
ag@@ 116
lah 116
giả@@ 115
hưởng 115
ý_kiến 115
ánh 115
dì 115
ứng_phó 115
8/201@@ 115
hy@@ 115
lot 115
yi 115
NN-@@ 115
Dr@@ 115
Tư 115
bộ_trưởng 114
z@@ 114
hỏi 114
củng_cố 114
chuyển_giao 114
ngồi 114
tập_thể 114
8/@@ 114
niêm 114
Đoan 114
dụng 113
hoạt 113
ý 113
chú_ý 113
kỹ_năng 113
thức_ăn 113
dòng 113
mâm 113
07 113
kiến_nghị 113
chữ 113
truyền_thông 113
tổng_số 113
bình_quân 113
đựng 112
lâu 112
60 112
đoạn 112
tổ_quốc 112
70 112
sự_nghiệp 112
cơ_bản 112
3.@@ 112
theo_dõi 112
đói 112
khách 112
m3 112
5/201@@ 112
12/@@ 112
leh 112
chồi 111
mầm_non 111
đóng_góp 111
thâm_canh 111
thu_hút 111
cử_tri 111
kan 111
Biên 111
Chăm 111
trường_học 110
cs 110
tội_phạm 110
mấy 110
câu 110
ứng_dụng 110
thiếu 110
học_phí 110
băng 110
chiu 110
Te@@ 110
khôi 110
TT-B@@ 110
riê@@ 110
rac 110
bông 109
tây 109
quỹ 109
cầu 109
24 109
quốc_phòng 109
28 109
ễ@@ 109
tìm_kiếm 109
thăng 109
MTTQ 109
ưu_đãi 108
bản 108
giờ 108
lửa 108
dân_số 108
vai_trò 108
khoẻ 108
khí_hậu 108
trang_thiết_bị 108
0/@@ 108
TTr@@ 108
tộc 107
bão 107
mẫu 107
lịch_sử 107
khả_năng 107
thực_tế 107
c_@@ 107
Xây 107
cụ 106
giám 106
cở 106
nguồn_lực 106
ạ 106
chục 106
khắc_phục 106
trái 106
điều_tra 106
2014 106
chơi 106
ăc 106
thú_y 105
độ@@ 105
lơ 105
vịt 105
sung 105
tuy 105
an_sinh 105
viễn 104
đốt 104
sương 104
04 104
bó@@ 104
nằm 104
06 104
Yi 104
bào 103
ngoài_ra 103
tình_trạng 103
hư 103
nỗ_lực 103
thị_trường 103
Trung 103
kham 103
x 102
dừng 102
việt 102
cảng 102
thủ 102
đẩy 102
công_bố 102
vùng_biển 102
kết_hợp 102
quân_sự 102
kè 102
tư_vấn 102
gal 102
f@@ 101
chế 101
80 101
hoà_giải 101
chuyển_đổi 101
vận 101
liên_kết 101
số_lượng 101
cột 101
ho 101
hạ_tầng 101
đêm 101
phân_bón 100
cơ_sở_hạ_tầng 100
sâu_bệnh 100
ban_ngành 100
nghiệp_vụ 100
hè 100
30a 100
chum 100
thu_hồi 100
xi_măng 100
khuyên 100
nghiê@@ 100
Bao 100
Môi 100
Diêu 100
hoạch 99
eb@@ 99
nữ 99
khai_mạc 99
cc@@ 99
50% 99
tờ_trình 99
khê 99
Tây_Sơn 99
Ơ 99
90% 98
lực 98
thưa 98
tái 98
cách_mạng 98
tây_@@ 98
đầu_tiên 98
dự_kiến 98
dự_tuyển 98
nặng 98
tranh 98
To@@ 98
13 97
góp 97
chùm 97
hạn 97
tham_vấn 97
cạn 97
địch 97
trong_sạch 97
tầm 97
2@@ 97
mục_đích 97
pra 97
phụ_lục 96
hoạ@@ 96
tuần 96
tổng_kết 96
chăn 96
2030 96
chân 96
bana 96
đo 96
căn 96
thống_nhất 96
hoài_@@ 96
bê@@ 96
ada 96
duyệt 95
ngang 95
định_hướng 95
tham_dự 95
nhu@@ 95
umi 95
Huy@@ 95
13@@ 94
chặt_chẽ 94
vật 94
bao_gồm 94
ể 94
hiệu_lực 94
đá 94
khoa_học_kỹ_thuật 94
đổi_mới 94
đại_diện 94
nhé 94
hội_@@ 94
bê_tông 94
gió 94
tang 94
sẵn_sàng 93
chế_biến 93
sửa_đổi 93
hiệu 93
khám 93
trộn 93
ẩm 93
luống 93
vị_trí 93
chủ_yếu 93
36 93
đội_ngũ 93
động_viên 93
múi 93
6/@@ 93
mah 93
tích 92
nhiê@@ 92
sử 92
nấm 92
vòng 92
kinh_nghiệm 92
tiếp_cận 92
vi_sinh 92
huỳnh 92
ảnh_hưởng 92
lòng 92
cai 92
nam_@@ 92
yan 92
sil 92
thối 91
sửa_chữa 91
vùng_cao 91
trông 91
tuy@@ 91
chảy 91
cười 91
xuất_khẩu 91
ngăn_chặn 91
ươm 91
đuôi 91
Dru@@ 91
người_người 90
dụng_@@ 90
xoá 90
dự_toán 90
tế 90
kênh 90
xây_dựng_gia_đình 90
khen 90
không_chỉ 90
10@@ 90
bắt 89
ứng 89
xe@@ 89
nắng 89
phụ 89
tôm 89
2013 89
tỉnh_@@ 89
học_viên 89
11/@@ 89
nilon 89
ao_@@ 89
càng 88
mọc 88
nghề_nghiệp 88
bướm 88
sáng_tạo 88
mà_còn 88
ghi_nhận 88
hon 88
Kê 88
chi_cục 87
thóc 87
26 87
giúp_đỡ 87
tuyển_@@ 87
kali 87
nghìn 87
cưa 87
bảo_quản 87
đón 87
huy@@ 87
ghi 87
2.@@ 87
các@@ 86
mặt_trận 86
ế@@ 86
xi 86
quý 86
nghị 86
khó 86
lồng_ghép 86
cơm 86
cân_đối 86
dâng 86
danh_hiệu 86
thiếu_nhi 86
17 85
ct 85
nước_sạch 85
làm_cỏ 85
135 85
nn@@ 85
lấp 85
14@@ 85
+ 85
trọng_tâm 85
mời 85
ram 85
tô@@ 85
văn_phong 85
Ty 85
A 85
suôn 85
Công_an 85
lâ@@ 85
cn 84
lời 84
tuyển 84
vị 84
hồng 84
đức 84
vĩnh_@@ 84
toàn_bộ 84
30/@@ 84
phát_sinh 84
cửa 84
4/@@ 84
ý_thức 84
Phân 84
wal 84
dụng_cụ 83
thời_tiết 83
chính_sách_xã_hội 83
phạm 83
iii 83
tài 83
đống 83
hằng 83
nghĩ 83
hiện_hành 83
thuỷ 83
niềm 83
diễn_biến 83
tiến_độ 83
TN@@ 83
Tu@@ 83
ron 83
TW 83
don 83
THPT 83
biểu 82
tết 82
nền 82
vì_thế 82
biểu_diễn 82
chia 82
bồi_dưỡng 82
vượt 82
dây 82
hạnh_phúc 82
29/@@ 82
duy@@ 82
jo@@ 82
gr@@ 82
chí 81
37 81
vợ 81
cận 81
ca 81
59 81
16@@ 81
thời_kỳ 81
4.@@ 81
phẩm 80
16 80
trời 80
lê 80
đám 80
phiếu 80
hệ 80
giữ_gìn 80
phân_bổ 80
că@@ 80
ri@@ 80
Chu@@ 80
quân_sư 80
An_@@ 80
Nhơn_@@ 80
chuông 80
đời 79
nội_trú 79
dụ@@ 79
lão 79
cường 79
vũ 79
trấn 79
11.@@ 79
m_@@ 79
do@@ 79
ak 79
Yu 79
Thông 79
_Lao 79
quảng_bá 78
nga 78
ngày_xưa 78
kết_thúc 78
dẫn 78
liền 78
rụng 78
kho 78
n_th@@ 78
muộn 78
mộc_nhĩ 78
ưng_@@ 78
Ŭ@@ 78
Phu_@@ 78
thuật 77
thường_vụ 77
nguyên_tắc 77
trải 77
ba_mươi 77
thu_gom 77
vệ 77
nghệ@@ 77
tục 77
nghỉ 77
tuy_nhiên 77
_t@@ 77
chỉ_huy 77
chủ_nhật 77
rãnh 77
he@@ 77
Năm 77
tiểu 76
cục 76
xuất_sắc 76
quốc_hội 76
đại_học 76
rừng_phòng_hộ 76
mạnh_mẽ 76
cha 76
tăng_trưởng 76
thích_hợp 76
muỗi 76
xây_lắp 76
8.@@ 76
khéo 76
PTD@@ 76
phi_công 75
quần_chúng 75
công_ty 75
kênh_mương 75
hiểu 75
danh_mục 75
kỷ_niệm 75
biến_đổi 75
sốt_rét 75
13/@@ 75
bia 75
QĐ-B@@ 75
pha@@ 75
NNPTNT 75
Dư 75
Chi@@ 75
trú 74
uỷ_viên 74
ngắn 74
quan@@ 74
tệ_nạn 74
2011 74
tiếp_nhận 74
ít_nhất 74
ngoại_ngữ 74
đảo 74
tôn 74
nguồn_gốc 74
dại 74
00@@ 74
thiết_bị 74
14/@@ 74
võ_thuật 74
phân_chuồng 74
08/@@ 74
đương 74
Ri@@ 74
Mon 74
Ka@@ 74
Đông 74
Xê@@ 74
hạ 73
ngàn 73
á 73
chấp_hành 73
ngoại 73
linh 73
thực_vật 73
công_khai 73
kho@@ 73
hiên 73
NN 73
lựa_chọn 72
tuỳ 72
phòng_trừ 72
in@@ 72
bình_minh 72
già 72
kiểm_lâm 72
lâm_sản 72
mì 72
thành_tích 72
vui_vẻ 72
thông_tin_đại_chúng 72
hoàn_thiện 72
uyên 72
min 72
giàn 72
trần 72
Thu@@ 72
vừng 71
ướt 71
chiến_đấu 71
hậu 71
khuy@@ 71
hoàn 71
mật_độ 71
canh_tác 71
mắc 71
đảm 71
dương 71
một_cái 71
se@@ 71
độc 70
phương_pháp 70
quê_hương 70
rủ 70
xuyên 70
trao_đổi 70
37,@@ 70
Quy 70
Ling 70
Va@@ 70
ju@@ 70
Phươ@@ 70
mưng 70
09 69
đục 69
trợ@@ 69
phố 69
cần_thiết 69
cộng 69
6% 69
chốt 69
phan 69
thời_vụ 69
21 69
ác 69
hoàn_cảnh 69
đập 69
mua_bán 69
5.@@ 69
74 69
truy 69
đâm 69
dần 69
giơ@@ 69
TU 69
P 69
Ba@@ 69
hưu 69
vận_hành 68
thức 68
thúc_đẩy 68
đổi 68
ủng_hộ 68
chứa 68
giam 68
lạnh 68
vết 68
thi@@ 68
điều_hành 68
25/@@ 68
khô@@ 68
01/201@@ 68
chị_em 68
tră@@ 68
chuỗi 67
hà 67
cụm 67
12@@ 67
nhi 67
trúng_tuyển 67
đứng 67
31 67
tiêu_biểu 67
uy_tín 67
trang_bị 67
rác_thải 67
gia_tăng 67
15/@@ 67
rung 67
Xuân_@@ 67
phục 66
quyển 66
tiểu_học 66
hàng_hoá 66
cây_số 66
ấn 66
lợi_ích 66
thiết_kế 66
nó 66
90 66
tiếp_xúc 66
buộc 66
đông_@@ 66
35@@ 66
num 66
luân 66
he 66
vong 66
QS 66
nhiệ@@ 65
ngư_dân 65
26@@ 65
khắp 65
hơn_nữa 65
nắm 65
vỏ 65
pe 65
27 65
giáp 65
anh@@ 65
công_cộng 65
tự_hào 65
ä 65
Tuy 65
dich 65
l-@@ 65
CT@@ 65
Pơ 65
I@@ 65
ống 64
đẻ 64
nấu 64
hợp_đồng 64
đất_nước 64
quán_triệt 64
thi_công 64
đỏ 64
tân_@@ 64
iv 64
trạm_xá 64
đột_xuất 64
tấm 64
ge@@ 64
đổ 64
19/@@ 64
thắng_lợi 64
khuân 64
Vinh_Quang 64
Xuân_Anh 64
Kê@@ 64
Di@@ 64
Khoa 64
Y 64
là@@ 63
sàn 63
thác 63
cán 63
lợn_rừng 63
hải 63
xử 63
5% 63
nhà_rông 63
9% 63
lồng 63
chi_tiết 63
keo 63
phấn 63
lô 63
trở_thành 63
vinh 63
td@@ 63
18/@@ 63
lô@@ 63
Du 63
R@@ 63
xen 62
công_thương 62
sửa 62
bó 62
chức_vụ 62
độ_ẩm 62
hoàng 62
.0@@ 62
thời_điểm 62
cân 62
à 62
phước 62
liệt_sĩ 62
gương_mẫu 62
nguy_cơ 62
400 62
phức_tạp 62
chiến_lược 62
hình_thành 62
58 62
bre@@ 62
liê@@ 62
ghép 61
150 61
cày 61
thê@@ 61
pc@@ 61
cô@@ 61
có_điều 61
tài_liệu 61
bỗng 61
6.@@ 61
truyền_hình 61
ki 61
bl@@ 61
ham 61
ru 61
NV@@ 61
dro@@ 60
99% 60
trao_tặng 60
loài 60
á@@ 60
mặt_bằng 60
trăn 60
tiên_tiến 60
héc 60
rễ 60
nước_ngoài 60
phụ_trách 60
hung 60
cam_kết 60
31/@@ 60
may 60
vận_tải 60
9/@@ 60
lăn 60
chi_tiêu 60
vie@@ 60
dah 60
An 60
dra@@ 60
Trân_@@ 60
XIII 60
huyện_thị 59
đồng_bộ 59
bản_thân 59
thực_trạng 59
nghĩa_vụ_quân_sự 59
53 59
tài_trợ 59
tầng_lớp 59
mái 59
91 59
lệ_phí 59
sóc 59
khỏi 59
4% 59
kiến 59
trứng 59
02/@@ 59
ngõ 59
20/@@ 59
cấp_nước 59
Cty 59
Lê_Văn_@@ 59
TTYT 59
Pu@@ 59
Tiêu 59
tỉ 58
mừng 58
thuận 58
lăm 58
thành_phần 58
nhân_lực 58
phủ 58
xếp 58
85% 58
giết_mổ 58
đau 58
ký_túc_xá 58
ý_nghĩa 58
sinh_học 58
nghĩa_vụ 58
30% 58
bai 58
95 58
vướng_mắc 58
phương_thức 58
cử 58
trở_lại 58
1.000 58
8% 58
siêu 58
95% 58
cánh 58
ve@@ 58
Ha_@@ 58
Z@@ 58
An_Nhơn 58
hươ@@ 58
bé 57
tịch 57
đấu_tranh 57
nghiêm_túc 57
47 57
dạng 57
toàn_diện 57
cải_tạo 57
29@@ 57
thành_công 57
điện_tử 57
tảng 57
khảo_sát 57
52 57
17@@ 57
19@@ 57
24@@ 57
ấy 57
đặc_điểm 57
n_l@@ 57
nga@@ 57
muô@@ 57
thiết_yếu 56
rõ_rệt 56
bộ_mặt 56
cổ_vũ 56
iểu 56
rút 56
tuyển_chọn 56
08 56
0 56
kem 56
mối 56
nát 56
tr 56
rằng 56
vớt 56
85 56
ốm 56
tự_nhiên 56
trưởng_thành 56
/201@@ 56
sản_lượng 56
2009/@@ 56
dong 56
môt 56
chiên 56
nong 56
trừ 55
bộ_đội 55
vậy 55
quế 55
urê 55
thạ@@ 55
600 55
tối_đa 55
che 55
rửa 55
pa 55
hư_hỏng 55
đi_lại 55
68 55
rác 55
89 55
hành_vi 55
thí_sinh 55
ót 55
cẩn_thận 55
bênh 55
24/@@ 55
làm_giàu 55
Phê 55
W@@ 55
B 55
Ke@@ 55
huân 55
kilomet 55
Ân 55
mê@@ 55
Lê_@@ 55
Viê@@ 55
Qu@@ 55
ja@@ 55
tiế@@ 54
xác_nhận 54
pr@@ 54
master 54
kém 54
tư@@ 54
lí 54
công_chức 54
chứng_chỉ 54
kim_@@ 54
bí 54
thọ 54
vn@@ 54
nghé 54
viết 54
quần_áo 54
mỹ 54
hợp_tác 54
đuổi 54
20% 54
tầng 54
bác_sĩ 54
mặc 54
bắc 54
chắc 54
chàng 54
18.@@ 54
huy_hiệu 54
uỷ_thác 54
mat 54
7/@@ 54
tan 54
ê_h@@ 54
ghê@@ 54
Hương 54
TTLT-@@ 54
My 54
Cat 54
HC@@ 54
rap 54
Thanh_@@ 54
Đu@@ 54
La 54
đông_xuân 53
cấy 53
quyên 53
nhân_viên 53
kiện 53
khoảng_cách 53
ra_quân 53
nguyên_nhân 53
khuôn_viên 53
chủ_lực 53
chủ_đề 53
chiê@@ 53
kiện_toàn 53
2006 53
tà 53
hông 53
l_@@ 53
Bung 53
ăh 53
cung_ứng 52
lót 52
tất 52
lây_lan 52
yếu 52
soát 52
giàu 52
bám 52
danh_lam_thắng_cảnh 52
60@@ 52
gi 52
công_nhân 52
giới_thiệu 52
phổ_thông 52
mưa_lũ 52
chẻ 52
con_em 52
nhà_trường 52
nhan 52
tro@@ 52
đáng_kể 51
bổ 51
khảo 51
đồng_thuận 51
lớp_học 51
đóng 51
tuy_@@ 51
cua 51
n_t@@ 51
tắt 51
thể_hiện 51
đun 51
tùng 51
450 51
38@@ 51
dù 51
70% 51
trung_bình 51
xấu 51
biêt 51
ơ_@@ 51
ưh 51
thay_thế 50
cầm 50
hàm_lượng 50
đặc_sản 50
34% 50
miễn 50
sâu_rộng 50
sắp_xếp 50
thông_thoáng 50
trả 50
ria 50
bưởi 50
khoán 50
nhựa 50
pi@@ 50
mùa_màng 50
nha 50
đôn_đốc 50
nghị@@ 50
bộ_chỉ_huy 50
liên_thông 50
tập_luyện 50
mét 50
dược_liệu 50
1% 50
điển_hình 50
có_khi 50
07/@@ 50
28,@@ 50
khao 50
chuôi 50
Ngo 50
Nha 50
Bu@@ 50
_K@@ 50
run 50
EC 50
Min_@@ 50
Ta_@@ 50
nguyên_liệu 49
tỏ 49
nhập_ngũ 49
bơm 49
quyền_hạn 49
phân_@@ 49
thực_@@ 49
kho_bạc 49
nd@@ 49
giã 49
kích_thước 49
ổ 49
trước_đây 49
bậc 49
voi 49
vân_@@ 49
ban_đầu 49
22/@@ 49
03/@@ 49
05/@@ 49
se 49
nhe@@ 49
NQ 49
S 49
phâ@@ 49
đặc 48
tích@@ 48
đôi_khi 48
hàn 48
khuyến_nông 48
cải_cách 48
tím 48
lạc 48
ủ 48
trách 48
57 48
vn 48
nhân_dịp 48
sữa 48
mm 48
chồng 48
55 48
gen 48
201@@ 48
khi@@ 48
/2015/@@ 48
phát_biểu 48
ban_chấp_hành 48
ô_nhiễm 48
2% 48
rèn_luyện 48
suk 48
94 47
cuốn 47
qui 47
n_thúc 47
no 47
đâ@@ 47
đám_ma 47
tác_động 47
hãy 47
nghệ_thuật 47
dinh_dưỡng 47
tại_chỗ 47
toàn_quốc 47
trưởng_thôn 47
ic@@ 47
ni@@ 47
12.@@ 47
tổng_thể 47
phản_ánh 47
trung_thu 47
nộp 47
đị@@ 47
7/201@@ 47
đài_phát_thanh 47
trung_cấp 47
xit 47
ec 47
pho 47
Thư 47
tha 46
đấu 46
khắc 46
nguyện_vọng 46
chia_sẻ 46
kéo 46
700 46
29 46
thống_kê 46
thương_hiệu 46
thế_này 46
chuyển_dịch 46
đẩu 46
huyệ@@ 46
giao_khoán 46
định_mức 46
đài 46
28@@ 46
tuân 46
mặc_dù 46
thương_mại 46
phê@@ 46
gia@@ 46
pa@@ 46
dơi 46
phôi 46
_ch@@ 45
áp 45
thươ@@ 45
15% 45
đốc 45
thay 45
đường_lối 45
câu_lạc_bộ 45
hầu_hết 45
13.@@ 45
phân_loại 45
khu_phố 45
mát 45
phấn_khởi 45
hao 45
65 45
5,@@ 45
bộ_@@ 45
thi_tuyển 45
bung 45
phe@@ 45
nao 45
sơ_@@ 45
Bi 45
Mô 45
u-@@ 45
_T@@ 45
am_@@ 45
̌@@ 45
Vân_Canh 45
He 45
THCS 45
Đông_@@ 45
chuyên_viên 44
cải 44
hoa_màu 44
ngắt 44
11@@ 44
99 44
khơi 44
bạc 44
nhìn_chung 44
cao_tuổi 44
rê 44
liên_tịch 44
hà_@@ 44
lương_thực 44
sắc 44
2004 44
cấp_phát 44
sá 44
mua_sắm 44
giải_phóng 44
cuốc 44
ngà@@ 44
dọn 44
84 44
trọng_điểm 44
liên_ngành 44
cúm_gia_cầm 44
chúc 44
công_lập 44
lm 44
nợ 44
angu@@ 44
2/201@@ 44
Tông 44
Ngo@@ 44
thong 44
_V@@ 44
Hai 44
Khai 44
Bo 44
nhánh 43
phương_hướng 43
nhập 43
0.0@@ 43
củ 43
đoàn_viên 43
công_nghệ_thông_tin 43
ght 43
kết_nối 43
tự_quản 43
dẫu 43
thắp 43
98 43
vợ_chồng 43
chào 43
tài_sản 43
uyển_@@ 43
3,5 43
7% 43
hai_mươi 43
mất 43
giảng_dạy 43
CLB 43
yi@@ 43
động_lực 42
sự_kiện 42
giận 42
trào 42
ước 42
07@@ 42
ọ 42
kháng_sinh 42
trang_phục 42
giết 42
vùng_xa 42
đua 42
dân_sinh 42
đáp 42
lưu_giữ 42
giang 42
loa 42
bầu_cử 42
quyết_tâm 42
2003 42
vùng_sâu 42
chúng_ta 42
máy 42
9.@@ 42
lăng 42
bến 42
sức_mạnh 42
41 42
120 42
sạ 42
4/2009 42
16/@@ 42
bọ_xít 42
cảnh 41
biên_phòng 41
đồng_bằng 41
750 41
đồ@@ 41
thái 41
toán 41
cực 41
thảo_luận 41
anh_hùng 41
diệt 41
trình_tự 41
lãnh 41
nàng 41
trước_mắt 41
cồng_chiêng 41
kì_lạ 41
tỉ@@ 41
140 41
múc 41
lễ_hội 41
hộ_đê 41
tôn_vinh 41
bày_tỏ 41
nhiễm 41
02@@ 41
60% 41
cao_đẳng 41
mải_mê 41
phổ_cập 41
10/@@ 41
trung_học_phổ_thông 41
thí_điểm 41
6,@@ 41
phơi 41
thời_hạn 41
o_@@ 41
hoá_chất 40
niên 40
duy 40
sinh_sản 40
or@@ 40
ngày_ngày 40
mô@@ 40
thần 40
tết_@@ 40
đạm 40
st@@ 40
cất_tiếng 40
lịch 40
40% 40
khiêng 40
bước_đầu 40
nắm_bắt 40
phép 40
virus 40
ướp 40
chức_danh 40
dày 40
rầy 40
muối 40
phù_@@ 40
phòng_tránh 40
quy_phạm_pháp_luật 40
19,@@ 40
điều_động 40
vãn 40
bác_@@ 40
dịch_tả 40
tốt_nghiệp 40
bồi_thường 40
khư 40
10/201@@ 40
ra_mắt 40
4/201@@ 40
giao_dịch 40
XI 40
meo 40
Kho 40
Đi 40
TP 40
Lương 40
uy_@@ 40
Trang 40
UBMTTQ 40
Dung 40
k_L@@ 40
Khoan 40
23 39
đổi_thay 39
khen_thưởng 39
chiến 39
sự_cố 39
mạng 39
es@@ 39
chọn_@@ 39
kịp 39
đít 39
tự_nguyện 39
ninh 39
cơ_quan_chức_năng 39
ona 39
nam@@ 39
nghĩa 39
khăn 39
10.@@ 39
200@@ 39
thiêu 39
song 39
càng_ngày_càng 39
ô_tô 39
ds 39
tối_thiểu 39
tốc_độ 39
toàn_thể 39
lỗ 39
hùng 39
chăm_lo 39
9/9 39
dư_nợ 39
lưu_thông 39
hạt_giống 39
dân_chủ 39
09/@@ 39
tung 39
Ya@@ 39
Vinh 39
Ru@@ 39
Giáo_dục 39
phông 39
moi 39
GDTX 39
XVIII 39
biệt 38
os@@ 38
kì 38
dao_@@ 38
48 38
nguyên_đán 38
vấn 38
hè_thu 38
đón_tiếp 38
bù@@ 38
trực 38
cor@@ 38
me@@ 38
25@@ 38
truyền_thanh 38
đầu_mối 38
phân_hữu_cơ 38
thiệt_hại 38
4.8@@ 38
hơi 38
bế_mạc 38
ji 38
thế_giới 38
bay 38
tri_ân 38
86/201@@ 38
chuyên_gia 38
bếp 38
bộ_máy 38
49 38
ching 38
Nguyên 38
trôi 37
liên_hiệp 37
phòng_ngừa 37
mùi 37
nảy 37
tv 37
kiế@@ 37
nói_riêng 37
phù 37
dinh 37
trọng 37
tin_học 37
dân_trí 37
88 37
thực_hành 37
23@@ 37
1,5 37
quen 37
tạp 37
a_@@ 37
mơ 37
tạm 37
mới_đây 37
ant@@ 37
vôi_bột 37
nhân_khẩu 37
xin 37
tươi 37
định_cư 37
quản_lý_nhà_nước 37
hoi 37
không_khí 37
phi@@ 37
liên_tục 36
neo_đậu 36
75 36
tuyệt_đối 36
võ_@@ 36
hợp_tác_xã 36
cơ_hội 36
doanh@@ 36
tiêu_huỷ 36
vai 36
tre 36
chai 36
dọc 36
hôn 36
sở_thích 36
rô 36
đeo 36
sát_khuẩn 36
súng 36
vững_vàng 36
màn 36
hiện_trạng 36
lâm_tặc 36
gan 36
trung_học 36
hữu 36
hợp_lý 36
lạt 36
1,@@ 36
tuần_tra 36
cô_giáo 36
kéo_dài 36
tin_tưởng 36
dũng 36
ất 36
bang 36
ban_@@ 36
mạnh_dạn 36
van 36
vở 35
bờ 35
hoan 35
sản_@@ 35
gò 35
21.@@ 35
tượng 35
chữa 35
tuân_thủ 35
bao_nhiêu 35
lan 35
j 35
69 35
trái_phép 35
87 35
quay 35
giường 35
bàn_giao 35
hồ_chứa_nước 35
27@@ 35
10% 35
giải_ngân 35
đa_dạng 35
ảng 35
chuyên_nghiệp 35
be@@ 35
trại 35
lu 35
chăm_chỉ 35
sâu_@@ 35
di_dời 35
ech 35
TT 35
WP 35
Lo@@ 35
Anh 35
Đăng_@@ 35
ĐT 35
Phu@@ 35
Bê@@ 35
bar 35
̌ 35
TB@@ 35
nê@@ 35
Ha 35
XII 35
nhung 35
UBND-@@ 35
Cao 35
TC@@ 35
Tâ@@ 35
ang_@@ 35
51 34
ngừng 34
vun 34
thiết 34
thuận_tiện 34
92 34
thế_mà 34
rét 34
bắt_đầu 34
thứ_tự 34
hoàn_toàn 34
đáng 34
sốt_xuất_huyết 34
nổi 34
hình_@@ 34
suy 34
bản_sắc 34
rạch 34
tiếp_theo 34
trị_giá 34
300 34
châu_@@ 34
/2018/@@ 34
đầy 34
1,2 34
trò 34
chính_quy 34
10/2018 34
miệng 34
thói_quen 34
ngày_một 34
17.@@ 34
vắc_xin 34
con_người 34
đức_@@ 34
chắn 34
ngoan 34
coi 34
thực_sự 34
06/@@ 34
nhẹ 34
rằm 34
28/@@ 34
ngâm 34
Phan_@@ 34
Rong 34
Kông_@@ 34
Hô 34
No@@ 34
Kang 34
47@@ 33
khuyến_cáo 33
% 33
30@@ 33
vực 33
phá@@ 33
trung_du 33
biện 33
số_liệu 33
tạo_hình 33
ương_@@ 33
tập_hợp 33
tướng 33
80% 33
tắm 33
ký_kết 33
ánh_sáng 33
sát_trùng 33
chỉnh 33
chua 33
mặt_cắt 33
xá 33
con_con 33
ở@@ 33
nhu 33
kh 33
1/2 33
0,5 33
1.0@@ 33
ỹ 33
động_@@ 33
phụng 33
bừa 33
biểu_dương 33
nổ 33
rua 33
sạch_đẹp 33
rượu 33
26/@@ 33
nứt 33
diêu 33
62 33
website 33
plo@@ 33
UV 33
quet 33
HĐ@@ 33
hộ@@ 32
quỷ 32
máu 32
thơ 32
cáo 32
trường_lớp 32
tur@@ 32
lệ 32
lộ 32
nội_đồng 32
dư_lượng 32
cấm 32
bụng 32
thẳng 32
96 32
thân_nhiệt 32
thoáng 32
cá_chép 32
luận 32
quanh 32
ái 32
xã_hội_hoá 32
ế 32
nhớ 32
19.@@ 32
bè 32
xung 32
chất_thải 32
250 32
hậu_quả 32
treo 32
cưới 32
quan_hệ 32
thỉnh_thoảng 32
phương_châm 32
đất_đai 32
trung_học_cơ_sở 32
ure 32
thư_ký 32
nhà_cửa 32
dựa 32
biên_soạn 32
tong 32
án@@ 31
15@@ 31
neo 31
lẫn 31
ý_chí 31
giơ 31
viện 31
34 31
nói_chung 31
ạ@@ 31
ắc 31
i_t@@ 31
sửa_soạn 31
văn_nghệ 31
viếng 31
ừ 31
ệnh 31
đích 31
co 31
_trường 31
boong 31
lưu_ý 31
cám 31
ịnh 31
nguy_hiểm 31
cơ_quan_chuyên_môn 31
kết_nạp 31
nước_thải 31
tái_sinh 31
chi_nhánh 31
năm_tuổi 31
bán_trú 31
hũ 31
hạn_hán 31
đa_dạng_hoá 31
ải 31
z 31
37@@ 31
sk@@ 31
04@@ 31
ren 31
xa@@ 31
ï@@ 31
thiện 30
tàu_thuyền 30
như_vậy 30
chiếu 30
nhà_văn_hoá 30
tắc 30
mềm 30
bây 30
đồng_@@ 30
wi@@ 30
46 30
trì 30
việ@@ 30
ya 30
38 30
khởi_kiện 30
truy_quét 30
ph 30
đội_viên 30
thẩm 30
nghiệ@@ 30
tương_ứng 30
cứng 30
biế@@ 30
vòi 30
_tr@@ 30
triệt_để 30
hút 30
ghê 30
lát 30
thăm_hỏi 30
dự_t@@ 30
1/@@ 30
đừng 30
test 30
bas@@ 30
đồng_hành 30
5.000 30
khoanh 30
nông_lâm_sản 30
14,@@ 30
mưa_bão 30
21/@@ 30
bất_lợi 30
hưng 30
góc 30
vii 30
.000.000 30
niêm_yết 30
rắc 30
tín_chấp 30
12/201@@ 30
bom 30
sợi 30
DT 30
Đoan_@@ 30
Trinh_@@ 30
Kr@@ 30
mu 30
Xuân 30
Yan 30
Tân_Thanh 30
phao 30
phiêu 30
Q@@ 30
Cu@@ 30
đinh_hương 30
Khu 30
trom 30
Đô 30
Ap@@ 30
chon 30
_Đ@@ 30
chao 30
Châu_Phi 30
Dân 30
ngai_@@ 30
Pl@@ 30
đên 30
Ma@@ 30
KM 30
lĩnh 29
đan_xen 29
bãi_bỏ 29
xét_duyệt 29
hải_đảo 29
công_@@ 29
sợ 29
tinh_bột 29
trang_trại 29
sh 29
trực_tuyến 29
phòng_bệnh 29
ar 29
0% 29
nhân_giống 29
mùn_cưa 29
đan_@@ 29
1.000.000 29
phút 29
thố@@ 29
tấn_công 29
que_@@ 29
thủ_đô 29
tử 29
cảnh_quan 29
phú 29
đặng_@@ 29
ớt 29
tổng_lượng 29
6.9@@ 29
xâm_hại 29
bùn 29
nét 29
phe 29
98% 29
chiếc 29
rơm 29
óc 29
er 29
tính_mạng 29
cấp_tiến 29
18@@ 29
dặn 29
ngon 29
liên_@@ 29
297 29
3,@@ 29
yếu_tố 29
nghiêng 29
lối 29
tem 29
phòng_dịch 29
hát 29
ịch 29
nông_sản 29
bọ 29
12/2015 29
liệu 29
phần_mềm 29
tương_thân 29
6/201@@ 29
99,@@ 29
N 29
Sư@@ 29
Đôi_@@ 29
KT 29
Yo@@ 29
At@@ 29
Tam 29
Tung 29
NPK 29
NV 29
và@@ 28
thiểu_số 28
bẻ 28
tế@@ 28
ộc_thiểu_số 28
nghèo_khó 28
75% 28
ấm 28
kêu_gọi 28
công_văn 28
oi 28
năng_lượng 28
nhân_@@ 28
móc 28
chiều_tối 28
sơ_kết 28
sinh_lý 28
cố 28
tỉ_lệ 28
tưởng 28
xung_quanh 28
dập 28
y_hệt 28
dãy 28
thụ_hưởng 28
nở 28
sinh_thái 28
tờ 28
tuyên_giáo 28
67 28
no_ấm 28
2022 28
3/@@ 28
đư@@ 28
chúc_mừng 28
đông_đảo 28
mặt_trời 28
tuôn 28
trưởng_đoàn 28
cho_phép 28
1.8@@ 28
bệnh_dịch 28
ss 28
by@@ 28
nếp 28
agar 28
cong 28
trụ_sở 28
chiêu 28
LHTN 28
Thi 28
luk 28
I 28
hr@@ 28
eng 28
Tiê@@ 28
Ư@@ 28
ko 27
gro@@ 27
th 27
ồ@@ 27
t_tr@@ 27
quanh_năm 27
hoả 27
sá@@ 27
kiên_cố_hoá 27
ụ 27
chích 27
tối_ngày 27
2.0@@ 27
us@@ 27
cỏ_@@ 27
c_th@@ 27
sĩ 27
kiên_quyết 27
tận 27
cây_@@ 27
nhà_sàn 27
viê@@ 27
trí 27
dự_trữ 27
sáng_kiến 27
chuồng 27
điệ@@ 27
49/201@@ 27
mặt_đất 27
ngăn_ngừa 27
lập_nghiệp 27
lợi_thế 27
tiềm_năng 27
_m@@ 27
vùng_đất 27
nồng_độ 27
tam@@ 27
trung_hạn 27
tảo 27
liên_hệ 27
dưa_hấu 27
cuống 27
khô_hạn 27
tre@@ 27
chủng 27
45@@ 27
lợp 27
ư_@@ 27
võ_sư 27
kul 27
tức 26
mức_độ 26
ảo 26
29.@@ 26
gối 26
rệp 26
ỗ 26
mã 26
ol 26
ga@@ 26
tập_quán 26
thật 26
mưu 26
sắp 26
mẫu_giáo 26
viễ@@ 26
vô 26
khuyến_học 26
võ_đường 26
kết_luận 26
1.3@@ 26
quyết_liệt 26
81 26
mũi 26
đỉnh 26
giảm_thiểu 26
bột 26
quét 26
ku 26
bưu_điện 26
61 26
to_lớn 26
trăng 26
lập_thân 26
phong_phú 26
cộng_@@ 26
thực_tiễn 26
leo 26
lâm_@@ 26
xói_lở 26
phân_chia 26
chuồng_trại 26
gãy 26
dự_thảo 26
tương_đương 26
thô 26
ông_@@ 26
XH 26
nhà_đầu_tư 25
loại_bỏ 25
quan_điểm 25
xám 25
tội 25
thẻ@@ 25
ú 25
ảnh 25
trống 25
đồ 25
thôn_@@ 25
vẻ 25
n_đ@@ 25
97 25
di_sản 25
ãi 25
khiến 25
trả_lời 25
bọn 25
ữ 25
hình_ảnh 25
ac@@ 25
thâ@@ 25
cách_thức 25
ate 25
27.@@ 25
lủi 25
liên_đoàn 25
ngã 25
tình_nguyện 25
thuế 25
đuối 25
ma_tuý 25
11/2017 25
đứa 25
nương_rẫy 25
vô_cùng 25
nứa 25
ep 25
2,3 25
42,@@ 25
nung 25
phần_lớn 25
blo@@ 25
134 25
,@@ 25
2/9 25
17/@@ 25
nghệ_nhân 25
tương_đối 25
12/2014 25
cư_trú 25
cong_@@ 25
3.0@@ 25
tơi 25
héo 25
bản_lĩnh 25
7/2010 25
59,@@ 25
phim 25
2.500 25
chuy@@ 25
16.@@ 25
loh 25
Công 25
Khoang 25
Le@@ 25
Mâm 25
CT-@@ 25
PCTT 25
Nga 25
bach 25
Tiên_@@ 25
Bia 25
Nghiên 25
Pho@@ 25
Liên 25
rây 25
CL 25
LS 25
Huyên 25
ong_@@ 25
Phu 25
Huy 25
Phun 25
M2 25
Sa_@@ 25
ưu_@@ 25
gam 25
ĐBQH 25
Cha@@ 25
Canh_@@ 25
ê_@@ 25
Đo@@ 25
Lâm 25
Chuyên_viên 25
khinh 25
QH 25
Gr@@ 25
C@@ 25
TNHH 25
H 25
Vân 25
Website 25
cao_cấp 24
dư@@ 24
đắp 24
hiệ@@ 24
ừ@@ 24
tiếp_lời 24
nhường 24
tổ@@ 24
lãi 24
_thị 24
dầu 24
thao@@ 24
gieo_trồng 24
khai_giảng 24
sốt 24
nhúng 24
gần_gũi 24
mắm 24
giòn 24
lý_do 24
khẩu 24
văn_học 24
phổ 24
gia_@@ 24
con_giống 24
út 24
huỷ 24
cảm 24
hội_họp 24
kiếm 24
nh_trùng 24
khoai_mì 24
1.9@@ 24
tiết 24
on@@ 24
khối_lượng 24
giả 24
clorua 24
350 24
nải 24
đứt 24
chú@@ 24
thổ_nhưỡng 24
phù@@ 24
34@@ 24
sạt_lở 24
cập 24
tiểu_thủ_công_nghiệp 24
đảm_nhận 24
tình_thương 24
50@@ 24
hấp 24
tý 24
hiểu_biết 24
đốm 24
pháp_lý 24
3/200@@ 24
76 24
lạc_hậu 24
cứu_trợ 24
quân_đội 24
800 24
bí_đỏ 24
kịch_bản 24
văn_kiện 24
pla@@ 24
xốp 24
dân_quân 24
3% 24
tưng 24
QL@@ 24
Sở 24
name 24
TT-@@ 24
IV 24
KHCN 24
Tam_Quan 24
LH@@ 24
nhân_tạo 23
đọng 23
cựu 23
khử_trùng 23
già_làng 23
khai_báo 23
sp 23
viet@@ 23
do_đó 23
chặn 23
khởi_sắc 23
toạ_đàm 23
sâu_sắc 23
không_những 23
mép 23
đối_ngoại 23
khí 23
thể_dục 23
rừng_già 23
phú@@ 23
thẩm_tra 23
tình_dục 23
49@@ 23
cự 23
thích_ứng 23
huấn_luyện 23
tồn_tại 23
ed 23
rải 23
kín 23
liều 23
ọc 23
_thống 23
đồng_ý 23
quyết_toán 23
cao_điểm 23
ngăn 23
chéo 23
2,5 23
dòng_chảy 23
nhắc_nhở 23
su 23
đảng_@@ 23
vào_cuộc 23
phiên 23
bù 23
dễ_dàng 23
.@@ 23
phân_bố 23
trục 23
en@@ 23
tam_quan 23
32 23
n_thị 23
một_mình 23
sin 23
dân_sự 23
mặt_khác 23
nước_ngọt 23
phái 23
vụt 23
xuống_cấp 23
giếng 23
khô_ráo 23
tạp_chất 23
pro@@ 23
khôn 23
66 23
68@@ 23
ao@@ 23
27/7 23
Pr@@ 23
Lo 23
gio@@ 23
ä@@ 23
nhà_máy 22
trạng 22
chứng 22
rách 22
quả@@ 22
mãi 22
trận 22
mè 22
xúc_tiến 22
n_thủ 22
ẩu 22
cày_@@ 22
kén 22
giao_thương 22
dị@@ 22
_d@@ 22
trốn 22
bởi 22
hồi 22
danh_@@ 22
đỗ 22
dấu 22
nhiễm_bệnh 22
bin 22
chậm 22
chứ 22
tranh_thủ 22
tần 22
hội_đoàn 22
ngoại_@@ 22
con_dấu 22
ns 22
rảnh_rỗi 22
quốc_dân 22
chấm_dứt 22
mốc 22
đạ@@ 22
bóng 22
cứu_hộ 22
2008 22
khuẩn 22
lan_toả 22
khang_trang 22
dệt 22
lắp_đặt 22
cù 22
sai 22
nhật 22
điều_phối 22
ây 22
ngà 22
dọn_dẹp 22
cây_cối 22
ing@@ 22
đền_ơn_đáp_nghĩa 22
phúc 22
30cm 22
đậu_@@ 22
rừng_đặc_dụng 22
cao_su 22
tự_giác 22
ức 22
đối_thoại 22
33 22
lược 22
cảnh_sát 22
đực 22
xinh_đẹp 22
er@@ 22
trùng 22
inh_@@ 22
hiến 22
ân_cần 22
nhiệt_độ 22
đẩy_lùi 22
thiếu_thốn 22
mong_muốn 22
săn_bắn 22
làm_ăn 22
đồng_loạt 22
aw@@ 22
rủi_ro 22
tu_bổ 22
hủ_tục 22
tạ 22
htt@@ 22
họp_báo 22
dốc 22
per@@ 22
chính_xác 22
6/200@@ 22
hiện_tượng 22
106 22
điều_trị 22
văn_thư 22
xâm 22
bề_mặt 22
tâm_lý 22
phân_khu 22
ming 22
akh@@ 22
ol@@ 21
số@@ 21
vào_khoảng 21
trọ@@ 21
chứng_bệnh 21
_thể 21
công_đoàn 21
trung_@@ 21
khuyến 21
thấ@@ 21
vụ@@ 21
chòi 21
sàng 21
hợp_pháp 21
f 21
chí@@ 21
thân_thiện 21
bao_bì 21
kể_cả 21
sự@@ 21
n_đoàn 21
cảnh_báo 21
tệ@@ 21
ụ@@ 21
xinh 21
thi_đấu 21
khả 21
chấm 21
ngoại_khoá 21
381 21
phươ@@ 21
súc 21
thanh_@@ 21
ci@@ 21
mật 21
22@@ 21
ter@@ 21
hoài 21
đầu_ra 21
trình_bày 21
230 21
tìm_hiểu 21
axit 21
30,@@ 21
nhăn 21
ấp 21
cúng 21
kế_hoạch_hoá 21
tả 21
nghiền 21
tiện 21
cúm 21
rea 21
ngọc 21
chào_mừng 21
thu_thập 21
mực 21
n_lâm 21
7.@@ 21
2005 21
22.@@ 21
tưới_tiêu 21
thế_hệ 21
kêu 21
bệnh_nhân 21
nhất_trí 21
kiên_cố 21
toà_án 21
ơm_@@ 21
đền_bù 21
chùa 21
rai 21
go 21
p_@@ 21
oe@@ 21
xăng 21
ni 20
49% 20
trì@@ 20
khích 20
mạc 20
dưỡng 20
lệnh 20
92% 20
lọ 20
thúc 20
độc_hại 20
rìu 20
lông 20
5.5 20
by 20
nhốt 20
cạnh_tranh 20
có_lẽ 20
rộng_rãi 20
tín 20
112 20
giỏ 20
33% 20
đồi 20
nội_quy 20
ang@@ 20
miễn_giảm 20
bệnh_viện 20
vác 20
oxi 20
ỵ@@ 20
97% 20
86 20
305 20
khóc 20
chổi 20
thiu 20
nước_lã 20
nhăn_nheo 20
nghiệm_thu 20
thương_phẩm 20
326 20
ích 20
ngói 20
ăn_@@ 20
điều_tra_viên 20
lị@@ 20
đê_@@ 20
_r@@ 20
đại_@@ 20
bê_tông_hoá 20
có_vẻ 20
tráng 20
23/@@ 20
iết_@@ 20
hoà_@@ 20
kit 20
gắn_kết 20
tường 20
1.5@@ 20
02% 20
bằng_phẳng 20
dự@@ 20
36@@ 20
et@@ 20
ngập_úng 20
nhắc 20
khép 20
23,@@ 20
154 20
aco 20
202 20
and 20
hành_@@ 20
thiết_chế 20
cọc 20
um@@ 20
vài 20
kính 20
đáy 20
2.4@@ 20
108 20
dấu_hiệu 20
az@@ 20
kiểm_dịch 20
lực_lượng_vũ_trang 20
gh@@ 20
thang 20
220 20
quý_vị 20
duy_tu 20
3m 20
26,@@ 20
bừa_bãi 20
27/@@ 20
94% 20
cul@@ 20
adan 20
sạch_sẽ 20
138 20
180 20
cắm 20
thông_thường 20
1/201@@ 20
tự_chủ 20
/2017/@@ 20
ptera 20
54 20
6/6 20
540 20
logistics 20
5,2% 20
vật_liệu 20
41% 20
tỷ_trọng 20
âm_mưu 20
6/2009 20
mỏng 20
191 20
nhì 20
405 20
đảm_nhiệm 20
7/2018 20
04.@@ 20
47% 20
âng 20
2002 20
tron 20
10/2013 20
ed-@@ 20
CS@@ 20
Bơ 20
Đông_Xuân 20
26/7 20
Viên 20
Thơ@@ 20
Đơn 20
K 20
Tuyên 20
lanh 20
Tuân 20
M 20
Ra 20
Ra@@ 20
TT-BXD 20
VN 20
k_M@@ 20
chinh_@@ 20
Ö@@ 20
l_S@@ 20
Tă@@ 20
GDNN 20
Năng 20
Trinh 20
Giai 20
dy@@ 20
Hung 20
lik 20
W 20
TT-BGDĐT 20
HTX 20
mau 20
Bi@@ 20
Bô@@ 20
Thông_tin 20
Mai_@@ 20
Đào_tạo 20
In 20
Car@@ 20
CT 20
GDĐT 20
C 20
5/NĐ-CP 20
û@@ 20
Chi_@@ 20
Ti@@ 20
The@@ 20
’ 20
Mi_@@ 20
Đê_@@ 20
Gi 20
Tha@@ 20
A_@@ 20
Su@@ 20
Nông_dân 20
BYT-@@ 20
Lê_Công_@@ 20
milim@@ 20
Lang 20
wi 20
Phương 20
Al@@ 20
Ple@@ 20
Nhi 20
XIV 20
Thư@@ 20
494 19
của_cải 19
vui_tươi 19
tuyển_quân 19
ức_@@ 19
_trợ 19
sum 19
chính_đáng 19
cống_hiến 19
26.7 19
quyên_góp 19
ngũ 19
cấu 19
15.6 19
ường 19
58@@ 19
xuống_giống 19
hình_thái 19
nướ@@ 19
mùa_vụ 19
dự_báo 19
kỷ 19
thảo 19
kháng_chiến 19
im@@ 19
sắt 19
phân_lân 19
thế_nào 19
192 19
87% 19
56 19
ị@@ 19
96% 19
nhanh_chóng 19
10.000 19
bàn_tay 19
huấn 19
phòng_hộ 19
nại 19
vịnh 19
plasma 19
đà@@ 19
mù_chữ 19
luậ@@ 19
si@@ 19
ọ@@ 19
sào 19
200.000 19
uri@@ 19
cổng 19
ngán 19
cặp 19
lân_cận 19
tiếng_nói 19
2.9 19
cam@@ 19
nhãn 19
bệnh_binh 19
cát_@@ 19
thành_tựu 19
24.@@ 19
4,5 19
ge 19
ca_hát 19
13,@@ 19
tuyế@@ 19
lứa 19
thu_nhặt 19
nhặt 19
tháo_dỡ 19
39,@@ 19
kháng 19
nhơ 19
tiên_phong 19
04/@@ 19
bộ_phận 19
243 19
can 19
rơi 19
63 19
nhất_định 19
6/2012 19
40.000 19
ye@@ 19
nông_hộ 19
hiện_đại 19
8,2% 19
kết_cấu 19
118 19
per 19
333 19
log@@ 19
thuần 19
công_cuộc 19
nh.@@ 19
phân_tích 19
tân 19
hy_sinh 19
14,5% 19
xương 19
2.4 19
2/@@ 19
silic 19
cư@@ 19
Ara@@ 19
An_ninh 19
BC@@ 19
wing 19
TH@@ 19
PT@@ 19
lit 19
di_t@@ 19
Tinh_@@ 19
nho@@ 19
Pham 19
ato@@ 19
Quy@@ 19
ĐT@@ 19
Br@@ 19
O 19
Chinh_@@ 19
Kiêm 19
NN@@ 19
T-@@ 19
uch 19
phá_hoại 18
trật 18
sơ_chế 18
bà@@ 18
khả@@ 18
ị 18
trườ@@ 18
từ_từ 18
khuyến_@@ 18
vườn_ươm 18
156 18
lãi_suất 18
trấu 18
xăng_dầu 18
mol@@ 18
rau_màu 18
tái_tạo 18
đồng_tiền_mặt 18
sim 18
binh_khí 18
i.@@ 18
minh_bạch 18
trẻ_con 18
trụ 18
bình_@@ 18
yên 18
bước_đi 18
nơ 18
tuần_lễ 18
dâu 18
xây_dựng_@@ 18
vừa_qua 18
đơ 18
toà@@ 18
tủ 18
xe_máy 18
ti_vi 18
_th@@ 18
sp@@ 18
cộng_tác_viên 18
luân_@@ 18
71 18
phát_@@ 18
đèn 18
_c@@ 18
chu_kỳ 18
è@@ 18
4,@@ 18
nội_lực 18
không_thể 18
ve 18
sẵn 18
sinh_sống 18
ra_đời 18
41,@@ 18
27% 18
nê 18
ze@@ 18
châu 18
do_vậy 18
gật 18
40@@ 18
bệnh_tật 18
ngôn 18
liên_lạc 18
trái_phiếu 18
trò_chuyện 18
2.5@@ 18
nghiêm_trọng 18
hợp_@@ 18
thanh_thiếu_niên 18
chọn_lọc 18
du_@@ 18
hình_sự 18
hoàn_chỉnh 18
sinh_đẻ 18
một_cách 18
trưng_bày 18
12,9 18
/2014/@@ 18
1930 18
tân_binh 18
53% 18
UB 18
mai@@ 18
ala 18
trơ@@ 18
nham 18
Ar@@ 18
Vu 18
nal 18
TAND 18
Chinh 18
ngày_tháng 17
bút 17
hoá@@ 17
ổn 17
ào 17
mỹ@@ 17
chờ 17
trợ_giá 17
phẩm_chất 17
sao@@ 17
đồng_vốn 17
liếc 17
túc 17
con_@@ 17
iết 17
đồ_dùng 17
que 17
đánh_phá 17
vôi 17
thế_là 17
lộc 17
hàng_rào 17
bình_thường 17
đợi 17
khẩu_trang 17
nổi_bật 17
_s@@ 17
sau_này 17
tốt_đẹp 17
cụ_thể_hoá 17
úc_@@ 17
44 17
tự_lực 17
ben@@ 17
khuya 17
uỷ_quyền 17
đất_@@ 17
chọc 17
bảo_an 17
ồng 17
tủ_sách 17
bản_làng 17
gu@@ 17
ờ 17
11/2018 17
triệ@@ 17
nhộn_nhịp 17
xuất_xứ 17
đường_kính 17
nhập_@@ 17
im_lặng 17
chiề@@ 17
chuyến 17
có@@ 17
14.@@ 17
ngày_@@ 17
é@@ 17
món 17
rồng 17
dưa 17
it@@ 17
7,@@ 17
thứ_bảy 17
gấp 17
bảo_hộ 17
08@@ 17
nông_lâm_nghiệp 17
lít 17
chanh 17
tố 17
lâu_dài 17
đường_bộ 17
lòng_sông 17
thanh_thiếu_nhi 17
đường_mòn 17
nút 17
pra@@ 17
ăm@@ 17
288 17
4/2014 17
4/2015 17
khởi_nghiệp 17
thái_độ 17
trụi 17
châm 17
dt 17
ấm_áp 17
tháo 17
2024 17
đụ@@ 17
c_thân 17
nhỏ_lẻ 17
sh@@ 17
tập_kết 17
2,9 17
273 17
bat 17
đậm 17
ay 17
nitrat 17
khoáng_sản 17
tâm_tư 17
logistic 17
ex@@ 17
huấn_luyện_viên 17
sư_phạm 17
mê 17
thức_@@ 17
ăn_th@@ 17
nội_bộ 17
khiếu_nại 17
công_an_viên 17
khanh 17
Yêu 17
chro@@ 17
Căn 17
CTĐ 17
ĩ 16
thẻ 16
nhà_đất 16
179 16
chuột 16
ặc 16
thắng_cảnh 16
hạ@@ 16
cờ 16
mùn 16
lây 16
n.@@ 16
nửa 16
bố_dượng 16
mạ@@ 16
giáo_@@ 16
phẳng 16
bec@@ 16
nạn_nhân 16
650 16
lắp 16
vitamin 16
thí 16
thử_nghiệm 16
chả 16
chém 16
bản_địa 16
chép 16
kĩ 16
đầm 16
luật_@@ 16
cố_gắng 16
kiểu 16
66@@ 16
hoá_học 16
tôm_thẻ 16
ẩn 16
ẹ 16
ữa 16
nông_@@ 16
ous 16
đọc 16
bùi_@@ 16
côi 16
đố 16
bụi 16
giàu_có 16
25.@@ 16
mạng_lưới 16
nhỉ 16
khoai 16
í 16
up 16
95@@ 16
bề 16
xới 16
đòi_hỏi 16
23.@@ 16
phò@@ 16
thu_ngân 16
car@@ 16
44,@@ 16
phục_hồi 16
0.@@ 16
aland 16
kha 16
hả@@ 16
ale 16
cy@@ 16
nhện 16
bao_giờ 16
nhở@@ 16
30.@@ 16
8/2015 16
thải 16
rơm_rạ 16
thế_thì 16
31.@@ 16
ầm 16
lay 16
46@@ 16
thung 16
9,5 16
aj@@ 16
0,2 16
122 16
trở_nên 16
20.@@ 16
dính 16
nia 16
rơ 16
kết_cấu_hạ_tầng 16
u_@@ 16
vơ 16
phóng_sự 16
15,@@ 16
trưng 16
163 16
dep 16
toa 16
bắc_@@ 15
chôn 15
ặ@@ 15
để@@ 15
trong@@ 15
bất 15
90@@ 15
mặn 15
quyền_lợi 15
mít 15
42 15
bồi 15
cắn 15
thá@@ 15
tổ_@@ 15
khí@@ 15
viện_kiểm_sát 15
gà_@@ 15
chim_@@ 15
chụp 15
mã_số 15
mười_hai 15
năm_tháng 15
2040 15
chuẩ@@ 15
loãng 15
33@@ 15
ùng 15
bả@@ 15
trường_@@ 15
dư_luận 15
xác_thực 15
thơm 15
mầu 15
tốc 15
thiếu_niên 15
lăng_quăng 15
cái_@@ 15
đông_lạnh 15
đệm 15
nguy 15
un@@ 15
của@@ 15
pper 15
hiện_tại 15
đa_số 15
phản 15
2.000 15
sun 15
kí 15
cá@@ 15
uốn_ván 15
cấp_điện 15
ngạch 15
học_bổng 15
ưu_tú 15
xung_kích 15
ứng_cứu 15
ch_t@@ 15
468 15
biến_động 15
buồng 15
lượ@@ 15
uống_nước_nhớ_nguồn 15
27.7 15
mổ 15
giá_cả 15
thổi 15
vv 15
dữ 15
đơn_giản 15
câu_chuyện 15
xử@@ 15
2,@@ 15
hết_sức 15
sơ_cấp 15
tốt_bụng 15
thách_thức 15
thành_thị 15
5.4@@ 15
69,@@ 15
không_gian 15
tròn 15
1,0 15
quốc_khánh 15
buôn_làng 15
ll@@ 15
anh_em 15
ngửi 15
đặ@@ 15
trúc 15
hoang_dại 15
hốc 15
kệ 15
121 15
kề 15
05@@ 15
thành_quả 15
hương_ước 15
công_suất 15
9,@@ 15
/2016/@@ 15
hn@@ 15
kèn 15
lưỡi 15
159 15
khách_hàng 15
trắng_@@ 15
thông_điệp 15
25.000 15
quảng_trường 15
310 15
10/2016 15
lãng_phí 15
sôi 15
hòn 15
384 15
32@@ 15
ẫy 15
ngắn_hạn 15
bất_thường 15
lũ_lụt 15
lác 15
cườm 15
xo@@ 15
136 15
/2013/@@ 15
ạm 15
03/201@@ 15
lành 15
hiền 15
ngắm 15
giải_thể 15
0,3 15
cac@@ 15
đạn 15
tách 15
30.000 15
155 15
/2012/@@ 15
240 15
dám 15
bạt 15
ali@@ 15
tương_ái 15
dầy 15
sy@@ 15
3/2018 15
36,@@ 15
bắt_buộc 15
tận_dụng 15
0,1 15
1.10 15
tố_cáo 15
hành_trình 15
chuyên_dùng 15
xay 15
cũ 15
12/2011 15
10/2015 15
7,7 15
giải_trí 15
vất_vả 15
5,8 15
truy_xuất 15
tin_cậy 15
trấn_áp 15
cống_rãnh 15
mủ 15
01/2016 15
Uy_@@ 15
ich 15
Tho 15
Ju@@ 15
Trung_@@ 15
GAP 15
Ga@@ 15
rinh 15
QP-@@ 15
BTC 15
II 15
La@@ 15
Hoang 15
Am@@ 15
TDTT 15
Copp@@ 15
er-@@ 15
BC-@@ 15
e_@@ 15
å 15
Nguy@@ 15
Yang 15
hat 15
ngoi 15
Nai 15
tol 15
dre@@ 15
Phi 15
Chanh_@@ 15
Gho@@ 15
ăm-@@ 15
0/NĐ-CP 15
III 15
29/8 15
lương_@@ 15
T 15
Cham 15
Yang_@@ 15
Go_@@ 15
ï 15
TY 15
Giám_đốc 15
tơ-@@ 15
Đô@@ 15
nhao 15
_S@@ 15
Lư@@ 15
CB 15
Tu 15
Hoang_@@ 15
SP 15
Cơ 15
Tri@@ 15
Hoan_@@ 15
hu 15
lơi 15
kheo 15
hong 15
Quân_@@ 15
Lai 15
Đinh_Văn_@@ 15
Let 15
BGDĐT-@@ 15
Không 15
Tân 15
Cưu 15
CP 15
Công_ty 15
Tiên 15
hui 15
PN@@ 15
Hươ@@ 15
C-@@ 15
M9 15
Bre@@ 15
A1 15
8/NĐ-CP 15
Long_@@ 15
GD 15
Đak@@ 15
TT-BTC 15
å@@ 15
bá 14
nhiên 14
thuốc_trừ_sâu 14
ì@@ 14
chức_@@ 14
thuốc_t@@ 14
lò_mổ 14
xúc 14
mịn 14
mạch 14
480 14
lúa_nước 14
văn_bằng 14
ngày_nay 14
đả@@ 14
thể@@ 14
lý_luận 14
bì 14
hiện_vật 14
triệu_chứng 14
phong_tục 14
tôn_trọng 14
iu 14
nách 14
khích_lệ 14
giao_nhận 14
2001 14
nhắn 14
thân_yêu 14
phúc_@@ 14
nghĩa_trang 14
bọ_gậy 14
rượu_cần 14
nghiệp_@@ 14
điều_@@ 14
ngược 14
hì@@ 14
theo@@ 14
96@@ 14
đối_kháng 14
lần_lượt 14
lươn 14
trọng_lượng 14
67@@ 14
vỡ 14
143 14
củ@@ 14
thử 14
âu_t@@ 14
tầm_vóc 14
phóng 14
109 14
cm@@ 14
đồng_ruộng 14
luyện 14
biể@@ 14
đền 14
198@@ 14
ề_@@ 14
ck 14
chứ@@ 14
tác_dụng 14
ga 14
bản_quyền 14
uố@@ 14
học_hỏi 14
ộng 14
150.000 14
hạng_mục 14
ề@@ 14
tính_toán 14
cản_trở 14
trũng 14
nhãn_hiệu 14
gặp_mặt 14
hoạt_chất 14
bầu_@@ 14
tổng_sản_phẩm 14
công_cụ 14
trướ@@ 14
con_cháu 14
xứng_đáng 14
chiến_dịch 14
nòng_cốt 14
quê 14
trèo 14
minh@@ 14
mến 14
300@@ 14
nhấ@@ 14
vắng 14
đất_cát 14
id@@ 14
ì 14
xu_thế 14
hoạt_@@ 14
131 14
800@@ 14
rúc 14
gạch 14
khử 14
1.2@@ 14
bữa 14
39@@ 14
đái 14
đu 14
khó_lòng 14
dạy_học 14
nhảy_múa 14
múa 14
mượn 14
3/2014 14
nhận_định 14
mê_tín 14
vụng 14
kẻ 14
địa_chủ 14
dịch_tễ 14
chẩn_đoán 14
35.000 14
bảng 14
giây 14
ngó 14
lên_đường 14
nhân_tố 14
hỗn_hợp 14
giúp_việc 14
nề_nếp 14
chạm 14
3/2017 14
19h30 14
chậ@@ 14
giáp_ranh 14
rõ_ràng 14
yên_tâm 14
tiếp_thu 14
_hình 14
trở@@ 14
ruốc 14
biên_chế 14
lét 14
đan_lát 14
tiểu_khu 14
kế_toán 14
khôi_phục 14
vải 14
vui_chơi 14
vách 14
467 14
6.600 14
điều_ước 14
hiện_đại_hoá 14
1.4@@ 14
55% 14
đọt 14
thế_trận 14
lành_mạnh 14
xâm_nhập 14
9/2016 14
lộ_trình 14
kho_tàng 14
vâng 14
đồng_tình 14
thuyền_viên 14
bài_trừ 14
5,5 14
anh_@@ 14
chông 14
F1 14
CN 14
Tô@@ 14
Đ 14
Canh 14
HĐH 14
GD@@ 14
The 14
Hu 14
Phan_Thanh_@@ 14
24/12 14
HD@@ 14
Trương_Văn_@@ 14
Liên_@@ 14
k_S@@ 14
San 14
jal 14
CSGT 14
MTV 14
Ăn 14
oi@@ 14
ping 14
ệ 13
chỉnh_đốn 13
wer 13
kích 13
rợp 13
hà@@ 13
ương@@ 13
de 13
a_t@@ 13
ủa 13
đặc_trưng 13
bri@@ 13
dặm 13
619 13
đoà@@ 13
ngi@@ 13
tiề@@ 13
mỏ 13
ngườ@@ 13
is 13
có_mặt 13
2012 13
nheo 13
tự_tử 13
bật 13
ba_ba 13
bền 13
ách 13
phụ_phẩm 13
vẽ 13
dương_lịch 13
dứt_điểm 13
ral 13
học_đường 13
hưởng_thụ 13
xoáy 13
đa_chiều 13
chịu_khó 13
liệ@@ 13
ướ@@ 13
niệm 13
liều_lượng 13
quy_@@ 13
lấn_chiếm 13
ợ 13
kết_duyên 13
đặt_hàng 13
di_chuyển 13
ngập_lụt 13
o_th@@ 13
uyển 13
mây 13
77@@ 13
thiết_lập 13
đề_tài 13
cồng 13
bất_cứ 13
lon 13
rậm 13
i_trường 13
20cm 13
hoàn_tất 13
cơ_sở_dữ_liệu 13
đột_biến 13
đôn 13
bá@@ 13
xu 13
hỏng 13
ghen_t@@ 13
chấp 13
1975 13
chiều_hướng 13
ủ@@ 13
ju 13
ráo 13
tận_tuỵ 13
ngày_công 13
đột_phá 13
điện_lực 13
ỏ@@ 13
đại_chúng 13
đính 13
w_@@ 13
công_vụ 13
chủ_nhiệm 13
trợ_giúp 13
đề_kháng 13
nhiệt_đới 13
gẫy 13
khám_chữa 13
ườm 13
võ_sinh 13
chìm 13
tàng 13
bảo_tàng 13
đề_cương 13
khẩn_trương 13
thích_nghi 13
khoe 13
2,6 13
bốn_mươi 13
tự_do 13
cơ_quan_hành_chính 13
chế_phẩm 13
khuôn_mặt 13
ấn_phẩm 13
ươi_@@ 13
gio 13
vũ_khí 13
lai_tạo 13
giải_trình 13
sôi_nổi 13
thi_t@@ 13
công_ước 13
khúc 13
73 13
580 13
sau_đại_học 13
thổ_cẩm 13
thì@@ 13
tôn_giáo 13
ngại 13
thất_truyền 13
xen_lẫn 13
bổ_nhiệm 13
bọ@@ 13
8.4 13
cây_bụi 13
kiêu 13
chau 13
uk 13
Hy 13
Liêm 13
Ti 13
ND 13
V. 13
Jo@@ 13
ul_@@ 13
trọng_@@ 12
bao_lâu 12
soi 12
rưỡi 12
ắm 12
la_hét 12
kiệ@@ 12
đô_la 12
to_@@ 12
thương_tích 12
bí_mật 12
trâu_bò 12
tiền_mặt 12
48@@ 12
lưới 12
cản 12
xà_phòng 12
ạn 12
lưu_@@ 12
bong 12
ngữ 12
cá_rô 12
ỵ 12
tuyệt 12
thực_thi 12
thượng 12
giáo_dục_phổ_thông 12
õ 12
xã_@@ 12
virut 12
quảng_@@ 12
àn 12
rìa 12
phủ_@@ 12
cuồng 12
1.6@@ 12
av@@ 12
tạ@@ 12
thận 12
liệt 12
pi 12
khổng_lồ 12
tuyên_truyền_viên 12
bình_xét 12
công_nghiệp_hoá 12
thự@@ 12
nghiệm 12
video 12
hiểm 12
à@@ 12
dung_tích 12
us 12
suy_yếu 12
phạ@@ 12
dự_phòng 12
gánh 12
bập_@@ 12
tối_qua 12
thắng 12
nam_nữ 12
nghèo_đói 12
muồng 12
mò 12
say 12
môn_sinh 12
cty 12
ã 12
lập_@@ 12
nhật_@@ 12
biên_bản 12
sọt 12
1,3 12
ửa 12
úng 12
thụ 12
chữa_cháy 12
lau 12
thấm 12
thuở 12
be 12
tố_giác 12
oa 12
nuôi_dưỡng 12
đường_trục 12
đẳng 12
43 12
ầm_ầm 12
tồn_dư 12
ry 12
8,@@ 12
côn_trùng 12
ọp 12
09@@ 12
thóc_@@ 12
quy_ước 12
hẹp 12
khuyết_tật 12
suy_nghĩ 12
sáng_rực 12
105 12
bỏ_phiếu 12
lúc_nào 12
tiềm_ẩn 12
xy 12
kích_thích 12
tháo_gỡ 12
trang_web 12
hàng_hải 12
khá_giả 12
ps 12
cúm_@@ 12
xây_dựng_cơ_bản 12
133 12
nhĩ 12
78 12
buồn 12
mông 12
_mài 12
nóng 12
đất_sét 12
trúng 12
hào 12
mặt_trăng 12
mũ_bảo_hiểm 12
ok@@ 12
3/201@@ 12
hoà_tan 12
chi_trả 12
bạn_bè 12
ăng@@ 12
mer@@ 12
kiểm_điểm 12
khúc_@@ 12
tham_nhũng 12
237 12
26.@@ 12
nhận_diện 12
dom@@ 12
thở 12
chu_đáo 12
2007 12
198 12
trở_ngại 12
48,@@ 12
khống_chế 12
câ@@ 12
HD 12
bố_con 11
ak_@@ 11
lõi 11
thuyền 11
bát 11
quát 11
khá@@ 11
tả@@ 11
protein 11
xuất_@@ 11
trí_tuệ 11
nếu_như 11
trà 11
đòng 11
rừng_@@ 11
làm_gì 11
bất_kỳ 11
dao_bầu 11
râu 11
máng 11
quin@@ 11
cke 11
nộ@@ 11
hình_như 11
nhiêu 11
giấu 11
my 11
hổ 11
ệ@@ 11
trê@@ 11
ng_thống 11
thẳm 11
thu_th@@ 11
ig@@ 11
mộ 11
quýt 11
dân_@@ 11
trai_trẻ 11
cơ_s@@ 11
sóng 11
báo_cáo_viên 11
vũng 11
oc@@ 11
mồ 11
sẻ 11
ình 11
119 11
qui_định 11
anh_dũng 11
thao_tác 11
thiệt 11
nhà_khoa_học 11
phy@@ 11
tan@@ 11
ng_tr@@ 11
đáo 11
xén 11
trội 11
4/2018 11
rào 11
362 11
tàn 11
bắn 11
nhân_văn 11
má@@ 11
nhạc 11
98@@ 11
loan 11
ch_thú 11
dự_bị 11
lau_chùi 11
3.5@@ 11
logo 11
tờ_rơi 11
cải_tiến 11
miếu 11
biểu_hiện 11
trung_học_@@ 11
5/2013 11
làng_xóm 11
bão_lụt 11
lở 11
tiêu_cực 11
lim 11
2,2 11
trộm_cắp 11
trộm 11
7. 11
benz@@ 11
sen 11
ra_sức 11
vét 11
vă@@ 11
chủ@@ 11
đi_ngoài 11
rỗi 11
khảo_nghiệm 11
nanh 11
đồi_núi 11
5.0@@ 11
ân_@@ 11
ván 11
pol@@ 11
khoảnh 11
ăng_@@ 11
poly@@ 11
aria 11
hạng 11
ồ 11
nhất_@@ 11
hót 11
550 11
biếu 11
quí_@@ 11
ại 11
tháp 11
lụt 11
360 11
39 11
1,9 11
pido@@ 11
max 11
op@@ 11
nhân_sự 11
20.000 11
ik 11
780 11
cống 11
115 11
604 11
60.@@ 11
uốn 11
ẹn 11
col 11
thỏ 11
/2015 11
mui 11
công_đoạn 11
thùng 11
bẹ 11
12.000 11
thủ_đoạn 11
đa_dạng_sinh_học 11
tua 11
nghỉ_ngơi 11
meth@@ 11
chiêng 11
gai 11
nh_tinh 11
ươi 11
600.000 11
ưa@@ 11
lorua 11
kal@@ 11
y_@@ 11
158 11
453 11
98,@@ 11
thuy@@ 11
UBKTT@@ 11
ách@@ 10
quảng 10
gã 10
bùng_phát 10
cơn 10
khát 10
ỏ 10
trở_tay 10
ẳng 10
kiệm 10
31% 10
giá@@ 10
xoài 10
iến 10
1.7@@ 10
hệ_số 10
lb 10
tai_nạn 10
đơn_giản_hoá 10
photo 10
người_yêu 10
thực_lực 10
ính 10
tay@@ 10
tháng_một 10
_chức 10
ví 10
500.000 10
bức_xúc 10
đà 10
hội_thảo 10
ch_@@ 10
chuyể@@ 10
ani@@ 10
1963 10
qui_mô 10
trữ 10
lưu_trữ 10
kế_thừa 10
ẩy 10
ạnh_@@ 10
vố@@ 10
con_cái 10
dể 10
hầu 10
xuôi 10
tạo_dựng 10
học_kỳ 10
late 10
gram 10
độ_@@ 10
76% 10
tụ@@ 10
đượ@@ 10
ám 10
170 10
44% 10
63% 10
thuỷ@@ 10
hãm 10
262 10
lật 10
cần_cù 10
truyền_đạt 10
trực_quan 10
1km 10
gen@@ 10
chống_chọi 10
thiên_nhiên 10
giặc 10
274 10
672 10
lan_truyền 10
him@@ 10
tis 10
ng_trường 10
vội 10
dứa 10
luy 10
2035 10
máy_móc 10
678 10
9.9@@ 10
300.000 10
25% 10
bình_ổn 10
hết_lòng 10
5.300 10
tẩm 10
lùm 10
bình_t@@ 10
15.000 10
ộ 10
ẹ@@ 10
226 10
01/2018 10
111 10
cối 10
máy_tính 10
máy_chiếu 10
xâm_thực 10
lo_lắng 10
phiên_dịch 10
chỗ_@@ 10
6.0@@ 10
4.7@@ 10
xưa 10
thờ@@ 10
bình_chọn 10
ớ@@ 10
đè 10
đậu_xanh 10
bảo_trì 10
leton 10
lũ_quét 10
nhiệt_tình 10
nhiệt 10
bơi 10
845 10
lào 10
yếu_kém 10
hoả_hoạn 10
con@@ 10
tồn 10
chỉ_@@ 10
6,4% 10
737 10
720 10
i_th@@ 10
chung_kết 10
gác 10
tình_nghĩa 10
câu_@@ 10
20/2 10
4,5% 10
22% 10
tự_nhủ 10
không_trách 10
màu_mỡ 10
đặc_tính 10
àu 10
ờm 10
xô 10
chẳng 10
ghế 10
o_t@@ 10
quảng_canh 10
cẩn 10
chữa_trị 10
127 10
10/2017 10
chuyên_dụng 10
thắt 10
xử_phạt 10
_lệ 10
hỏi_thăm 10
10g 10
chợ_trời 10
tuổi_trẻ 10
nối 10
357 10
2,3% 10
bạch_hầu 10
116,@@ 10
căng 10
6.700 10
7,1% 10
4,8% 10
dị 10
gói 10
br 10
ml 10
6/2016 10
ũ@@ 10
reo 10
đồn 10
57,@@ 10
ắt 10
truyề@@ 10
ardi@@ 10
occ@@ 10
ident@@ 10
phụ_huynh 10
biểu_bì 10
nỏ 10
đều_đặn 10
1.450 10
một_lòng 10
bảo_dưỡng 10
viêm 10
ợc 10
5m 10
noi 10
tịch_thu 10
nhà_chùa 10
thờ 10
giãn 10
ngọt 10
46% 10
46/201@@ 10
9/2012 10
9/2018 10
tu_sửa 10
cấp_thiết 10
cổ_động 10
auri@@ 10
ariaceae 10
dị_đoan 10
_từ 10
12/2016 10
chữ_thập_đỏ 10
197 10
nhập_viện 10
tập_đoàn 10
chính_uỷ 10
298 10
190 10
248 10
12/2008 10
mâu_thuẫn 10
61% 10
tân_th@@ 10
16.6 10
thành_đoàn 10
5,4 10
nhộng 10
lắng_nghe 10
hậu_phương 10
nhạt 10
6/2015 10
chiêm 10
kê_khai 10
kiêm_nhiệm 10
bằng_lòng 10
giếng_khoan 10
sỏi 10
red 10
bb@@ 10
phồng 10
trổ 10
onic 10
ố 10
hai_@@ 10
46,@@ 10
130@@ 10
liên_minh 10
đơn_sơ 10
lột_xác 10
ấn_t@@ 10
alidae 10
808 10
phạt 10
vỗ_béo 10
hộ_khẩu 10
onidae 10
optera 10
phản_quang 10
tác_hại 10
238 10
19.0@@ 10
ý_tưởng 10
3.7@@ 10
lưới_điện 10
diễn_viên 10
dỡ 10
fer@@ 10
149 10
tiết_mục 10
lẻ_tẻ 10
che_phủ 10
chăm_chú 10
đầu_@@ 10
tara 10
ud 10
7) 10
gầy 10
ld@@ 10
gov.vn 10
307 10
arium 10
tle 10
rau_muống 10
vani 10
trước_hết 10
trân_trọng 10
ito@@ 10
ương_trình_@@ 10
83% 10
chuyên_trách 10
chợt 10
0,4% 10
chuyên_canh 10
11/2008 10
chồng_chéo 10
15/1 10
11.000 10
10,5 10
107 10
9/2010 10
3,3% 10
6,6% 10
19% 10
93% 10
8/2012 10
700@@ 10
1,5% 10
vệ_tinh 10
miễn_nhiệm 10
20.5 10
chủ_quyền 10
7/9 10
77,@@ 10
77% 10
ten 10
trọng_tải 10
810 10
946 10
fur@@ 10
ent 10
mil@@ 10
1,7 10
2,5% 10
xuất_phát 10
nidae 10
gọn 10
36% 10
năng_động 10
9.3 10
116 10
14.9 10
185 10
3/2016 10
14% 10
2007/@@ 10
bế_giảng 10
5/2009 10
549 10
cây_công_nghiệp 10
nghỉ_dưỡng 10
tự_tôn 10
yêu_thương 10
điều_tiết 10
tinh_hoa 10
74@@ 10
950 10
6,5% 10
172 10
3,8 10
5,5% 10
sổ_đỏ 10
30.10 10
500m2 10
60.000 10
ô_phi 10
kẻ_thù 10
15.4 10
ngành_dọc 10
stress 10
64 10
440 10
205 10
24% 10
08% 10
tim 10
1,4 10
0,7% 10
1,6 10
thôn_bản 10
tiểu_ban 10
/12 10
thứ_sáu 10
dân_gian 10
đặc_thù 10
ex 10
trung_thành 10
334 10
8/9 10
5/2015 10
277 10
ray 10
7,9 10
270 10
9.000 10
11.3 10
lor@@ 10
amin 10
xì 10
835 10
7.6@@ 10
3.3@@ 10
75,@@ 10
suy_thoái 10
160 10
02/2018 10
2.600 10
24/24 10
404 10
7/2016 10
idium 10
sit 10
999 10
336 10
50,@@ 10
73% 10
62,@@ 10
7,5% 10
16.0@@ 10
184 10
113,@@ 10
7.5 10
0,9 10
513 10
xiên 10
30.3 10
xung_phong 10
174 10
96,@@ 10
23,5 10
374 10
367 10
6,7 10
vinh_danh 10
thiêng 10
29/10 10
ng-@@ 10
Đam 10
Thi@@ 10
V 10
Oh@@ 10
_Mi 10
H-@@ 10
Di 10
Tâm 10
Gia_Lai 10
Quang_@@ 10
Yên 10
tek 10
Tân_@@ 10
Giang 10
gn 10
” 10
Ur@@ 10
Kali 10
xoang 10
JICA 10
Thai 10
KH 10
IP@@ 10
Thêm 10
Quy_@@ 10
NH@@ 10
Ê 10
Krông_@@ 10
Câu 10
tinh_thông 10
bot 10
Mai_Hương 10
pal@@ 10
yto@@ 10
TTTT 10
Vitamin 10
ngue 10
Ta@@ 10
Tao 10
Siêu 10
BigC 10
Nghê 10
Ca@@ 10
Loan 10
Lau 10
mg 10
Kw@@ 10
bi_@@ 10
Dual 10
Ant@@ 10
dak 10
Hanh 10
NQ-HĐND 10
in_@@ 10
King 10
Vui 10
Ki@@ 10
Giao_thông 10
Văn_Hưng 10
Điều_hành 10
Tham_mưu 10
Ai 10
Score 10
Vie@@ 10
Hội 10
Toan 10
Bach 10
Po@@ 10
New_Zealand 10
AN@@ 10
R 10
ML 10
Phó 10
Đôn 10
TN 10
T&T 10
PT 10
NQ-@@ 10
Thương_binh 10
Đă@@ 10
Cor@@ 10
Hưng 10
Kha@@ 10
Ly 10
Băng 10
Au@@ 10
Dro@@ 10
ngan 10
Ale@@ 10
VHTTDL 10
Phương_Mai 10
Hai_@@ 10
TNS 10
Cao_@@ 10
Thâm 10
Thanh_tra 10
Red_@@ 10
Angu@@ 10
BB 10
Thao 10
tiên_@@ 10
io 10
QĐ 10
Chuy@@ 10
po 10
Lepido@@ 10
Luân 10
dri@@ 10
Tao_@@ 10
TB 10
Be 10
Bôi 10
ale@@ 10
S. 10
Ag@@ 10
Super 10
En@@ 10
Tra@@ 10
KH-@@ 10
Cu 10
Lê@@ 10
_khai 10
ě@@ 10
BTC-@@ 10
MX 10
d_@@ 10
amu@@ 10
Tham_gia 10
TH 10
-B@@ 10
lar@@ 10
Az@@ 10
Phân_@@ 10
đanh 10
Thông_th@@ 10
jah 10
Lay@@ 10
_L@@ 10
Vân_@@ 10
ST@@ 10
Kiê@@ 10
Vi@@ 10
Da@@ 10
xơ@@ 10
put 10
Học_tập 10
BCT 10
Tài 10
Tây 10
Pad@@ 10
A3 10
Xu@@ 10
MTT@@ 10
14/9 10
Go@@ 10
Kiên 10
Tri 10
Phi_@@ 10
So@@ 10
Thanh_Quang 10
Tinh_hoa 10
kWh 10
30/10 10
NQ-CP 10
Ko@@ 10
Ka 10
rah 10
Tra 10
Becamex_@@ 10
Sher@@ 10
Cy@@ 10
TB-UBND 10
tơn 10
Li@@ 10
Logi@@ 10
T_@@ 10
2015-2016 10
Ĕ@@ 10
Truy@@ 10
HL 10
Ja_@@ 10
Kon_Tum 10
151 9
hoạ 9
bảo_hiểm 9
tầu 9
sét 9
to_khoẻ 9
xua_đuổi 9
kỳ@@ 9
hàm 9
axit_amin 9
đề@@ 9
tệ 9
xôi 9
đánh_thức 9
úa 9
vàng_@@ 9
lớn_tuổi 9
phúc_khảo 9
hầu_như 9
thuốc_@@ 9
nam_giới 9
hề 9
nghĩa_địa 9
ny 9
lây_truyền 9
họ@@ 9
chuyển_hoá 9
ù 9
rau_sạch 9
chợ_@@ 9
đặt_vòng 9
thu_chi 9
cửu 9
trình_diễn 9
ví_dụ 9
trí@@ 9
hiện_@@ 9
xói_mòn 9
trông_chờ 9
tiền_bạc 9
85@@ 9
điều_khoản 9
ip@@ 9
ở_@@ 9
khổ@@ 9
89% 9
ện 9
gáy 9
chuối_@@ 9
pre@@ 9
fen 9
thành_@@ 9
xông 9
đậu_tương 9
điề@@ 9
kiên_cường 9
cồn 9
lý_thuyết 9
hỗ@@ 9
555 9
gắn_bó 9
165 9
phyto@@ 9
đồ_án 9
phân_đạm 9
ngoại_cảnh 9
pan@@ 9
trăm_ngàn 9
tiếp_đón 9
gặp_gỡ 9
tỏ_tình 9
44@@ 9
khổ 9
giới_hạn 9
ưỡng 9
loại_hình 9
truyền_nhiễm 9
vương 9
tự_cường 9
thự 9
gọt 9
mơ_ước 9
huyết 9
219 9
nước_ngầm 9
1946 9
1400 9
èn 9
ỷ 9
247 9
mạt 9
ik@@ 9
điể@@ 9
nhảy 9
229 9
449 9
il@@ 9
khách_quan 9
giác 9
chuẩn_mực 9
lây_nhiễm 9
tàn_dư 9
hấp_thu 9
ens@@ 9
ẵng 9
siêu_thị 9
đậy 9
quá@@ 9
cô_lập 9
hàn_@@ 9
đài_@@ 9
khắc_nghiệt 9
12/2017 9
shu@@ 9
gart 9
bao@@ 9
bán_kết 9
cây_gỗ 9
ết 9
ban_đêm 9
n_s@@ 9
king 9
úc 9
nội_thành 9
thuậ@@ 9
người_thân 9
376 9
thụ_phấn 9
cố_định 9
phiến 9
rộng_lớn 9
đại_tá 9
sâu_sát 9
514 9
viên_@@ 9
nhậ@@ 9
pháp@@ 9
ngành_hàng 9
diễu_hành 9
khẩn 9
chính_@@ 9
trắm 9
hy 9
tương_xứng 9
đố_@@ 9
kị 9
rích 9
core 9
ấn_tượng 9
ran@@ 9
bầm 9
4,9 9
y.@@ 9
64@@ 9
7,7% 9
đóng_gói 9
choáng 9
gài 9
3,6% 9
răn_đe 9
153 9
chúng_nó 9
khoẻ_mạnh 9
quang_hợp 9
cánh_cứng 9
thời_sự 9
800.000 9
đô_thị_hoá 9
3/2019 9
đồng_lòng 9
đấu_nối 9
xếp_hạng 9
phức 9
é 9
già_cỗi 9
11/2011 9
i_thế 9
đặc_sắc 9
lụt_bão 9
kiểm_kê 9
lục 9
3.8@@ 9
băm 9
đun_nấu 9
răng_@@ 9
khản 9
ắ@@ 9
che_kín 9
hình_bầu_dục 9
thầy_giáo 9
/2010 9
4/2010 9
hộ_sản 9
sáp 9
thưởng 9
dài_hạn 9
quí 9
/2014 9
tỉnh_thành 9
nhập_ngoại 9
cương 9
khéo_tay 9
ngón 9
thông_số 9
thực_nghiệm 9
5/2010 9
cây_xanh 9
tí@@ 9
tinh_vi 9
thân_nhân 9
đường_thuỷ 9
tàng_trữ 9
126 9
hữu_ích 9
thuỷ_điện 9
thường_trú 9
sàng_lọc 9
lùi 9
điệu 9
cất_trữ 9
20.4 9
0,7 9
mẹ@@ 9
vứt 9
xách 9
vẹt 9
ó@@ 9
dễ_thương 9
phổi 9
nhanh_nhẹn 9
khôn_ngoan 9
eed 9
vườn_@@ 9
hoàn_@@ 9
màu_sắc 9
khoa_@@ 9
ung_thư 9
4/2012 9
www.@@ 9
gov@@ 9
.vn@@ 9
hấp_dẫn 9
462 9
trắc 9
bớt 9
8.000 9
diễn_văn 9
tiền_lương 9
vẻ_vang 9
trùng_lặp 9
thư_viện 9
437 9
tính_chất 9
ao_hồ 9
bấm 9
231 9
50.000 9
hiểm_@@ 9
đấu_tranh_@@ 9
khí_thế 9
bao_cao_su 9
tổn_thương 9
trớ 9
đuốc 9
khoét 9
đức_t@@ 9
10,3 9
5,9 9
cảnh_giác 9
/2010/@@ 9
tình_cảm 9
trang_trọng 9
tư_duy 9
mác 9
khách_sạn 9
giá_thành 9
6,6 9
tinh_gọn 9
bận 9
ỡ@@ 9
tự_tin 9
khổ_qua 9
dưa_leo 9
12,3 9
di_động 9
thông_tấn 9
báo_chí 9
nạo_vét 9
kw@@ 9
472 9
2.9@@ 9
bể 9
ăn_ở 9
ul@@ 9
triển_lãm 9
gỉ 9
sinh_kế 9
p_tối 9
làm_lụng 9
đối_phó 9
ca_nô 9
mô_tô 9
xoắn 9
tràn 9
xuất_bản 9
kẻo 9
khẩn_cấp 9
sừng 9
giải_viên 9
451 9
râm 9
545 9
tương_lai 9
thịnh_vượng 9
Duy_@@ 9
F2 9
blu@@ 9
D-@@ 9
NS 9
12.0@@ 9
sa_@@ 9
gg@@ 9
Quang 9
mum 9
Hinh 9
LLVT 9
n-@@ 9
KL 9
Miên 9
VIII 9
Mo@@ 9
CNH 9
CV 9
alu@@ 9
Hiên 9
Diên 9
wa@@ 9
Lâm_@@ 9
lip 9
loang 9
pia 9
_Lê_@@ 9
Khao 9
ợp 8
c_t@@ 8
iêu_@@ 8
vùi 8
vui_mừng 8
nuôi_@@ 8
ght@@ 8
vây 8
_h@@ 8
hội_trường 8
nghành 8
khua 8
ỉ 8
cóc 8
non@@ 8
lò@@ 8
giảng 8
i_trưởng 8
tóc 8
đỡ 8
óp 8
ả@@ 8
chọn_lựa 8
ngụ 8
lụa 8
òm 8
cà 8
đổ@@ 8
miễn_phí 8
sốt_@@ 8
ỳ 8
bàn_chân 8
cán_sự 8
phú_@@ 8
bình_yên 8
au@@ 8
ổi 8
chu_vi 8
648 8
người_nhà 8
tượng_đài 8
âm_@@ 8
trợ_cấp 8
lén 8
cứu_giúp 8
chi_@@ 8
ts@@ 8
lộn 8
mảnh 8
bánh 8
cốt_@@ 8
tỵ 8
hỷ 8
núi_non 8
vận_@@ 8
kĩ_thuật 8
tỷ@@ 8
óng 8
thượng_@@ 8
258 8
bình_thuỷ 8
chủ_thể 8
nóc 8
khoai_lang 8
ền 8
yếu_thế 8
bềnh 8
xấp 8
pp@@ 8
giành 8
đói_@@ 8
khuyết 8
đùa 8
01@@ 8
1947 8
ỗi 8
chỉ_dẫn 8
chẽ 8
286 8
eur@@ 8
fu@@ 8
ệm 8
xế_chiều 8
hậu_cần 8
nhu_yếu_phẩm 8
liếm 8
eu@@ 8
80@@ 8
gìn_giữ 8
sinh_nở 8
mỡ 8
ếch 8
ng_thể 8
thường_kỳ 8
dân_quân_tự_vệ 8
phòng_thủ 8
quán 8
khẳng_định 8
thay_mặt 8
ng_thị 8
hạnh 8
bối_cảnh 8
lớp_lớp 8
ồn 8
ồn_ào 8
sắng 8
chấ@@ 8
bồ 8
em@@ 8
nái 8
chi_phí_sản_xuất 8
hoa_quả 8
lỡ 8
ori@@ 8
ấm_no 8
bổ@@ 8
cơ@@ 8
năn 8
trước_sau 8
ny@@ 8
mưa_thuận_gió_hoà 8
phố@@ 8
fia 8
ứ@@ 8
/@@ 8
123 8
xăm 8
xác_lập 8
lạnh_giá 8
thế@@ 8
tv@@ 8
bra@@ 8
uyền 8
mẫn_cảm 8
dạ 8
du_khách 8
gia_vị 8
trí_thức 8
cat@@ 8
tử@@ 8
lòng_đường 8
rùa 8
sở_hữu_trí_tuệ 8
sở_hữu 8
đắt 8
mồm 8
dòi 8
bùa 8
mọng 8
dân_tộc_học 8
bện 8
bệ@@ 8
bỗng_nhiên 8
giọng 8
phân_biệt 8
vac@@ 8
cập_nhật 8
môn_phái 8
hội_thao 8
điển 8
thầy_cô_giáo 8
n_lực 8
cen@@ 8
lúa_@@ 8
giao_ước 8
kiểu_mẫu 8
rèn 8
mười_lăm 8
đỏ@@ 8
điện_thoại 8
tù 8
chắt 8
nảy_sinh 8
ble@@ 8
đầu_vào 8
xung_yếu 8
linh_hoạt 8
đối_nội 8
ghẻ 8
hàn_the 8
bướu_cổ 8
xà 8
12/2012 8
điều_lệ 8
tham_khảo 8
liên_tiếp 8
pháp_lệnh 8
nhắm_@@ 8
năm_mươi 8
không_khéo 8
hảo_tâm 8
uộ@@ 8
nhà_nghỉ 8
chất_độc 8
đường_@@ 8
ăn_uống 8
khả_quan 8
ngoại_thành 8
hướng_nghiệp 8
bào_tử 8
nua 8
một_vài 8
giả_vờ 8
tình_huống 8
đe_doạ 8
cau 8
hạt_nhân 8
đồ_chơi 8
lưu_trú 8
new 8
cỡ 8
bấm_@@ 8
ẩm_thấp 8
luân_phiên 8
công_viên 8
bán_công 8
rẽ 8
tụ_h@@ 8
ết_tr@@ 8
vắng_lặng 8
rạ 8
ano@@ 8
chớp 8
dòng_họ 8
san_hô 8
uốn_lượn 8
dung_dịch 8
4/2016 8
dán 8
tác_phong 8
lề_lối 8
6,3% 8
chiến_sĩ 8
quan_trắc 8
chăng 8
Ly_@@ 8
PTNT 8
tiêng 8
lat 8
MH 8
biệ@@ 7
mat@@ 7
dh@@ 7
ok 7
cử@@ 7
ía 7
ami@@ 7
xa_xôi 7
tổn_hại 7
dụ 7
mỳ 7
cầy 7
hệ@@ 7
eli@@ 7
phí@@ 7
ân@@ 7
el 7
sú 7
cao_@@ 7
phù_du 7
khe 7
ỉa 7
âm_phủ 7
khởi 7
đì@@ 7
cao_độ 7
mộ@@ 7
xé 7
đến_nơi 7
đãi 7
lựa 7
đàn_em 7
phẩ@@ 7
tiếp_sức 7
tà@@ 7
soạn_thảo 7
ó 7
ớt_@@ 7
hoà_bình 7
đà_@@ 7
sel@@ 7
gian@@ 7
thi_@@ 7
ũ 7
nhựa_@@ 7
ngẩng 7
ữu 7
thị@@ 7
đắng 7
ượng 7
đi_đôi 7
triệt 7
màng 7
từ@@ 7
phân_hoá_học 7
chữ@@ 7
nhị 7
nar@@ 7
chợ_cóc 7
690 7
kiến_thiết 7
mai_@@ 7
pháp_@@ 7
xã_hội_chủ_nghĩa 7
ục 7
n_trường 7
cảm_thấy 7
won 7
bảo_@@ 7
luyện_tập 7
làng_xã 7
tôm_sú 7
vừa_rồi 7
cốt 7
khai_@@ 7
nốt 7
cha_mẹ 7
sinh_@@ 7
ll 7
phạm_@@ 7
70@@ 7
nhập_khẩu 7
triều 7
ng_t@@ 7
vận_dụng 7
tiềm_lực 7
đùi 7
phạm_pháp 7
tổng_@@ 7
chè 7
tải 7
sáo 7
hung_dữ 7
ngổ 7
ghen 7
thầu 7
mớ@@ 7
sưu_tầm 7
nhà_@@ 7
vườ@@ 7
cc 7
xói 7
đối_ứng 7
0,8 7
0,6 7
el@@ 7
nịt 7
mp@@ 7
ưởng_@@ 7
thua 7
000 7
cất 7
tư_@@ 7
tel@@ 7
75@@ 7
161 7
ff@@ 7
ica 7
già@@ 7
nguyên_@@ 7
thứ@@ 7
cấp_@@ 7
nhịp 7
hăng 7
để_@@ 7
ib@@ 7
fran@@ 7
há@@ 7
197@@ 7
trầy_xước 7
280@@ 7
chỉ_số 7
cuồn_cuộn 7
được@@ 7
mad@@ 7
chá@@ 7
ung_@@ 7
đưa_đón 7
loạt 7
đản 7
ới 7
tú 7
mài 7
ngà_voi 7
nồng 7
ensen 7
eo 7
tiệ@@ 7
đền_đáp 7
6/2018 7
ck@@ 7
phiế@@ 7
rộn_ràng 7
tiến_trình 7
ner@@ 7
thuố@@ 7
oàn 7
khái 7
ot 7
.vn/@@ 7
303 7
xấu_xí 7
lách 7
húc 7
len 7
chỉ@@ 7
đậm_đà 7
py@@ 7
tạm_thời 7
ắk 7
địa_chỉ 7
gian_khổ 7
đối_@@ 7
giê 7
.... 7
00 7
phần_thưởng 7
hán 7
miếng 7
rắn_@@ 7
500@@ 7
tác_nhân 7
gia_hạn 7
hộp 7
43@@ 7
bản_án 7
900@@ 7
tiến_sỹ 7
nô 7
mai_một 7
lơ_lửng 7
t_th@@ 7
ầu 7
thầy_cô 7
thu_mua 7
_sinh 7
tự_vệ 7
lay@@ 7
hạ_du 7
56@@ 7
toạc 7
_nhân 7
khô_héo 7
tức_giận 7
cin@@ 7
bịch 7
tẩy 7
quốc_lộ 7
hiếu_học 7
trĩu 7
tình_nguyện_viên 7
mía 7
xỉ 7
sót 7
tổ_tiên 7
bã 7
93,@@ 7
queo 7
sầu 7
sĩ_quan 7
CHQS 7
cl@@ 6
nhà_sản_xuất 6
lôi 6
vươn_mình 6
hay_là 6
tàu_hoả 6
sing@@ 6
game 6
rách_nát 6
ngoạ@@ 6
_tình 6
kiể@@ 6
m_tr@@ 6
xa_xa 6
ễn 6
cước 6
ẩ@@ 6
vung 6
biển_@@ 6
ng_th@@ 6
vận_động_viên 6
tích_hợp 6
vừa_mới 6
ek@@ 6
lý@@ 6
chèn 6
soạn 6
huyết_@@ 6
trói 6
min@@ 6
ự 6
công_t@@ 6
thời_kì 6
phỏng 6
tì@@ 6
lổ 6
tâm_@@ 6
sẫm 6
ỗ@@ 6
việc_@@ 6
vội_vàng 6
n_thể 6
diều_hâu 6
chỉ_thiên 6
tiền_@@ 6
ví_như 6
trú_ngụ 6
gel 6
thửa 6
...@@ 6
169 6
tim@@ 6
tham_@@ 6
hoang 6
cấp_bộ 6
chính_đảng 6
lùn 6
àm 6
rọi 6
lốc 6
cỏ@@ 6
xây_cất 6
cất_giữ 6
nức_nở 6
củng 6
đẽo 6
fre@@ 6
đường_sá 6
tầ@@ 6
ngả 6
sắm 6
dis@@ 6
quy_chuẩn 6
hãm_hại 6
ốm_đau 6
21@@ 6
trứ@@ 6
phì 6
dù@@ 6
lấn 6
oo 6
như_thế 6
đấm 6
ổ@@ 6
408 6
yến 6
ợ@@ 6
chợ_phiên 6
luật_pháp 6
3/2011 6
iman 6
bì@@ 6
lưu_động 6
túm 6
chén 6
phật 6
ine 6
thời_@@ 6
ngầm 6
ườ@@ 6
9/2008 6
tổng_giám_đốc 6
hét 6
lar 6
cấp_tập 6
xì@@ 6
ắp 6
bé@@ 6
gần_@@ 6
thái_giám 6
tập_thể_dục 6
thu_dọn 6
tình_yêu 6
chế_tài 6
uyết 6
đế@@ 6
thầy 6
thỉnh 6
15.@@ 6
mal@@ 6
đột 6
/2016 6
lan@@ 6
oc 6
thừa 6
quận 6
tình_th@@ 6
ím 6
356 6
409 6
quy_phạm 6
87@@ 6
nòng 6
tứ@@ 6
nh_trị 6
tông_@@ 6
18/11 6
vô_cơ 6
vớ@@ 6
ận 6
ùa 6
hứa 6
cụt 6
lõm 6
giun 6
bạo 6
thời_gian_thực 6
người_lớn 6
hn 6
ýp 6
ý@@ 6
thủ_công 6
thậ@@ 6
ấu 6
sổ 6
vietnam 6
sk 6
ngưng 6
lự@@ 6
lẽ 6
bộ_ngành 6
sẹo 6
1000@@ 6
ton@@ 6
aka 6
ans@@ 6
tây_nam 6
vũ_trang 6
ci 6
tát 6
nhanh@@ 6
bạo_@@ 6
zil 6
đầ@@ 6
kỹ_lưỡng 6
xẻng 6
nh_t@@ 6
ọn_@@ 6
ana 6
885 6
lot@@ 6
thất 6
lợi_nhuận 6
ầ 6
ạch 6
mặt_hàng 6
nhành 6
lở_mồm_long_móng 6
móng 6
gân 6
vay_mượn 6
ea 6
big 6
viện_phí 6
102 6
xoa 6
3.000 6
tật 6
139 6
thăm_viếng 6
que@@ 6
cin 6
120@@ 6
nhấn 6
n_lá 6
làm_ruộng 6
hỗn 6
ơn_@@ 6
616 6
hả 6
ngân_@@ 6
_trưởng 6
phải_chi 6
đằng 6
ời_@@ 6
mì@@ 6
9/201@@ 6
tập_@@ 6
ời 6
chạm_trổ 6
mas@@ 6
xả 6
giam_giữ 6
ổng 6
55@@ 6
rà 6
hiền_lành 6
quét_dọn 6
ón 6
đậm_nét 6
ẻ@@ 6
sáng_qua 6
oài 6
vọng 6
phát_thanh 6
õng 6
lai_@@ 6
dẻo 6
cur@@ 6
rời 6
rừng_sản_xuất 6
ato 6
động_sản 6
với_@@ 6
kar@@ 6
bit@@ 6
lính 6
apo 6
thư_@@ 6
quang_@@ 6
bah 6
97,@@ 6
ìn_@@ 6
ng_thành 6
vật_thể 6
77 6
liếp 6
tìm_tòi 6
biểu_quyết 6
xiêu 6
ye 6
sỉ 6
sân_vận_động 6
5/2017 6
gặt 6
group 6
7/2011 6
xy@@ 6
365 6
hoàng_đế 6
nẩy 6
trút 6
38,@@ 6
sùng 6
khuyên_nhủ 6
năm_@@ 6
ctu@@ 6
mày 6
6,5 6
ix 6
sấy 6
hình_nón 6
chuyền 6
nghiêng_@@ 6
đối_mặt 6
thêu 6
gục 6
hê@@ 6
chúng_mày 6
điê@@ 6
1,8 6
dường 6
lột 6
one@@ 6
2.3@@ 6
hóng 6
mao 6
két 6
tự_động 6
bor@@ 6
kra@@ 6
trung_chuyển 6
mượt 6
teo 6
clip 6
siêng 6
239 6
ông_bà 6
nạo 6
kk@@ 6
gra@@ 6
rập 6
bọt 6
năng_nổ 5
flo@@ 5
ngô@@ 5
_trung 5
âm_lịch 5
hoạch_định 5
bùng 5
thóp 5
hồi_phục 5
đường_trường 5
ft 5
tức_là 5
khăn_@@ 5
bờ_rào 5
thất_thu 5
mất_mát 5
tương_trợ 5
a_tr@@ 5
đời_thường 5
xông_pha 5
sức_lực 5
chiến_binh 5
bầu_bí 5
7.200 5
rải_rác 5
xem_lại 5
tăng_trọng 5
234 5
xuất_trình 5
khủng_bố 5
ác_liệt 5
lán_trại 5
366 5
jon 5
giò 5
995 5
nặng_nhọc 5
chuyển_dạ 5
cót 5
phên 5
phế_thải 5
vắng_mặt 5
1m2 5
chủ_@@ 5
én 5
mà@@ 5
ủng 5
lóng 5
đón_chào 5
chưa_thể 5
chài 5
áp_đặt 5
bất_hợp_pháp 5
ngăn_cản 5
quý_trọng 5
ùng_@@ 5
cườ@@ 5
ng_tác 5
một_@@ 5
tróc 5
uyền_@@ 5
ec@@ 5
lú@@ 5
định_@@ 5
lã@@ 5
gói_thầu 5
15cm 5
n_tr@@ 5
luôn_luôn 5
25.9 5
gian_hàng 5
sấm_sét 5
lặng 5
tin@@ 5
ban_ngày 5
dối 5
hưng_@@ 5
cảnh_tượng 5
ra_tay 5
ây_@@ 5
đề_phòng 5
chân_đất 5
thiên_@@ 5
sủa 5
242 5
hoành_tráng 5
1kg 5
thanh_tịnh 5
trang_nghiêm 5
ép 5
phục_dựng 5
ỷ_lại 5
_thành 5
than 5
sáng_@@ 5
sim@@ 5
chát 5
nhất_thể_hoá 5
chuyên_biệt 5
gởi 5
sập 5
vỏ@@ 5
_lụa 5
vacxin 5
pm 5
5cm 5
thanh_toán 5
ề 5
úp 5
đầu_tàu 5
tứ 5
vợ@@ 5
đon_đả 5
trách_móc 5
bứng 5
thẫm 5
607 5
756 5
168 5
167 5
khó@@ 5
phân_rã 5
xí_nghiệp 5
ngoại_xâm 5
589 5
thành_uỷ 5
his@@ 5
kế@@ 5
mũi_nhọn 5
xoăn 5
trích 5
hiệu_@@ 5
59@@ 5
rắn 5
kế_@@ 5
tình_@@ 5
quy_cách 5
thị_phi 5
náo 5
nguyên_tác 5
hàng_không 5
11/201@@ 5
1cm 5
tại_gia 5
triển_@@ 5
dồn 5
her@@ 5
dung_lượng 5
mét_khối 5
amb@@ 5
bắt_tay 5
ở_riêng 5
ựu 5
2.000.000 5
alo 5
ò_@@ 5
chó@@ 5
thương_@@ 5
mưa_phùn 5
km2 5
339 5
bày 5
xuất_nhập_cảnh 5
gốc_từ 5
nhất_thiết 5
.com 5
kể_ra 5
tiêu_thoát 5
khói 5
20kg 5
ãng 5
hoà@@ 5
hiếu_@@ 5
1/3 5
đồng_đội 5
2/3 5
tăng_gia_sản_xuất 5
ngày_sinh 5
28.7 5
cách_@@ 5
mạng_th@@ 5
oai 5
nạp 5
tạm_bợ 5
ực_tế 5
bàn_cờ 5
10kg 5
bài_học 5
1.200 5
1/200@@ 5
suy_dinh_dưỡng 5
mại 5
tổng_thu 5
xúc_động 5
3cm 5
thể_lệ 5
ậy 5
ena 5
quy_hoạch_vùng 5
6/2014 5
duyên_hải 5
mb@@ 5
gây_rối 5
ào_ào 5
cửa_sông 5
dùi 5
nguyện 5
54@@ 5
say_sưa 5
ủi 5
06/201@@ 5
chỉ_định 5
tư_liệu 5
1995 5
kích_dục 5
luật_lệ 5
làng_@@ 5
mạch_máu 5
74% 5
mưu_t@@ 5
xiết 5
ngừa 5
con_đ@@ 5
hội_nhập 5
fili@@ 5
hay@@ 5
nhồi 5
gập 5
chun 5
nắp 5
bời 5
lâu_nay 5
tự_ý 5
mẹ_kế 5
3,7 5
ngỡ 5
kinh_tế_@@ 5
quốc_tế_hoá 5
sis@@ 5
cưỡi 5
3/2009 5
20.7 5
thầy_thuốc 5
giặt 5
548 5
735 5
báo_@@ 5
tư_l@@ 5
iệu_hoá 5
khô_@@ 5
cấp_bách 5
ệch 5
03/2017 5
cơ_động 5
cá_lóc 5
bè_@@ 5
245 5
cap@@ 5
lợn_s@@ 5
in_ấn 5
àng 5
trầm_@@ 5
15g 5
hệ_sinh_thái 5
lịch_sự 5
_dịch 5
1928 5
9/2015 5
xâm_phạm 5
quyền_công_dân 5
bêtông 5
dây_thép 5
lao_@@ 5
ăn_tạp 5
mướp 5
nồi_áp_suất 5
4/2011 5
bỡ_ngỡ 5
30/6/2017 5
giầy_dép 5
chỉ_thực 5
210 5
như_thế_nào 5
65% 5
22.10 5
sky@@ 5
mua_@@ 5
phẩm_@@ 5
thường_niên 5
8,5% 5
990 5
900.000 5
56,@@ 5
làm_quen 5
cảm_giác 5
ộc 5
dịu 5
khẽ 5
11/2009 5
lực_@@ 5
iệ@@ 5
trường_giáo_dưỡng 5
núi_rừng 5
xua_tan 5
âm_u 5
miễn_dịch 5
mênh_mông 5
ai_t@@ 5
nhã 5
1ha 5
sương_@@ 5
tranh_chấp 5
axít 5
uốn_l@@ 5
nhả 5
phối_kết_hợp 5
tham_lam 5
thực_ra 5
xíu 5
tập_trung_dân_chủ 5
đôla 5
thốn 5
xuân_@@ 5
465 5
tak@@ 5
yo 5
hoại 5
người_bệnh 5
160@@ 5
chuyển_nhượng 5
zi@@ 5
trắng_đen 5
9.0@@ 5
i_d@@ 5
ẩm_ướt 5
từ_bỏ 5
doanh_thu 5
máy_phát_điện 5
lắp_ráp 5
nghe_nhìn 5
thu_hẹp 5
ỉ@@ 5
cao_bằng 5
mất_mùa 5
hàng_@@ 5
phụ_cận 5
ít_ra 5
ưở@@ 5
lợi_dụng 5
nghèo_khổ 5
u_th@@ 5
mặt_biển 5
cãi 5
mộc 5
nấm_@@ 5
máy_vi_tính 5
ruồi 5
mic@@ 5
72.000 5
nhà_tài_trợ 5
thập 5
_thi 5
đắc_lực 5
kết_nghĩa 5
chủ_quản 5
chiểu 5
công_bằng 5
72@@ 5
thừng 5
giai_cấp 5
phô_trương 5
hở 5
mờ 5
hủ 5
cảm_động 5
te 5
tiết_canh 5
hành_xử 5
đúng_mực 5
19/5 5
10/10 5
quyề@@ 5
xoá_sổ 5
gọn_gàng 5
formal@@ 5
chia_cắt 5
hạ_lưu 5
thể_tích 5
ret 5
hợp_lệ 5
phèn 5
lầy 5
thụt 5
môn_học 5
4/2017 5
khắp_nơi 5
thân_mật 5
gõ_cửa 5
điều_luật 5
eg@@ 5
iện 5
lễ_đài 5
bổ_trợ 5
mạo_hiểm 5
hứa_hẹn 5
lên_tiếng 5
nước_rút 5
lưu_huỳnh 5
gian_lận 5
gáo 5
tiệc 5
/2011/@@ 5
2,4% 5
sà 5
nhập_cuộc 5
thợ 5
ưa_chuộng 5
chế_độ@@ 5
hoá_ra 5
học_trò 5
nhấp 5
chìa_khoá 5
nhà_xưởng 5
bệnh_@@ 5
nhân_sĩ 5
đậu_đen 5
nhẹ_nhàng 5
2,8 5
2.300 5
cấp_thoát_nước 5
lôi_kéo 5
bel@@ 5
ấn_@@ 5
thung_lũng 5
che_khuất 5
sương_mù 5
cường_độ 5
kích_@@ 5
nụ 5
tw@@ 5
tụ_tập 5
chơi_bời 5
đánh_võng 5
nẹt 5
hoang_mang 5
20h00 5
m_tiến 5
tiền_án 5
thử_thách 5
419 5
ái_@@ 5
cất_giấu 5
tính_năng 5
dược_@@ 5
công_tác_@@ 5
này@@ 5
tiêu_dùng 5
bổ_ích 5
rẻ 5
phản_ảnh 5
lấp_lánh 5
ốm_nghén 5
194 5
dành_dụm 5
iế@@ 5
giao_nộp 5
sách_@@ 5
khuyến_tài 5
8/10 5
giáo_trình 5
chồn 5
ỗng 5
9.10 5
lưu_hành 5
thông_dụng 5
lưỡi_câu 5
xét_xử 5
sơ_thẩm 5
gián_tiếp 5
ngứa 5
221 5
260.000 5
320.000 5
ids 5
đói_khát 5
ói_@@ 5
chóng 5
cửa_hàng 5
c_sỹ 5
dời 5
tươi_đẹp 5
té 5
bết 5
ngưng_trệ 5
thụ_tinh 5
mùng 5
n_lòng 5
476 5
34.@@ 5
ann 5
5/2011 5
suy_kiệt 5
ẫ 5
bẩy 5
quyết_@@ 5
phăng 5
hiển 5
sung_sướng 5
tốp 5
quốc_sách 5
hàng_đầu 5
adin 5
bảo_trợ 5
tàn_tật 5
bao_gói 5
khái_@@ 5
quá_độ 5
chủ_nghĩa_xã_hội 5
nền_nếp 5
ste 5
tán_@@ 5
bạch_đàn 5
vi_@@ 5
chớ 5
rời_rạc 5
tàu_bay 5
rết 5
trọc 5
11/2016 5
thông_t@@ 5
đặc_trị 5
6/2013 5
béo 5
căn_bản 5
ới_@@ 5
xáo 5
8/2016 5
đồ_ăn 5
giữ_@@ 5
cọp 5
xích_đu 5
60cm 5
nhân_loại 5
23.7 5
bồ_câu 5
tươi_mát 5
cụ@@ 5
132 5
òi 5
thềm 5
nghỉ_hè 5
sĩ_số 5
ò 5
tài_giỏi 5
fus@@ 5
giao_ban 5
tử_cung 5
công_nghệ_cao 5
nướng 5
thuốc_lá 5
cuối_cùng 5
chiến_sỹ 5
cầm_đồ 5
karaoke 5
12.11 5
nhân_quyền 5
104 5
hứng 5
kinh_tế_tri_thức 5
mét_vuông 5
ton 5
tăng_giá 5
gia_cố 5
phản_biện 5
19h00 5
dan 5
tuyết 5
3,4 5
25,@@ 5
tổng_cộng 5
phình 5
190.000 5
nếm 5
nội_chính 5
cách_biệt 5
7/2017 5
hạch_toán 5
bác_sỹ 5
4.3 5
đồng_đều 5
thoáng_khí 5
335 5
tiến_công 5
góp_ý 5
tàn_lụi 5
phân_phối 5
cổ_phần 5
thù 5
đình_@@ 5
94@@ 5
lìa 5
chạy_chữa 5
tuỷ_sống 5
xu_hướng 5
bất_trắc 5
quý_giá 5
chứng_thực 5
ngậm 5
thông_minh 5
cốm 5
kiệt 5
40g 5
4.6 5
ổn_thoả 5
xích_mích 5
quỳ 5
sôi_động 5
gây_dựng 5
chống_phá 5
thù_địch 5
vành_@@ 5
đánh_dấu 5
thâm_niên 5
phúc_lợi 5
chuyên_mục 5
hội_tụ 5
lánh 5
kiên_trung 5
am_hiểu 5
cầu_đường 5
carbo@@ 5
vic@@ 5
visa 5
trong_sáng 5
183 5
17.11 5
18.11 5
sáng_mai 5
oda 5
đấu_giá 5
chuyên_doanh 5
độc_lập 5
tạp_hoá 5
loét 5
đại_sứ_quán 5
khuyết_điểm 5
đùm 5
hứng_thú 5
chào_hỏi 5
toàn_thân 5
quyết_sách 5
đúng_đắn 5
đường_phố 5
luật_định 5
61,@@ 5
mốt 5
diễn_đàn 5
ban_giám_hiệu 5
28% 5
26.000 5
mìn 5
11.9 5
đãi_ngộ 5
3,0 5
thông_suốt 5
ướt_sũng 5
mặc_niệm 5
quên_mình 5
cây_th@@ 5
dây_leo 5
bất_cập 5
phá_bỏ 5
kiên_định 5
xem_chừng 5
gió_lùa 5
khảo_cổ 5
cạn_kiệt 5
45.000 5
cao_niên 5
bài_bản 5
tuyền 5
điếm 5
thứ_trưởng 5
707 5
ớn 5
42/201@@ 5
9/2017 5
19.10 5
420 5
kiệu 5
tuốt 5
đầy_ắp 5
vun_đắp 5
tổn_thất 5
mở_cửa 5
nguội 5
kính_yêu 5
1,2% 5
con_nuôi 5
đạo_lý 5
khởi_nghĩa 5
1945 5
2.12 5
sán_lá 5
dự_tính 5
lâu_đời 5
trường_phái 5
lì_xì 5
oạ 5
tuyên_dương 5
nhấn_mạnh 5
di_truyền 5
cầu_nối 5
đất_liền 5
6,1% 5
vuông_góc 5
nghẹn 5
triệu_tập 5
sai_phạm 5
ia_@@ 5
43/201@@ 5
đổng 5
tral 5
cảm_xúc 5
sợ_hãi 5
đường_sắt 5
cao_tầng 5
mắc_@@ 5
bạc_màu 5
cự_ly 5
6/2017. 5
ngực 5
76@@ 5
3.000.000 5
sự_tích 5
phản_hồi 5
47.@@ 5
nhà_vệ_sinh 5
xác_suất 5
nấm_mốc 5
phá_h@@ 5
hộ_sinh 5
đỡ_đẻ 5
đầm_ấm 5
15/9 5
bộ_môn 5
kỳ_vọng 5
ẩm_thực 5
lặn 5
bài_chòi 5
tận_thu 5
khảm 5
tâm_huyết 5
truy_cứu 5
xù 5
xưởng 5
dân_lập 5
đề_cao 5
tương_hỗ 5
liên_hoàn 5
10.500 5
ngộ_độc 5
nhầm 5
đắc 5
12.9 5
đò 5
413 5
0,@@ 5
khắc_ghi 5
bio@@ 5
đục_@@ 5
minh_chứng 5
nghị_lực 5
cơ_yếu 5
12/2013 5
4,2 5
thuyền_trưởng 5
khoeo 5
kiên_trì 5
iệm 5
tài_năng 5
dũng_cảm 5
giải_đáp 5
1980 5
phỏng_vấn 5
cục_bộ 5
bất_ổn 5
plus 5
map 5
chung_chung 5
hô_hào 5
khàn 5
749 5
phách 5
vành 5
7/2013 5
hữu_nghị 5
1.600 5
ngoại_lai 5
363 5
mệt_mỏi 5
bàn_ghế 5
giao_tiếp 5
môi_giới 5
hoay 5
mới_đầu 5
chịu_nhiệt 5
344 5
máy_in 5
xã@@ 5
chiến_tranh 5
cực_khổ 5
ước_mơ 5
hiện_thực 5
178 5
8m 5
hệ_luỵ 5
90.000 5
a_trang 5
6/2017 5
16,@@ 5
đấu_thầu 5
củ_cải 5
nguyên_vật_liệu 5
24.9 5
ốt 5
khẩu_hiệu 5
băng_rôn 5
gấp_@@ 5
nhà_giáo 5
20.11 5
truy_nã 5
cướp_giật 5
ket 5
tư_cách_pháp_nhân 5
h55 5
sấu 5
bio 5
bat@@ 5
liềm 5
6,4 5
hoang_hoá 5
kiểm_toán 5
quảng_cáo 5
10/2011 5
hành_quân 5
dò_xét 5
phần_tử 5
điệp 5
nhọt 5
2000 5
so_sánh 5
trích_dẫn 5
nhìn_nhận 5
dec@@ 5
2.5 5
0,3% 5
xoá_bỏ 5
phát_hành 5
tổ_dân_phố 5
4.000 5
0,4 5
17/6 5
233 5
biên_giới 5
50.@@ 5
5s 5
top@@ 5
đạn_nổ 5
chảy_máu 5
mạnh_thường_quân 5
400@@ 5
cas@@ 5
hồng_cầu 5
100ha 5
ột 5
9.6@@ 5
tự_phê_bình 5
sn 5
xuất_viện 5
đế 5
ghét 5
147 5
12/2018 5
2.200 5
xx 5
1/500 5
10cm 5
then_chốt 5
loại_trừ 5
aux 5
vùng_trời 5
sáng_tác 5
63/201@@ 5
trái_vụ 5
thớ 5
10/2014 5
2.6@@ 5
lường 5
cực_đoan 5
5ha 5
điền 5
đường_hầm 5
biệt_lập 5
2,1% 5
nylon 5
độc_đáo 5
òn_t@@ 5
đòn 5
ngoáy 5
số_báo_danh 5
150@@ 5
song_ngữ 5
164 5
8/2009 5
CL@@ 5
Grow@@ 5
Flo@@ 5
Fe@@ 5
BHYT 5
23/10 5
Chi_tiêu 5
421 5
92,@@ 5
đoan_@@ 5
BX@@ 5
VIE@@ 5
B40 5
IUU 5
ar_@@ 5
Chăm_@@ 5
i_K@@ 5
Thân 5
CN@@ 5
Ky 5
ud@@ 5
Thiêu 5
–@@ 5
Hưng_Yên 5
Tin 5
“ 5
ê_hương 5
Ni 5
10,@@ 5
nang@@ 5
Zin@@ 5
Ro@@ 5
Ben@@ 5
70,@@ 5
31,@@ 5
88,@@ 5
át 5
86,@@ 5
81,@@ 5
Vitamin_A 5
rak 5
USD 5
ghe 5
19/11 5
TP_HCM 5
8,6 5
Xi 5
The_@@ 5
TQ 5
His@@ 5
Dis@@ 5
KH-UBND 5
Với 5
cộng_tác 5
phay 5
Yê@@ 5
Thăng 5
De@@ 5
nh-@@ 5
TNMT 5
Cho 5
ềnh 5
Phi_Long 5
Đa_@@ 5
10m 5
cat 5
25/9 5
18/12 5
KT-XH 5
28/7 5
U 5
CNVC 5
Dj@@ 5
263 5
Nam_Trung 5
_M@@ 5
Đau 5
vơ@@ 5
TL 5
lương_y 5
WB 5
Si@@ 5
15kg 5
̱ 5
Sis@@ 5
20/7 5
Chung 5
mit 5
CĐ-@@ 5
tân_t@@ 5
Ngay 5
cheng 5
Vươn 5
Can 5
Kế_hoạch 5
Nghiệp_vụ 5
Chi_nhánh 5
Ngân_hàng 5
Chính_sách 5
Lê_Kim_@@ 5
BC 5
Quân_khu 5
ngang_@@ 5
BVTV 5
22/10 5
ĐV 5
S1 5
KD 5
bit 5
Phạm_Thị_@@ 5
Hồng 5
Chủ_tịch 5
VAC 5
diệp 5
E@@ 5
tram@@ 5
UBTVQH 5
Lao_động 5
Xã_hội 5
Brazil 5
Hang 5
22/7 5
TNVN 5
TNCS 5
C. 5
_N@@ 5
ê_b@@ 5
Tran_@@ 5
Lâ@@ 5
Kinh_@@ 5
Hoan 5
KH@@ 5
kilô@@ 5
SL@@ 5
BXH 5
hoc 5
Dinh_@@ 5
bua 5
Sum@@ 5
Tha 5
Lương_@@ 5
Bao_@@ 5
TKCN 5
Minh_Vương 5
VNPT-@@ 5
Gate 5
VNPT 5
Thăng_Long 5
_thương 5
Nguyen_@@ 5
Form@@ 5
alin 5
Eo_@@ 5
Ko 5
Khô 5
phen 5
MW 5
X 5
Ab@@ 5
ni_@@ 5
Ne@@ 5
huynh 5
Sang 5
QCVN 5
BYT 5
rr@@ 5
Dra@@ 5
We@@ 5
Tư_@@ 5
189 5
Blan@@ 5
Ble@@ 5
Bel@@ 5
Thương_@@ 5
Ð@@ 5
muôn 5
PTNN 5
Mas@@ 5
Gro@@ 5
TW@@ 5
An_Khê 5
Ro 5
ên_@@ 5
TTg 5
miêu 5
Py@@ 5
9/10 5
đông_y 5
Tang 5
Kem 5
Đ-@@ 5
Cur@@ 5
Cl@@ 5
thanh_minh 5
BND 5
HIV 5
AIDS 5
VX 5
Ranh 5
LĐ 5
VPCP 5
— 5
al_@@ 5
Luf@@ 5
WG 5
Kar@@ 5
Bit@@ 5
nil@@ 5
Cương 5
Dư@@ 5
Ac@@ 5
App@@ 5
Đinh_Xuân_@@ 5
thông_thương 5
On@@ 5
Trần_Văn_@@ 5
Quý 5
h_@@ 5
NK 5
GT 5
HN 5
Pi@@ 5
hô@@ 5
UNESCO 5
23/7 5
le_@@ 5
đông_du 5
/2015/NĐ-CP 5
Vai 5
http://@@ 5
TTg-@@ 5
Fus@@ 5
ame 5
F@@ 5
LĐ-@@ 5
Logistics 5
12/11 5
Jan 5
3-5 5
Đe@@ 5
cha@@ 5
Hư@@ 5
Bas@@ 5
TR@@ 5
Tôn_vinh 5
Han_@@ 5
Sân 5
ade 5
ding 5
TTr 5
TĐ@@ 5
TN-@@ 5
TTN 5
Dự_án 5
Bình_Định 5
N-@@ 5
KBNN 5
Văn_thư 5
Thiê@@ 5
nh. 5
dò@@ 5
Pha 5
kon@@ 5
Ta 5
TP@@ 5
TP-@@ 5
Sáng 5
Thanh_thiếu_@@ 5
Vĩnh_Thạnh 5
Lễ 5
Tuần_lễ 5
Thiên 5
Tương 5
Tam_@@ 5
Ari@@ 5
ks 5
û 5
Sung 5
Vic@@ 5
Visa 5
Reg@@ 5
Khung 5
_CH@@ 5
12A 5
KHĐT 5
17/11 5
BLĐTBXH 5
Quan 5
ling@@ 5
Tranh 5
ODA 5
Bah@@ 5
seo 5
Rhi@@ 5
Z 5
New_@@ 5
Na@@ 5
Satur@@ 5
Chiên 5
11/9 5
Đa 5
KT@@ 5
Thi_đua 5
Khen 5
Liên_quan 5
Đan 5
hi_sinh 5
Kha 5
ut 5
Nho 5
nhô 5
pol 5
Khan 5
Ö 5
A2 5
KTN 5
19/10 5
Ni@@ 5
trat 5
Sông 5
Chua 5
ading 5
Xuân_Sơn 5
Ri 5
VH@@ 5
Web@@ 5
site 5
VHTT 5
cay 5
NHC@@ 5
ĐH@@ 5
Đăk_@@ 5
pH 5
Tiêm 5
New@@ 5
iland 5
CT-TTg 5
Khê 5
Văn_Minh 5
Li 5
EU 5
Minh_@@ 5
Mu@@ 5
thu_h@@ 5
Tuy@@ 5
Tia 5
ing_@@ 5
Centr@@ 5
al_G@@ 5
rou@@ 5
Ky@@ 5
lum 5
Ak@@ 5
TT@@ 5
NT 5
_C@@ 5
Je@@ 5
hoa@@ 5
Hồ_@@ 5
Mỹ 5
Giao_lưu 5
Sao 5
aa 5
Kri@@ 5
12/9 5
2018-2020 5
Van 5
Danh 5
tran 5
Đăng 5
25/12 5
thai_@@ 5
Bio@@ 5
Đảng 5
Diêm 5
asu 5
Trân_Châu 5
CNTT 5
MT 5
_ 5
phong_@@ 5
Xa_@@ 5
SK 5
Plus 5
Per@@ 5
Wi@@ 5
Go 5
K2 5
Công_viên 5
PH 5
co_@@ 5
Huy_@@ 5
stic 5
Ty@@ 5
PE 5
ake 5
Nha_Trang 5
Thay 5
Rin 5
Kat 5
DS-KHHGĐ 5
24/9 5
I-@@ 5
Gia 5
CH@@ 5
Â 5
CHI@@ 5
NH 5
SA@@ 5
CH 5
QH@@ 5
20/11 5
Thông_qua 5
ui 5
DV 5
ATGT 5
6/NĐ-CP 5
nm 5
ring_@@ 5
QĐ-@@ 5
ics 5
trac@@ 5
Dec@@ 5
Xung 5
nhân_danh 5
XV 5
PAC 5
236 5
Phiêu 5
bon 5
E 5
HF 5
GPS 5
La_@@ 5
SC 5
Top@@ 5
sin_@@ 5
Kho@@ 5
STT 5
Biên_@@ 5
9. 5
toi 5
Trailer 5
như@@ 5
RAT 5
CA@@ 5
Tuy_@@ 5
Nguyễn_Xuân_@@ 5
Chuyên 5
RE@@ 5
SN 5
Bưu 5
XX 5
O2 5
Bordeaux 5
Xuân_Quang 5
NĐ-@@ 5
395 5
Tuân_@@ 5
rin@@ 5
IC@@ 5
Măng_@@ 5
dum 5
plu@@ 5
SM 5
Han 5
cộng_sản 4
thủ_lĩnh 4
feed 4
ẩn_náu 4
cạo 4
bảo_hiểm_y_tế 4
bao_vây 4
quơ 4
ty@@ 4
kỷ_luật 4
một_chiều 4
rặng 4
ạng 4
thôi_thì 4
em_gái 4
nhịp_nhàng 4
dâ@@ 4
ù@@ 4
văn_phòng_phẩm 4
ẳn 4
bởi_vì 4
bản_chính 4
_tộc 4
khoá@@ 4
web 4
kinh_@@ 4
bắt_giữ 4
ngôi_sao 4
hàng_ngũ 4
đồng_tiền 4
cào 4
đờ@@ 4
ngoại_tỉnh 4
ụt 4
mồi 4
900 4
nội_y 4
cán_bộ_@@ 4
ngàn_@@ 4
aly 4
rét_buốt 4
ên_tr@@ 4
du_kích 4
đầu_từ 4
ẹt 4
vị_thành_niên 4
o.@@ 4
ãm 4
thuyết_trình 4
cá_tầm 4
tụng 4
thực_t@@ 4
dân_nghèo 4
bản_vẽ 4
nhà_thầu 4
gả 4
trung_tuần 4
chăn_@@ 4
nhi_đồng 4
tiền_phong 4
đảm_@@ 4
tận_tay 4
đứng_chân 4
an_t@@ 4
hưng_thịnh 4
hò_reo 4
thoa 4
tràn_đầy 4
tiểu_@@ 4
ký_sinh 4
c_thể 4
gie 4
eli 4
siy@@ 4
cấp_cứu 4
chủ_chốt 4
mẹ_con 4
nghi_thức 4
phần_mộ 4
rảnh 4
dầu_@@ 4
đót 4
đề_cập 4
tuyên_bố 4
iệu 4
sạc 4
lội 4
lão_thành 4
tích_trữ 4
iên_t@@ 4
chuyên_sâu 4
luồng 4
vạt 4
vài_ba 4
iếp 4
a_th@@ 4
đẫm 4
rơm_@@ 4
kim_ngạch 4
1.12 4
st 4
ưởng 4
19.11 4
hiểm_trở 4
tư_thương 4
ỏng 4
xổ_số 4
bồ@@ 4
_v@@ 4
iên_@@ 4
giải_thưởng 4
thị_@@ 4
đàn_@@ 4
012@@ 4
016@@ 4
ed@@ 4
thủ_t@@ 4
đòn_@@ 4
giám_hộ 4
try@@ 4
khoáng_chất 4
gia_đình_@@ 4
duyên 4
ou@@ 4
buông 4
ngập 4
thoát_ly 4
gắng 4
khoảng_không 4
huệ 4
húp 4
vey 4
loáng 4
thơm_phức 4
bèn 4
đánh_@@ 4
hẳn 4
hạ_sát 4
cằn 4
giản 4
nhiệt_huyết 4
tuổ@@ 4
tín_hiệu 4
ự_@@ 4
shi 4
ưu_điểm 4
lạm 4
bền_bỉ 4
hài_hoà 4
thuỷ_văn 4
ngăn_cách 4
ụm 4
lần_@@ 4
hậ@@ 4
nước_@@ 4
dẫ@@ 4
khứ 4
rũ 4
thầy_cúng 4
cá_biệt 4
kì_c@@ 4
số_thành_viên 4
dược 4
3.600 4
năm@@ 4
rả 4
só@@ 4
10/12 4
niu 4
sơ_tán 4
bạ@@ 4
thể_chế_hoá 4
xây_@@ 4
nhiệm_@@ 4
vụ_@@ 4
định_dạng 4
cà_phê 4
hồ_tiêu 4
vữ@@ 4
bảo_lưu 4
đạo_@@ 4
hướ@@ 4
kinh_tế_thị_trường 4
har@@ 4
gối_đầu 4
mạ 4
tầm_tã 4
vinh_dự 4
15/11 4
_trung_@@ 4
hương_hoa 4
9/2009 4
ăn_đủ 4
ard 4
trang@@ 4
bày_biện 4
ký_t@@ 4
03/2018 4
gõ 4
nấy 4
đất_đỏ 4
dắt 4
kiểm_nghiệm 4
4.0@@ 4
hấp_@@ 4
mảng 4
tố@@ 4
kim_loại 4
khoẻ_khoắn 4
loã 4
dây_@@ 4
luồn 4
ớ 4
zh@@ 4
phổ_@@ 4
toàn_cầu_hoá 4
chủ_t@@ 4
mít_tinh 4
dã 4
_tiên 4
vợt 4
tạm_ứng 4
nhường_nhịn 4
phản_ứng 4
èng 4
bỏng 4
io@@ 4
phiền_hà 4
qui_@@ 4
ẽ 4
tấm_tắc 4
quân_khu 4
nhà@@ 4
tôi_@@ 4
my@@ 4
huýt_sáo 4
ngụm 4
mớ 4
thanh@@ 4
đồ_vật 4
nông_cụ 4
14.000 4
6.000 4
quăng 4
bán_@@ 4
bênh_vực 4
cai_sữa 4
5,9% 4
chủ_nghĩa_cá_nhân 4
làm_vườn 4
biến_@@ 4
chin@@ 4
799 4
9.1 4
ông@@ 4
địa_danh 4
địa_@@ 4
chiếu_@@ 4
lạ@@ 4
xẩy 4
thảo_dược 4
thẳng_@@ 4
ụi 4
22.7 4
vá 4
nứt_@@ 4
thus 4
nem 4
un 4
đơm 4
_nh@@ 4
sinh@@ 4
trị@@ 4
sho@@ 4
i_tr@@ 4
cảng_vụ 4
may_mắn 4
siết 4
chỉnh_trang 4
any@@ 4
por@@ 4
vo@@ 4
kỉnh 4
cực_kỳ 4
taekwondo 4
mưa_dầm 4
mào 4
mar@@ 4
đầu_gối 4
quật 4
trên_dưới 4
lên_xuống 4
thu_giữ 4
tác_@@ 4
đại_bộ_phận 4
èo_@@ 4
gom 4
ob@@ 4
103 4
tối_mịt 4
cốt_lõi 4
đại_lễ 4
quyền_sở_hữu 4
xét_nghiệm 4
sơ_đồ 4
lữ 4
ngạc_nhiên 4
cứ@@ 4
dáng 4
bao_@@ 4
nó@@ 4
em_@@ 4
miền_xuôi 4
chế@@ 4
đóng_tàu 4
dịch_giả 4
dần_dần 4
nhân_t@@ 4
thả@@ 4
tuỳ_tùng 4
11/2010 4
cấy_@@ 4
vạn 4
nói_dối 4
_thức 4
8/2011 4
buôn 4
ls 4
tiểu_phẩm 4
cá_lăng 4
gur@@ 4
đứ@@ 4
100.000 4
văn_nghệ_sĩ 4
giấy_báo 4
nhập_học 4
dẹp 4
da_trời 4
lat@@ 4
váy 4
quan_ngại 4
cấu_kết 4
hoan_@@ 4
thú_@@ 4
độc_ác 4
sân_nhà 4
ghi_điểm 4
lêu_lổng 4
rượu_bia 4
chở 4
mũ 4
vọ@@ 4
tiền_sự 4
nóng_nực 4
ber@@ 4
ựng 4
vật_t@@ 4
chấn 4
vít 4
thước 4
trụ@@ 4
form 4
ộ@@ 4
dà@@ 4
cối_xay 4
diện_mạo 4
cạm_bẫy 4
trực_t@@ 4
bò@@ 4
sen@@ 4
công_ích 4
tượ@@ 4
nhà_sách 4
cáo_trạng 4
tinh_dầu 4
chỉnh_sửa 4
co_ro 4
fin@@ 4
ite 4
nguyên_chất 4
lông_t@@ 4
bọ_@@ 4
phiên_toà 4
tuyên_phạt 4
quân_dụng 4
toà 4
yết 4
2023 4
giú@@ 4
imb@@ 4
tuyến_giáp 4
6. 4
bốc_xếp 4
ốp 4
mồng 4
sờ@@ 4
phụ@@ 4
kho_bãi 4
8,8 4
mồ_côi 4
nhộn 4
tác_giả 4
òn 4
cương_lĩnh 4
đèo 4
giới_tính 4
hắn 4
lĩnh_@@ 4
điểm_nóng 4
kẻ_trộm 4
tuý 4
nịnh 4
8.1 4
50cm 4
luật_gia 4
lòng_trắng 4
phượng_hoàng 4
dễ@@ 4
nhận_xét 4
lãnh_thổ 4
dương_tính 4
chủ_nghĩa_@@ 4
700.000 4
thuộc_cấp 4
phụ_khoa 4
nuôi_cấy 4
tài_khoản 4
cuộc_đời 4
chấn_chỉnh 4
con_đẻ 4
260 4
nhà_thuốc 4
cam_sành 4
nghị_@@ 4
nhũn 4
hội_thoại 4
hano@@ 4
om@@ 4
800m 4
gà_công_nghiệp 4
bệnh_t@@ 4
đầu_cơ 4
tuỳ_tiện 4
thớt 4
nấm_hương 4
ầu_@@ 4
tự@@ 4
ẻo 4
tổng_sản_lượng 4
rót 4
xa_lạ 4
lẻ 4
330 4
tuỳ_thuộc 4
gắp 4
trôi_dạt 4
xấu_xa 4
mặt_nước 4
dị_vật 4
thao_thức 4
lưu_niệm 4
vặt 4
vết_thương 4
cắt_giảm 4
đũa 4
thế_chấp 4
nuốt 4
_thành_công 4
hài_lòng 4
650@@ 4
0,2% 4
cầu_truyền_hình 4
752 4
thế_lực 4
menu 4
bến_xe 4
yếm 4
đến_cùng 4
$@@ 4
2.7 4
quý_báu 4
bún 4
cá_tra 4
pháo 4
phất 4
dil@@ 4
tu_dưỡng 4
quản_lý_@@ 4
kiểm_đếm 4
cúi 4
óm 4
dừa 4
hỗn_láo 4
băn_khoăn 4
phát_tán 4
chánh_án 4
góc_độ 4
bén 4
gội 4
bừng 4
cưỡng_chế 4
đơn_giá 4
nhảy_nhót 4
vui_sướng 4
50kg 4
cân_nhắc 4
rè 4
che_đậy 4
làm_tròn 4
1/2010 4
xót 4
ng_lưới 4
tế_bào 4
gar@@ 4
phân_phát 4
sông_@@ 4
30/9 4
590 4
điện_năng 4
hộ_tịch 4
vẫy 4
chân_thành 4
cơ_giới 4
khấm_khá 4
khóm 4
n_tính 4
ss@@ 4
mẩy 4
phùng 4
khán_giả 4
cách_trở 4
bong_bóng 4
chấp_thuận 4
nghi_vấn 4
lừa_đảo 4
_tranh 4
phân_huỷ 4
hẹn 4
vả 4
lộn_xộn 4
vắt 4
thật_sự 4
chẵn 4
chất_béo 4
sản_phụ 4
dúm 4
chức_trách 4
mấu_chốt 4
lướt_ván 4
là_lạ 4
n_trưởng 4
liêm_chính 4
tính_tình 4
chật 4
chúng_mình 4
đăng_cai 4
398 4
21.000 4
công_ơn 4
trời_@@ 4
thi_viết 4
hầm 4
nhận_biết 4
biên_tập 4
ngải 4
giờ_đây 4
chữ_nhật 4
lưu_lượng 4
ngóc 4
cằn_cỗi 4
1.4 4
nhảm 4
cách_ly 4
hú 4
dốt 4
tiểu_vùng 4
nơi_@@ 4
ốn_@@ 4
sn@@ 4
lấy_@@ 4
cao_tốc 4
tương_thích 4
gạt 4
sử_dụng_@@ 4
vi_tính 4
mức_sống 4
ngắn_gọn 4
mặt_trái 4
nhào 4
hạ_l@@ 4
xà_lách 4
bay_lượn 4
tỏi 4
xấp_xỉ 4
áp_phích 4
siêng_năng 4
rón_rén 4
giao_hữu 4
bộc_lộ 4
tội_ác 4
máy_ủi 4
cây_lâu_năm 4
nước_đá 4
i_tiêu 4
có_ích 4
lùng_sục 4
thương_lái 4
móc_nối 4
tập_sự 4
ước_@@ 4
135.000 4
phát_quang 4
vững_chắc 4
nghi_lễ 4
đo_lường 4
pháp_quy 4
sán 4
âu_@@ 4
định_vị 4
loa_kèn 4
tự_tạo 4
bãi_tập 4
16% 4
kêu_la 4
gian_nan 4
sải 4
cẳng_chân 4
trailer 4
nhà_báo 4
tác_nghiệp 4
phê_bình 4
84% 4
4/5 4
5/4 4
doanh_số 4
ơi_@@ 4
làm_sao 4
đâu_đấy 4
mở_đường 4
1,1% 4
kép 4
bao_trùm 4
93 4
mù 4
mai_sau 4
võ_sĩ 4
dàn 4
nay_@@ 4
phương_thức_sản_xuất 4
cương_vị 4
cốc 4
góp_ý_kiến 4
thất_thoát 4
tiêu_hoá 4
As@@ 4
Bri@@ 4
BCĐ 4
sel 4
jar 4
kiêng 4
Cường 4
Trưởng 4
jong 4
TĐ 4
Châ@@ 4
BQL 4
ng_l@@ 4
Vương_@@ 4
Quân 4
Hu@@ 4
ìm 4
SX@@ 4
Châu_@@ 4
Âu 4
ĩ@@ 4
KHHGĐ 4
đĩ 4
xưng 4
niêu 4
ngao 4
HT@@ 4
chen 4
UV@@ 4
BTV 4
rum 4
Trong_@@ 4
DTTS 4
CSXH 4
TNT 4
pro 4
24/7 4
we 4
chor@@ 4
t-@@ 4
Nông_lâm 4
LĐ-TB 4
BO 4
PN 4
rắp 4
nhàn 3
rốt 3
mụ@@ 3
lớn_nhỏ 3
ẵ@@ 3
ém 3
lễ_tết 3
ườn 3
rách_@@ 3
rưới 3
chiến_@@ 3
giầu 3
ứt 3
rứt 3
ava 3
u_t@@ 3
oo@@ 3
quố@@ 3
kiểm_sát 3
tuột 3
lẩn_trốn 3
ero@@ 3
_sơn 3
cựu_binh 3
giống_@@ 3
ez@@ 3
hạm 3
nhở 3
lợn_@@ 3
rút_lui 3
ối_@@ 3
tậu 3
giật 3
ất_t@@ 3
mỉa_mai 3
giáo_dục_@@ 3
39.@@ 3
tăng_@@ 3
sạn 3
vàng_lá 3
sil@@ 3
còng 3
bạch 3
dột 3
xel 3
cần_@@ 3
a_s@@ 3
quan_chức 3
hồ@@ 3
ngơi 3
chăm_@@ 3
cơ_quan_@@ 3
nhức 3
sấm 3
bức 3
ể@@ 3
oà@@ 3
diều 3
tích_@@ 3
cực_@@ 3
c.@@ 3
gia_s@@ 3
òng 3
réo 3
ợn 3
máy_@@ 3
thoá@@ 3
5g 3
yn@@ 3
ờng 3
lam_@@ 3
dĩ_nhiên 3
lặ@@ 3
ụp 3
gan@@ 3
chiếu_bóng 3
có_thai 3
lẫn_lộn 3
mảnh_mai 3
dor@@ 3
nh_thánh 3
_chương 3
thần_linh 3
ường_tr@@ 3
khuôn 3
quây 3
kin@@ 3
rủi 3
thò 3
ét 3
ò@@ 3
hoàn_th@@ 3
trú@@ 3
uốt 3
lam@@ 3
chín_@@ 3
sến 3
nặ@@ 3
vùng_sâu_vùng_xa 3
zu@@ 3
awe@@ 3
toả 3
ướng_@@ 3
bảo@@ 3
kiếp 3
ờ@@ 3
i_trợ 3
còi 3
ino@@ 3
rẩy 3
tập@@ 3
hành_t@@ 3
tổn 3
i5 3
lầm 3
xác_chết 3
ố@@ 3
shu 3
nạt 3
dõi 3
khuôn_khổ 3
ội 3
đi_nữa 3
i_tác 3
đá_tảng 3
hiệu_trưởng 3
cao_trình 3
quá_tr@@ 3
nh_thức 3
aki 3
giết_hại 3
xẻ 3
anh_chị 3
kỳ_@@ 3
nghèo_@@ 3
hiện_trường 3
ãy 3
anp@@ 3
địa_hình 3
hạnh_nhân 3
mái_hiên 3
vũ@@ 3
fa@@ 3
cấ@@ 3
phút_chốc 3
sal@@ 3
ấp_úng 3
ẻm 3
82 3
ỷ_@@ 3
mé@@ 3
hoàn_trả 3
êu 3
lad@@ 3
ea_@@ 3
hoạn_nạn 3
tục_lệ 3
sọ 3
bộ_luật 3
ẻn 3
ờn 3
đói_nghèo 3
tiềm 3
chất_đốt 3
88@@ 3
war@@ 3
khẳng 3
khoá_@@ 3
tiễn 3
thu_@@ 3
vất 3
đấ@@ 3
end@@ 3
@gmail.com 3
tàn_phá 3
quàng 3
mút 3
vắng_vẻ 3
chủ_nhân 3
lắc 3
vật_học 3
pta 3
chim_sẻ 3
hời 3
què 3
1,0@@ 3
phục_@@ 3
dìu 3
lợn_nái 3
sử@@ 3
eh@@ 3
phức_hợp 3
lin@@ 3
97@@ 3
chì 3
dải_phân_cách 3
truong@@ 3
times 3
hé 3
đường_bay 3
mỉm 3
ey 3
ank 3
day 3
ans 3
đó@@ 3
tí 3
sam@@ 3
mải 3
bội 3
ứng_@@ 3
công_điện 3
vướng 3
ano 3
ys@@ 3
tại_sao 3
dưa_chuột 3
đội_trưởng 3
nạng 3
ăn_trộm 3
phóng_hoả 3
ỉnh 3
xó 3
tê_tê 3
tor@@ 3
ect 3
biểu_thị 3
iễn 3
thuỷ_thủ 3
y_tr@@ 3
lệ@@ 3
_tục 3
nứt_nẻ 3
zi 3
mụn 3
cách_thuỷ 3
giản_dị 3
lượm 3
sạch_@@ 3
elles 3
khủng 3
biện_@@ 3
tá@@ 3
t_tai 3
khe_@@ 3
42@@ 3
kei 3
hăng_hái 3
danh_thắng 3
đu_đủ 3
nic@@ 3
thườ@@ 3
đới 3
cám_ơn 3
nhẵn 3
bấy 3
khó_tính 3
che_lấp 3
ong_chúa 3
xa_@@ 3
trưở@@ 3
bal@@ 3
như_điên 3
nhởn_nhơ 3
bậ@@ 3
một_tí 3
đẩy_@@ 3
ân_t@@ 3
níu 3
lái 3
cuộn 3
445 3
hô_hấp 3
đánh_cá 3
83 3
chân_@@ 3
thạo 3
phản_đối 3
dam@@ 3
gó@@ 3
mãi_mãi 3
ư_d@@ 3
chào_@@ 3
cách_mạng_công_nghiệp 3
í@@ 3
thành_hình 3
nh_tr@@ 3
í_ới 3
and@@ 3
ử 3
sun@@ 3
ạnh_tr@@ 3
mus 3
chữ_thập 3
vun_@@ 3
phận 3
đăng_kí 3
kiệt_sức 3
ad 3
buồ@@ 3
lid@@ 3
ễ 3
ển 3
9.7@@ 3
vĩnh_viễn 3
thương_tật 3
cúng_bái 3
463 3
vội_vã 3
3,1 3
trẻ_@@ 3
giớ@@ 3
rình 3
thuốc_tiêm 3
lắc_lư 3
bàn_@@ 3
thăng_hạng 3
149@@ 3
ngoái 3
ma_quỷ 3
bế 3
ản 3
ràng 3
gìn 3
nhử 3
kẹt 3
ché 3
tham_mưu_trưởng 3
tex@@ 3
ter 3
trêu 3
ghẹo 3
iz@@ 3
gam@@ 3
ae 3
giường_bệnh 3
lề 3
hột 3
cửa_sổ 3
yeh 3
choàng 3
dịch_@@ 3
èo 3
cy 3
chối 3
now@@ 3
xẹp 3
biểu_mẫu 3
mừng_vui 3
đề_@@ 3
bab@@ 3
mẽ 3
ăn_xin 3
tan_nát 3
núp 3
vi_sinh_vật 3
trá@@ 3
p_tr@@ 3
nâ@@ 3
trắ@@ 3
live 3
sơ_bộ 3
chăn_gối 3
định_canh 3
ồm 3
cằm 3
chăm_nom 3
đường_hướng 3
tư_cách 3
xạ 3
bứt 3
xuất_huyết 3
bàn_bạc 3
tth@@ 3
giấm 3
đúng_sai 3
kèo 3
mịt_@@ 3
nồi 3
buồn_rầu 3
trần_truồng 3
thanh_mai 3
no_nê 3
iềng 3
thực_th@@ 3
m_th@@ 3
180@@ 3
tiêu_đề 3
khẩ@@ 3
as 3
vòng_quanh 3
ăn_mặc 3
cứa 3
chăm_chăm 3
an_tâm 3
ae@@ 3
phụ_gia 3
ement 3
thế_kỷ 3
cao_thấp 3
_tịch 3
hít 3
ngũ_@@ 3
loạ@@ 3
mĩ 3
hướng_@@ 3
vụng_về 3
iề@@ 3
ngất 3
xã_hội_@@ 3
nob@@ 3
thông_tin_@@ 3
róc_rách 3
xảo_@@ 3
bướ@@ 3
quo@@ 3
quản_trị 3
thầy_mo 3
ùm 3
agu@@ 3
quản_lí 3
rộ 3
trọng_t@@ 3
u_l@@ 3
vò 3
thoại 3
sat@@ 3
thi_trắc_nghiệm 3
nhà_thi_đấu 3
thưa_thớt 3
búa 3
you 3
vision 3
đốc_@@ 3
ngư_nghiệp 3
hợp@@ 3
bong_gân 3
15/3 3
cò 3
cho_nên 3
phóng_thích 3
bí@@ 3
đại_đa_số 3
ngồi_bệt 3
khôn_lớn 3
chung_thuỷ 3
_hơi 3
khái_niệm 3
cảm_ơn 3
hoại_tử 3
đoạ@@ 3
đá@@ 3
vờ 3
bắt_chước 3
âm_hộ 3
vẩy 3
nở_rộ 3
tự_quyết 3
cữ 3
boo@@ 3
táp 3
thuốc_độc 3
giang_sơn 3
đăng_tải 3
lên_án 3
loé 3
mở_đầu 3
dỗ_dành 3
bươ@@ 3
hốt_hoảng 3
tham@@ 3
tạm_trú 3
ưu_việt 3
nòi 3
thời_đại 3
gor@@ 3
ngươi 3
đom_đóm 3
thắc_mắc 3
lọc 3
ểu 3
nghĩ@@ 3
sưởi 3
sũng 3
nón_@@ 3
dúi 3
mm@@ 3
blog 3
ỉa_@@ 3
kịt 3
471 3
town 3
dẹt 3
nền_tảng 3
méo_mó 3
nhí 3
ger@@ 3
phiền_muộn 3
bắp_chân 3
cây_lương_thực 3
giấy_@@ 3
vút 3
đại_hội_đồng 3
rườm_rà 3
dồi_dào 3
phục_kích 3
mào_gà 3
187 3
xx@@ 3
ist 3
thiệt_thòi 3
cầu_treo 3
địa_lý 3
làm_gương 3
è 3
khoai_môn 3
hoa_văn 3
mồ_hôi 3
sườn 3
nầy 3
băng_huyết 3
dường_như 3
nhiễm_trùng 3
trans@@ 3
cent 3
78@@ 3
lá_m@@ 3
tư_thục 3
ôn_đới 3
thương_hàn 3
lượn 3
nước_mắt 3
họ_hàng 3
gom@@ 3
khuyên_bảo 3
ảm_@@ 3
2/2017 3
chol@@ 3
chùng 3
nháy 3
buồn_bã 3
mệt 3
đắt_đỏ 3
trỏ 3
oằn 3
mời_thầu 3
lỏng_lẻo 3
chó_săn 3
vồ 3
_hung 3
bầu_chọn 3
mượt_mà 3
sánh 3
a_trời 3
vắcxin 3
quên 3
khô_khan 3
nhiễu 3
vót 3
quân_nhân 3
.vn 3
làm_@@ 3
viện_@@ 3
10.0@@ 3
tươi_cười 3
quắt 3
khô_cằn 3
nhỏ_xíu 3
m_xuê 3
mô_phỏng 3
rái_cá 3
nhục 3
ghen_tị 3
nghịch 3
nín 3
nhuộm 3
chang 3
ef 2
rốn 2
ngay@@ 2
nghĩa_quân 2
viết_@@ 2
tối_tăm 2
nh_tế 2
amin@@ 2
xuê 2
vòng_@@ 2
cuộc_@@ 2
tha_@@ 2
phương_@@ 2
cầu_th@@ 2
a_đ@@ 2
vốn_@@ 2
đoạt 2
cúc 2
già_@@ 2
gn@@ 2
sát_nhân 2
est@@ 2
nhấc 2
lán 2
ẵn 2
_tài 2
iễm 2
ế_th@@ 2
elec@@ 2
cỗ 2
tze 2
thượng_th@@ 2
môn_@@ 2
gu 2
đau_đớn 2
giựt 2
rad@@ 2
bru@@ 2
vạn_@@ 2
ĩa 2
phản_chiếu 2
tạo_lập 2
rùng_@@ 2
rùng_mình 2
đã@@ 2
đàm 2
giao_@@ 2
hỏ@@ 2
tình_t@@ 2
giam_cầm 2
2026 2
báo_viết 2
nhụt 2
_thiết 2
thoang_thoảng 2
nghỉ@@ 2
óc_@@ 2
hoá_@@ 2
bán_kính 2
sch@@ 2
ili 2
tốt_@@ 2
thép 2
đường_cát 2
ưởi_@@ 2
công_danh 2
chúng_@@ 2
dứt 2
tặc 2
hò 2
đưa_@@ 2
yêu_@@ 2
cầu_thủ 2
tài_@@ 2
sor@@ 2
chua_chua 2
iêng_@@ 2
tái_@@ 2
học_@@ 2
xã_phường 2
buýt 2
mặ@@ 2
thu_phát 2
trạ@@ 2
m_trưởng 2
bác_bỏ 2
1996 2
sự_tình 2
ộn 2
ppi 2
công_giáo 2
khóc_lóc 2
để_dành 2
lập_công 2
bánh_@@ 2
đồ_@@ 2
mes 2
chb@@ 2
thăm_thẳm 2
hình_nhân 2
với_lại 2
vụn 2
tròng 2
tình_cảnh 2
lí@@ 2
đối_diện 2
ọn 2
ổng_@@ 2
chổng 2
bol@@ 2
mặc_@@ 2
_lực 2
thông_@@ 2
ợ_@@ 2
ả_l@@ 2
ếu 2
gun@@ 2
thấp_thoáng 2
đám_cưới 2
bập 2
thề 2
id 2
ez 2
ấ 2
vốn_dĩ 2
25m 2
nhữ@@ 2
lãnh_@@ 2
dưỡ@@ 2
rừng_núi 2
nhã@@ 2
_ý 2
way@@ 2
xụp 2
bour@@ 2
cục_@@ 2
thét 2
ân_tr@@ 2
ăm_@@ 2
259 2
ao_t@@ 2
hài 2
cer@@ 2
áo_quần 2
xịt 2
nhiễ@@ 2
chải 2
ros@@ 2
của_@@ 2
trò@@ 2
86@@ 2
oét 2
không_tr@@ 2
ách_@@ 2
tú@@ 2
bou@@ 2
enn@@ 2
iếm_@@ 2
222 2
sco@@ 2
dư_thừa 2
thừa_thãi 2
ến 2
mà_lại 2
công_phá 2
thể_chất 2
chùi 2
dz@@ 2
awa 2
bé_nhỏ 2
chủ_nghĩa 2
giấc 2
cand@@ 2
trải_nghiệm 2
rôm 2
đầu_cuối 2
trầy 2
bối 2
bốc 2
mẻ 2
xả@@ 2
351 2
pay 2
ắc_@@ 2
táo 2
tom 2
gà@@ 2
109@@ 2
thẳng_tắp 2
bao_phủ 2
dắt_@@ 2
_học_@@ 2
gương_@@ 2
hù@@ 2
dải 2
thuộ@@ 2
qua_ngày 2
dàng 2
khoắng 2
cho_@@ 2
65@@ 2
fi@@ 2
ms 2
ong@@ 2
oria 2
lồ@@ 2
ìa 2
ai_ai 2
cập_@@ 2
bell@@ 2
đòi 2
1941 2
nắng_@@ 2
hung_@@ 2
học_s@@ 2
bil@@ 2
1936 2
1940 2
tuỵ 2
sap@@ 2
bau@@ 2
gh 2
trưởng_@@ 2
xà_@@ 2
tổng_quát 2
ngạc 2
hiểm_hoạ 2
1950 2
zone 2
sự_@@ 2
ngộ 2
kia_@@ 2
áp_@@ 2
49,@@ 2
chap@@ 2
nẻ 2
rạn_nứt 2
ýt 2
qui_hoạch 2
und@@ 2
cao_nguyên 2
giờ@@ 2
ppa 2
chất_@@ 2
lượng_@@ 2
ở_h@@ 2
ầ@@ 2
ushu 2
sữa_tươi 2
buộ@@ 2
giập 2
trăm_nghìn 2
ài 2
body 2
đặc_dụng 2
ẳ@@ 2
bãi_tắm 2
rich 2
dad 2
ab 2
tz@@ 2
bói 2
tộ@@ 2
ún 2
_hình_@@ 2
trâu_@@ 2
ngố 2
gỡ 2
bấy_nhiêu 2
phong_lưu 2
thanh_tr@@ 2
tín_@@ 2
ng_tượng 2
cún 2
sụt 2
mó@@ 2
viễn_@@ 2
rào_chắn 2
sờ 2
uỷ@@ 2
dân_thường 2
rớt 2
ghì 2
nay@@ 2
chế_@@ 2
hội_đồng_@@ 2
omyia 2
ự@@ 2
gắt_gao 2
3/2015 2
tube 2
fly@@ 2
fl@@ 2
ngấy 2
đen_trắng 2
gy@@ 2
nấu_nướng 2
học_t@@ 2
ập_viên 2
ì_th@@ 2
ế_@@ 2
iana 2
phục_chức 2
c_tr@@ 2
2050 2
you@@ 2
vị@@ 2
ừa 2
di_@@ 2
1967 2
o_l@@ 2
số_@@ 2
làm_bạn 2
diễ@@ 2
võ@@ 2
bird 2
giá_trị@@ 2
747 2
út_@@ 2
qua@@ 2
vis@@ 2
nấm_rơm 2
zombie 2
xia 2
búa_@@ 2
triều_chính 2
công_tr@@ 2
aku@@ 2
xê 2
tiến_quân 2
đầu_sách 2
510 2
bảo_t@@ 2
tốn 2
đích_@@ 2
tích_luỹ 2
luỹ 2
nhiêu_@@ 2
cáp 2
ink 2
rình_@@ 2
35,@@ 2
met@@ 2
xanh_lam 2
ẽn 2
giả_dối 2
đó_đây 2
06@@ 2
trống_@@ 2
04/2018 2
buôn_bán 2
ẹo 2
chức_vị 2
ưởi 2
p_th@@ 2
mag@@ 2
ngọt_@@ 2
1954 2
yev 2
icon 2
amine 2
80kg 2
kị@@ 2
td 2
137 2
mis@@ 2
ná 2
nép 2
km@@ 2
đệ@@ 2
mea 2
ũng 2
ểnh 2
lộng_lẫy 2
hung_t@@ 2
bb 2
văng 2
giết_@@ 2
ổ_@@ 2
lắng_đọng 2
ắ 2
nực 2
quả_nhiên 2
đóng_@@ 2
ool@@ 2
thủ_@@ 2
cỗi 2
lẩ@@ 2
vết_@@ 2
chàm 2
ững 2
nấp 2
đổi_@@ 2
ey@@ 2
uk@@ 2
gata 2
sắ@@ 2
xá@@ 2
đậ@@ 2
đời_đời 2
nhím 2
nôm_na 2
pan 2
light 2
ẻ_l@@ 2
muộ@@ 2
sub@@ 2
52,@@ 2
quản_@@ 2
tưở@@ 2
sùng_sục 2
nhờ@@ 2
las@@ 2
võ_sỹ 2
công_trình_@@ 2
lợn_thịt 2
sio 2
mun 2
mịt 2
van@@ 2
biến_thiên 2
người_d@@ 2
142 2
xuôi_@@ 2
ngoà@@ 2
nap@@ 2
dỗ 2
khé@@ 2
lone 2
thảm 2
ồ_@@ 2
ser@@ 2
alo@@ 2
bản_@@ 2
xứ 2
_thí 2
hiế@@ 2
eta 2
nạc 2
đườ@@ 2
kiểm_@@ 2
ực_@@ 2
sáng_sủa 2
lúa_gạo 2
eri@@ 2
ell 2
cán_@@ 2
bộ@@ 2
ọt 2
phong_lan 2
măng_@@ 2
es 2
350@@ 2
tor 2
đội_@@ 2
ừng 2
sơ_sinh 2
chân_thật 2
nhà_bếp 2
động_từ 2
ương_t@@ 2
nh_thành 2
nhắm 2
jet@@ 2
căn_bệnh 2
dự_@@ 2
oz 2
oanh 2
tiể@@ 2
ic 2
etia 2
lửng 2
âm_t@@ 2
ướng 2
hiện_giờ 2
bước_tiến 2
dấ@@ 2
ặng 2
hoạch_@@ 2
ần_@@ 2
tò_vò 2
hãi 2
kinh_hãi 2
tiểu_tiện 2
slo@@ 2
ina 2
men@@ 2
ves@@ 2
10,9 2
ass@@ 2
mon@@ 2
mái_chèo 2
chèo 2
nước_lọc 2
kiện_@@ 2
ật 2
chủ_sở_hữu 2
đoàn_@@ 2
mỏi 2
ân_hận 2
thành_th@@ 2
uộc 2
hổ_mang 2
lẽo 2
giám_@@ 2
phân_đoạn 2
nhà_kho 2
tiểu_th@@ 2
ủ_@@ 2
giao_hợp 2
fr@@ 2
aea 2
ậm 2
ani 2
bar@@ 2
ns@@ 2
nhất_quyết 2
nhũ@@ 2
giăng 2
quệt 2
dí 2
diệu 2
gal@@ 2
gos 2
hi 2
_văn 2
zz@@ 2
ker 2
huống 2
@@@ 2
chước 2
bị_động 2
eci@@ 2
biết_ơn 2
thiết_@@ 2
toàn_quyền 2
xác_@@ 2
nhận_@@ 2
sự_vụ 2
trơ_tr@@ 2
cúp 2
ầm_ĩ 2
99@@ 2
mồ@@ 2
stel@@ 2
gian_@@ 2
nước_mắm 2
tồi 2
tội_danh 2
bài_tập 2
truyền_th@@ 2
ối 2
dũng_sĩ 2
i_trò 2
vắ@@ 2
28.@@ 2
kỉ 2
chỉnh_@@ 2
dạt 2
ục_gia 2
đăng_@@ 2
ký_@@ 2
một_nửa 2
rus 2
kích_cỡ 2
cuộ@@ 2
ch_choè 2
ben 2
xít 2
4.9@@ 2
dạn 2
son@@ 2
phộng 2
ngợi 2
tắc_kè 2
vs 2
so_đo 2
bú@@ 2
ngự@@ 2
dẫn_@@ 2
nhót 2
chính_th@@ 2
đen_kịt 2
thổ 2
nhọn 2
nhọn_hoắt 2
hoắt 2
tec@@ 2
bọc 2
méo 2
ror@@ 2
vơi 2
can@@ 2
a.@@ 2
inh@@ 2
dào 2
ghé 2
đời_@@ 2
sống_@@ 2
tụ 2
ực_hoá 2
éc 2
đồng_hiện 2
con_nít 2
nít 2
server 2
tròn_@@ 2
đành 2
xong_xuôi 2
số_là 2
hiếu 2
mann 2
san@@ 2
hờn 2
634 2
bệ 2
256 2
ặn_đ@@ 2
hiện_t@@ 2
ps@@ 2
phí_@@ 2
ích_@@ 2
ser 2
thục 2
nor@@ 2
af@@ 2
nhận_lời 2
fo@@ 2
màu_@@ 2
động_học 2
người_@@ 2
tuyển_sinh 2
hân_hoan 2
itz@@ 2
kii 2
cod@@ 2
dle 2
khí_thải 2
ngoại_trừ 2
lọ@@ 2
kết_th@@ 2
u_đ@@ 2
ống_t@@ 2
chủ_hộ 2
ảm 2
àn_@@ 2
kun@@ 2
ef@@ 2
ell@@ 2
nhấp_nháy 2
gấp_rút 2
vé 2
mẹ_@@ 2
để_chế 2
ốc 2
gồng 2
ẹp_@@ 2
452 2
nhấm 2
oshi@@ 2
apic@@ 2
qui@@ 2
eri 2
rén 2
lad 2
công_ăn_việc_làm 2
ij@@ 2
đưa_tiễn 2
ith@@ 2
nguyê@@ 2
ader 2
nuôi_thả 2
bằ@@ 2
bei 2
bị@@ 2
dien@@ 2
n_thành 2
khiếu 2
uni@@ 2
chộp 2
cổ@@ 2
wiki@@ 2
hệ_thống_@@ 2
quáng 2
cr@@ 2
dit@@ 2
khống 2
sẵ@@ 2
àng_@@ 2
em_trai 2
lo_toan 2
lov@@ 2
ice 2
khoáng 2
điển_@@ 2
hình_t@@ 2
TBT 2
LĐTB 2
nhàn_hạ 1
thảnh_thơi 1
t.@@ 1
náu 1
xâu_chuỗi 1
lễ_t@@ 1
ết_@@ 1
iển_@@ 1
xua 1
ngò 1
tường_bao 1
phương_pháp_@@ 1
kinh_tế@@ 1
axit_@@ 1
n_thiết 1
és 1
luẩn_quẩn 1
vừa_@@ 1
trợ_@@ 1
trông_@@ 1
tiếp_@@ 1
ực 1
nhàng 1
giương 1
chội 1
giao_th@@ 1
vay_lãi 1
don@@ 1
ders 1
mạt_@@ 1
605 1
lều 1
ás 1
hải_@@ 1
tụt 1
vuột 1
nần 1
lập_tức 1
đối_phương 1
wat 1
con_nhỏ 1
nhiệm_chức 1
ng_tính 1
jaya 1
dio@@ 1
vôi_@@ 1
ải_@@ 1
sinh_từ 1
tuổi_thọ 1
chuyên_@@ 1
trước_tiên 1
mái_tóc 1
tit 1
đươc 1
kì_@@ 1
tuỳ_t@@ 1
da_@@ 1
cấm_chỉ 1
c_s@@ 1
ch_s@@ 1
găng_tay 1
ra_hiệu 1
đèn_chiếu 1
bóng_@@ 1
ej@@ 1
cơ_học 1
nhập@@ 1
cao_sản 1
dox 1
thắt_lưng 1
dùi_cui 1
vững_@@ 1
thuyết 1
rủa 1
ngào_ngạt 1
tiền_đề 1
rền 1
ném 1
533 1
000@@ 1
mặt_phẳng 1
thênh_thang 1
rượu_mạnh 1
vại 1
doanh_@@ 1
văn_công 1
cảnh_@@ 1
báo_động 1
thèm 1
n_đủ 1
đồng_tử 1
tran@@ 1
mừng_@@ 1
quý@@ 1
rữa 1
thị_thành 1
n_tạo 1
oka 1
sếp 1
tiếp_viện 1
tù_và 1
lang_quân 1
úm 1
vè 1
phần_@@ 1
_sĩ 1
6g 1
ngoại_vi 1
rảnh_@@ 1
từ_học 1
giáo_dân 1
đi_tiêu 1
720@@ 1
dg@@ 1
quan_t@@ 1
trình_@@ 1
lén_lút 1
than_@@ 1
4000 1
iv@@ 1
ase 1
bì_bõm 1
đợi_chờ 1
ngóng 1
thanh_danh 1
khốn 1
nhắn_tin 1
cu_@@ 1
ưu_t@@ 1
nữ_tướng 1
thư_tay 1
đi_@@ 1
nhà_hàng 1
ông_th@@ 1
ối_tr@@ 1
phương_diện 1
ảy 1
nức 1
lừng 1
_tâm 1
ệt 1
chế_tạo 1
zab@@ 1
ổi_@@ 1
cou@@ 1
lom@@ 1
2.11 1
học_thuyết 1
ee 1
kích_th@@ 1
ngon_giấc 1
toang 1
ford 1
thể_th@@ 1
ao_động 1
chuyển_@@ 1
dậ@@ 1
len_l@@ 1
đút 1
vòi_nước 1
ấm_t@@ 1
hel@@ 1
je 1
uỷ_@@ 1
xổ 1
nh_tra 1
vóc_dáng 1
166 1
275 1
ức_thiết 1
huỷ_hoại 1
ôtô 1
bà_@@ 1
giữ@@ 1
_cư 1
cay@@ 1
lòng_đỏ 1
quả_th@@ 1
ngỗng 1
mở_màn 1
nữ@@ 1
vết_tích 1
kỹ@@ 1
ật_t@@ 1
hoa_lan 1
yếu_ớt 1
củng_@@ 1
cố@@ 1
canxi 1
bề@@ 1
bồng 1
nguyền 1
dav@@ 1
pp 1
quát_mắng 1
thấu 1
úng_ngập 1
triều_cường 1
giày 1
cỏi 1
thua_kém 1
trăng_@@ 1
35.@@ 1
sinh_động 1
để_ý 1
mất_hút 1
u_hiu 1
xì_@@ 1
ý_@@ 1
ngà_@@ 1
176 1
gnac 1
công_chứng 1
vón 1
ưa_@@ 1
ẽo_@@ 1
val@@ 1
ent@@ 1
cây_cảnh 1
nà@@ 1
xoá_@@ 1
giảm_@@ 1
der 1
lib@@ 1
sol@@ 1
443 1
tộc_người 1
thời_cơ 1
xà_beng 1
var@@ 1
ổm 1
zer@@ 1
binh_sĩ 1
560 1
công_nguyên 1
cút 1
ng_tàu 1
thất_th@@ 1
bên_bị 1
hiể@@ 1
xe_hàng 1
403 1
sia 1
mau_chóng 1
ỏm 1
cọ 1
enburg 1
nhu_@@ 1
sạt 1
fe@@ 1
anth@@ 1
875 1
khánh 1
bố@@ 1
í_@@ 1
uổi 1
rã 1
nghiêng_ngả 1
biên_đội 1
rác_r@@ 1
nghiệt 1
170@@ 1
524 1
zen@@ 1
onia 1
bặm 1
ười 1
hành_hình 1
pel@@ 1
vas 1
thất_tình 1
sz@@ 1
acid 1
tắm_rửa 1
eries 1
dát 1
nội_ngoại 1
sao_@@ 1
nằm_xuống 1
chôn_@@ 1
au_@@ 1
cắt_@@ 1
kỹ_thuật_@@ 1
cố_tình 1
u_tố 1
dân_công 1
488 1
abi@@ 1
nhẫn 1
vắng_t@@ 1
king@@ 1
fan@@ 1
ow 1
ọng 1
chui_@@ 1
vóc 1
chọ@@ 1
mầu_@@ 1
dìu_dắt 1
loạng_choạng 1
vịt_trời 1
biểu_@@ 1
xóm_@@ 1
377 1
giun_sán 1
hoa_@@ 1
lý_hoá 1
cây_bút 1
bút_bi 1
vốn_tự_có 1
hồn 1
thông_đồng 1
bạch@@ 1
xuý 1
xinh_tươi 1
tenu@@ 1
cất_cánh 1
dua 1
hyd@@ 1
key@@ 1
thân_thể 1
truyền_giáo 1
xở 1
ngờ 1
hói 1
bà_cụ 1
mị 1
_thông 1
xuố@@ 1
ash@@ 1
toàn_cầu 1
chui 1
nằng_nặc 1
đồng_lương 1
4.2017 1
city 1
park 1
ill 1
mium 1
nữ_công 1
giặt_giũ 1
ve_@@ 1
ler 1
á_@@ 1
ị_trường 1
8/2018 1
han@@ 1
215 1
2.7@@ 1
nhịn 1
càng_@@ 1
ãnh 1
phản_@@ 1
ị_@@ 1
118@@ 1
tạng 1
mường 1
xe_lăn 1
vua 1
lac@@ 1
rượ@@ 1
ó_@@ 1
dem@@ 1
ir 1
a_tình 1
_thuật 1
tái_phát 1
mẫn 1
ach@@ 1
ens 1
of@@ 1
mam@@ 1
đầm_đìa 1
hách 1
phiền_não 1
h4 1
liên_t@@ 1
a_h@@ 1
agh@@ 1
sưng_@@ 1
vù 1
ần 1
hình_dung 1
tuyể@@ 1
36.@@ 1
đầy_đặn 1
lý_@@ 1
tía 1
218 1
ớp 1
led 1
ounds 1
ướp_@@ 1
trứng_cá 1
nám 1
2000@@ 1
ẽo 1
lau@@ 1
tia_sáng 1
thiêu_đốt 1
phái_@@ 1
oni@@ 1
tta 1
561 1
toán_học 1
busin@@ 1
ess 1
oor 1
lâm_nguy 1
mát_rượi 1
cù@@ 1
trạng_@@ 1
đán 1
đạp 1
ce@@ 1
tháng_ngày 1
_thể_hoá 1
íu 1
khôn_khéo 1
stone 1
ppy 1
hiệp_hội 1
dáng_dấp 1
sần_sùi 1
nhẵ@@ 1
n_nh@@ 1
bổ_túc 1
săn_bắt 1
nhẩm 1
ruy_băng 1
3000 1
tạnh 1
sớm_@@ 1
xã_hội_học 1
thanh_th@@ 1
ati@@ 1
ban_công 1
một_phép 1
$ 1
n_nhơ 1
tuột_dốc 1
đặc_@@ 1
biệt_@@ 1
yc@@ 1
ựa 1
mòn 1
qua_@@ 1
khai_tr@@ 1
iển 1
đặn 1
níu_kéo 1
rus@@ 1
emb@@ 1
ặc_@@ 1
sữa_chua 1
thuế_@@ 1
chắc_chắn 1
chậu 1
sờ_s@@ 1
sản_khoa 1
ló@@ 1
_hội_@@ 1
chọi 1
súng_@@ 1
dan@@ 1
thông_thạo 1
thành_thạo 1
sớm_muộn 1
ồn_l@@ 1
tổ_hợp 1
sex 1
cro@@ 1
ber 1
cli@@ 1
chán_ngán 1
xanh_@@ 1
giáo_án 1
1,1 1
micro@@ 1
ngoa 1
ban_phát 1
lâu_lâu 1
bĩu 1
trọng_trách 1
tun 1
n_đưa 1
quyết_t@@ 1
dầm 1
wil@@ 1
kes@@ 1
công_lý 1
xuyệt 1
sở_@@ 1
n_tập 1
ridae 1
cách_mạng_@@ 1
iệp 1
trai_gái 1
mặt_@@ 1
99.@@ 1
pop 1
vào_sổ 1
trí_óc 1
_trình 1
cữu 1
od@@ 1
con_nước 1
nốt_nhạc 1
tinh_giảm 1
tháo_lắp 1
õi 1
193 1
sú@@ 1
hoàn_hồn 1
thái_@@ 1
ắng 1
ep@@ 1
ré@@ 1
og@@ 1
*@@ 1
nệm 1
v.@@ 1
ật_@@ 1
cung_@@ 1
ông_xã 1
tuýp 1
iểm 1
33.@@ 1
gia_đ@@ 1
nh_tượng 1
hú@@ 1
chúng_t@@ 1
xát 1
chính_điện 1
bội_phần 1
more 1
6.3 1
329 1
ấc 1
oàng 1
azette 1
thành_tài 1
thon_th@@ 1
loba 1
aho@@ 1
nail 1
linh_@@ 1
ăng_t@@ 1
gàng 1
nội_trợ 1
thương_trường 1
tion 1
maz@@ 1
nov 1
căn_@@ 1
ago@@ 1
đâm_đơn 1
vs@@ 1
chuối_tiêu 1
cú@@ 1
quần_đảo 1
khoe_khoang 1
pot 1
med 1
hồng_@@ 1
dâu_@@ 1
ir@@ 1
ái_t@@ 1
màng_nhĩ 1
file 1
đồn_đ@@ 1
hữ@@ 1
nhân_tâm 1
lav@@ 1
ngư_cụ 1
tự_phát 1
dổi 1
lắc_@@ 1
chân_t@@ 1
sex@@ 1
tuber@@ 1
clip@@ 1
số_một 1
ngoảnh 1
giao_phối 1
2.8@@ 1
4/2008 1
giám_khảo 1
eo@@ 1
pháp_hoá 1
lừa 1
giả_mạo 1
n_thu 1
tiến_triển 1
2.800 1
ghè 1
dio 1
mac@@ 1
80.000 1
kỳ_lạ 1
trêu_chọc 1
des@@ 1
kết_giao 1
vas@@ 1
cz@@ 1
giải_@@ 1
ết_th@@ 1
đẩ@@ 1
giường_@@ 1
sở@@ 1
gũi 1
chưng_@@ 1
cửa_mở 1
mit@@ 1
ên_th@@ 1
nói_@@ 1
chồng_con 1
nghệ_sĩ 1
ann@@ 1
ép_buộc 1
y_án 1
gộp 1
tress 1
váy_áo 1
váy_ren 1
pháp_chế 1
văn_chương 1
xuy@@ 1
rực 1
phé@@ 1
cậ@@ 1
set 1
phủ_nhận 1
trôi_@@ 1
nổi_@@ 1
ick@@ 1
sti@@ 1
9,4 1
aman@@ 1
dova 1
rợn 1
911 1
ba_gác 1
hất 1
20h 1
ký_sự 1
lề@@ 1
_luật 1
ưa_th@@ 1
lực_lượng_@@ 1
làm_lành 1
pos@@ 1
low 1
uc@@ 1
xuất_tinh 1
kiện_tụng 1
mấy_@@ 1
bốn_@@ 1
ems 1
gói_@@ 1
phát_t@@ 1
nhưng_mà 1
iêu_th@@ 1
call 1
dịch_thuật 1
ráp 1
lử@@ 1
mới_@@ 1
chày 1
giao_du 1
giao_kết 1
mạo 1
ula 1
nat@@ 1
gạ@@ 1
than@@ 1
chì@@ 1
đen@@ 1
đôi_@@ 1
giúp_ích 1
phế 1
triệu_@@ 1
té@@ 1
ines 1
súng_l@@ 1
iên_th@@ 1
lăng_@@ 1
giờ_phút 1
thy 1
etta 1
ngóc_ngách 1
tít 1
mù_t@@ 1
chim_cút 1
2,7 1
nới 1
mục_@@ 1
pter@@ 1
biển_hiệu 1
đàn_áp 1
ut@@ 1
dor 1
tay_@@ 1
vi_rút 1
pháp_sư 1
dung_thứ 1
len@@ 1
đĩa 1
wo@@ 1
oro 1
gò_má 1
gy 1
giải_nghệ 1
bs 1
nhà_rường 1
hợp_t@@ 1
k.@@ 1
ides 1
ích@@ 1
tâm_t@@ 1
sư_@@ 1
nho_@@ 1
xấu_hổ 1
trả@@ 1
iệng 1
vô_trách_nhiệm 1
116@@ 1
dấm 1
edo@@ 1
7/7 1
thứ_hạng 1
thất_thanh 1
khảo_@@ 1
ngoại_tình 1
11/2016. 1
_học 1
nảy_@@ 1
cược 1
ớc 1
châm_chọc 1
chệch 1
nghỉ_phép 1
624 1
mờ_mịt 1
èm 1
3.9@@ 1
113 1
i3 1
i10 1
let 1
4.11 1
ể_@@ 1
dạy_dỗ 1
nhổ 1
hạ_tầng_cơ_sở 1
khéo_léo 1
chân_không 1
ởi 1
nhũng 1
tiễ@@ 1
nak@@ 1
bike 1
xó@@ 1
ở_hữ@@ 1
u_trí 1
gall@@ 1
etti 1
có_thể@@ 1
cứu_@@ 1
rổ 1
dia 1
389 1
bon@@ 1
....@@ 1
chiến_thắng 1
69@@ 1
20,@@ 1
neri 1
ata 1
_dân 1
lên_@@ 1
quẳng 1
ão 1
_hợp 1
ail@@ 1
3/4 1
dù_sao 1
luật_quốc_tế 1
sàn_@@ 1
ượ@@ 1
mặt_phố 1
cẩn_trọng 1
gis 1
quản_gia 1
a_hoá 1
danh_thủ 1
tư_sản 1
chốc_lát 1
117 1
miế@@ 1
lãng 1
line 1
nhân_tr@@ 1
lãnh_sự 1
kén_chọn 1
745 1
smart@@ 1
shop 1
bắt_@@ 1
biến_hình 1
vẹn 1
phổ@@ 1
bỗng_chốc 1
anh_chàng 1
mập 1
mưa_gió 1
vì@@ 1
lie 1
nịnh_@@ 1
work@@ 1
thói 1
vệ@@ 1
miệ@@ 1
vì_cầu 1
tới_t@@ 1
đâm_chém 1
mái_@@ 1
trừ@@ 1
phượng 1
chẳng_lẽ 1
có_dễ 1
quả_@@ 1
phủ@@ 1
ày_@@ 1
riêng_biệt 1
công_nông 1
ổn_@@ 1
gối_@@ 1
ém_@@ 1
ắn 1
ăn_vụng 1
ova 1
hôn_mê 1
bất_tỉnh 1
ngất_xỉu 1
tang_lễ 1
xử_lí 1
cộng_hoà 1
thật_ra 1
hội_kiến 1
khái_quát 1
gậy 1
sòng 1
án_@@ 1
lé@@ 1
ước_t@@ 1
n_sỹ 1
hir@@ 1
ệ_thống 1
op 1
kỹ_nghệ 1
chil@@ 1
sơ_lược 1
ăn_mừng 1
fun 1
thử@@ 1
rãi 1
may@@ 1
ẳ 1
nệ 1
sou@@ 1
hứ@@ 1
chắc_ăn 1
kết_tội 1
bủn_rủn 1
mềm_@@ 1
toà_soạn 1
khiếp 1
kinh_sợ 1
đùn 1
viếng_thăm 1
mang@@ 1
rom@@ 1
tina 1
cụp 1
461 1
thanh_kiểm_tra 1
trăng_tròn 1
đại_bàng 1
quạ 1
thăm_@@ 1
viế@@ 1
ido@@ 1
moo@@ 1
loan_@@ 1
40km 1
eira 1
bào_mòn 1
och@@ 1
mono@@ 1
chrome 1
quản_giáo 1
mền 1
chiến_đ@@ 1
ấu_tr@@ 1
tiếp_giáp 1
quân_y 1
anh_t@@ 1
ffer 1
kết_t@@ 1
tiến_@@ 1
ví@@ 1
like 1
cup 1
dân_th@@ 1
bái 1
lạnh_lẽo 1
ạy 1
ack 1
cel@@ 1
sii 1
vuốt_ve 1
thôi_@@ 1
phối_@@ 1
nội_@@ 1
hội_sở 1
boy@@ 1
lặp 1
vac 1
15/6 1
16/3 1
thị_phần 1
ys 1
thượng_nguồn 1
down 1
ử@@ 1
_tượng 1
bắc_cầu 1
tá 1
era 1
cháo 1
văn_th@@ 1
ể_hoá 1
i7 1
chân_dung 1
cầm_quyền 1
bảo_mật 1
cúc_@@ 1
ng_tình 1
mọn 1
nhọ 1
góp_@@ 1
động_th@@ 1
quẹt 1
lab@@ 1
325 1
tinh_@@ 1
_động 1
7.0@@ 1
đôi_chút 1
gạch_@@ 1
xiêm 1
đại_số 1
soci@@ 1
ates 1
ẫn 1
row@@ 1
cõ@@ 1
òng_@@ 1
xâm_lăng 1
def@@ 1
stu@@ 1
per_@@ 1
hợp_phần 1
tiếp_chuyện 1
bad@@ 1
osh@@ 1
tủ@@ 1
doạ 1
quân_@@ 1
atas@@ 1
tân_dược 1
tại_ngũ 1
xâm_lấn 1
thục_@@ 1
man@@ 1
thing 1
change 1
_thuỷ 1
lắp_@@ 1
kí@@ 1
_túc_xá 1
qui_trình 1
ur 1
nhỏ_@@ 1
khẩu_@@ 1
sơn_@@ 1
wit@@ 1
ches 1
38.@@ 1
thuẫn 1
xích 1
iếng 1
mích 1
béo_@@ 1
4.4@@ 1
ff 1
đầu_t@@ 1
games 1
xi_@@ 1
vó 1
minh_@@ 1
84@@ 1
mor@@ 1
p_t@@ 1
lánh_@@ 1
né 1
rượt 1
ống_@@ 1
ộc_th@@ 1
sò 1
nhà_quản_lý 1
cầ@@ 1
1.9 1
caf@@ 1
ver@@ 1
sang_trọng 1
cum@@ 1
mic 1
tai_hoạ 1
dặn_dò 1
idae 1
ớm 1
thức_giấc 1
del 1
mười_mươi 1
chuyện_trò 1
ồng_tr@@ 1
t_tiên 1
ng_tiếng 1
ker@@ 1
uột 1
tiếp_t@@ 1
báu 1
dollar 1
for 1
hốt 1
nghẽn 1
tu_luyện 1
anh_tra 1
cào_@@ 1
thuần_chủng 1
biết_nghĩ 1
tàu_chiến 1
đếm 1
24,@@ 1
kir@@ 1
etr@@ 1
mex 1
đóm 1
búi 1
vit@@ 1
mộng_mơ 1
dao_lam 1
50m 1
đẹp_đẽ 1
ạt 1
láo 1
zur@@ 1
khoăn 1
nhà_lãnh_đạo 1
định_kì 1
nhú 1
n_trợ 1
chiến_trận 1
trậ@@ 1
thịnh_soạn 1
385 1
431 1
ỳ@@ 1
đầu_l@@ 1
ham@@ 1
imex 1
tiêm_chích 1
nguồn_@@ 1
gốc_@@ 1
i_thức 1
để_tâm 1
khói_hương 1
_thành_viên 1
nos 1
toàn_tập 1
bình_th@@ 1
722 1
tử_@@ 1
ngăn_@@ 1
n_trạng 1
nhỏ@@ 1
ặp 1
nis@@ 1
này_nọ 1
dầu_gội 1
phân_t@@ 1
phân_hoá 1
lưu_vực 1
sanh 1
lỗ@@ 1
beria 1
tườ@@ 1
lứ@@ 1
thà@@ 1
thừ@@ 1
ĩnh 1
zon@@ 1
ướt_đẫm 1
chi_phối 1
ers@@ 1
ghi_nhớ 1
xé@@ 1
mệnh 1
nề 1
lặp_đi_lặp_lại 1
làm_chi 1
tele@@ 1
series 1
toàn_@@ 1
hát_@@ 1
mửa 1
cãi_vã 1
cãi_cọ 1
đố@@ 1
70kg 1
khai_th@@ 1
ác_@@ 1
bớp 1
xí 1
bọng 1
nhan@@ 1
gió_@@ 1
ấc_@@ 1
kỹ_@@ 1
quyền_@@ 1
hạn_@@ 1
gas@@ 1
ality 1
itor@@ 1
was@@ 1
yar@@ 1
wanda 1
bận_bịu 1
giáo_hội 1
phát_hoả 1
hoạn 1
980 1
u_tối 1
download 1
không_@@ 1
lồi 1
luộ@@ 1
9.2016 1
quần_jean 1
đầu_bếp 1
sự_việc 1
a_tô 1
30/11 1
thuyề@@ 1
thủ_phủ 1
30mm 1
nguôi_ngoai 1
vợi 1
tức_thời 1
cá_nh@@ 1
khen_ngợi 1
phiền 1
bắp_tay 1
xic@@ 1
10,2 1
trung_t@@ 1
rét_@@ 1
t_t@@ 1
áng 1
chẩn 1
lộn_@@ 1
ruột 1
chăm_bón 1
nhe 1
giỏi_giang 1
khu_@@ 1
động_hoá 1
dai@@ 1
lánh_nạn 1
t_thể 1
yon@@ 1
31@@ 1
sê 1
kết_@@ 1
chủ_quan 1
430 1
o_tr@@ 1
syl@@ 1
182 1
5.7@@ 1
day@@ 1
660 1
poda 1
med@@ 1
nương 1
.000 1
8.500 1
rio 1
vẫy_@@ 1
ita 1
buồn_buồn 1
ầy 1
nạm 1
ace 1
nh_thể 1
ire 1
lờ@@ 1
tig@@ 1
angh@@ 1
yd 1
tes 1
y_học 1
ban_bố 1
pic@@ 1
ames 1
ith 1
lia 1
32,@@ 1
usa 1
thực_tập 1
tom@@ 1
nội_các 1
482 1
tiểu_t@@ 1
gây_@@ 1
475 1
điêu_khắc 1
ễnh 1
y_th@@ 1
oan 1
íu_@@ 1
chết_@@ 1
ce 1
khán 1
roll 1
ner 1
đâm_đầu 1
pom@@ 1
chiêm_ngưỡng 1
com@@ 1
quan_tài 1
thật_@@ 1
ian 1
land@@ 1
vỏ_chai 1
592 1
internet 1
tượng_hình 1
nghẹn_ngào 1
hình_chữ_nhật 1
phan@@ 1
chớp_@@ 1
529 1
ỉm 1
động_cơ 1
canh_@@ 1
hổ@@ 1
y_nguyên 1
điều_kinh 1
trái_tim 1
7/2017. 1
sát_@@ 1
linh_chi 1
ùn 1
dog 1
hành_quyết 1
one 1
cti@@ 1
nành 1
sáng_tỏ 1
got 1
muống 1
vĩ 1
illa 1
nã 1
cao_t@@ 1
_kh@@ 1
xương_cốt 1
trù@@ 1
căn_dặn 1
lạc_đà 1
zo@@ 1
tâu 1
nas@@ 1
ặn_@@ 1
pad 1
xoá@@ 1
tắ@@ 1
m_t@@ 1
từ_@@ 1
bry@@ 1
y_t@@ 1
ỏ_@@ 1
diệ@@ 1
swe@@ 1
kay@@ 1
785 1
bro@@ 1
động_vật_@@ 1
lệ_@@ 1
ghế_ngồi 1
chập 1
cano 1
eiro 1
lợi_@@ 1
ine@@ 1
son 1
ré 1
oh@@ 1
lướt 1
điều_chế 1
dạo 1
qu 1
đào_t@@ 1
ạo_@@ 1
súng_hơi 1
quen_biết 1
lạ_lẫm 1
thoạt 1
o_d@@ 1
pur 1
tạm_biệt 1
nhuận 1
lông_@@ 1
mus@@ 1
mart@@ 1
sắc_@@ 1
487 1
thúng 1
lụng 1
õ@@ 1
chị_em_@@ 1
world@@ 1
cầu_t@@ 1
58,@@ 1
302 1
wel@@ 1
yế@@ 1
den@@ 1
cuống_@@ 1
quít 1
vã 1
chật_chội 1
chật_hẹp 1
dân_t@@ 1
tiềm_@@ 1
vậ@@ 1
uốn_@@ 1
tat@@ 1
bệnh_lý 1
dưa_@@ 1
oả 1
wer@@ 1
12/2010 1
tự_nh@@ 1
ris@@ 1
thy@@ 1
bor 1
không_tài_nào 1
tam_@@ 1
bành 1
iss@@ 1
los 1
tuyệ@@ 1
vời 1
vui_nhộn 1
làm_th@@ 1
,_@@ 1
lệch 1
dge 1
hộ_lý 1
biogas 1
i_thể 1
tệ_hại 1
dấu_vết 1
bùa_@@ 1
128 1
ay_@@ 1
áy 1
vỏ_@@ 1
minh_hoạ 1
100@@ 1
đối_t@@ 1
ượng_t@@ 1
cung_điện 1
gil 1
bồ_@@ 1
ươn 1
lí_th@@ 1
khuỷu 1
stra@@ 1
lun@@ 1
ăn_làm 1
146 1
ere 1
ửng 1
thủ@@ 1
ile 1
5/2016 1
1.2018 1
tổng_t@@ 1
ập 1
ú@@ 1
hoa_đán 1
3/9 1
tập_trung_@@ 1
cal@@ 1
vin 1
chs 1
ves 1
u_h@@ 1
347 1
140@@ 1
champ@@ 1
aki@@ 1
tầm_@@ 1
phào 1
2.3 1
vio 1
nhè_nhẹ 1
3.6@@ 1
chấm_@@ 1
ghim 1
làm_trò 1
dit 1
inone 1
89@@ 1
gr 1
ong_mật 1
hoả_thiêu 1
òm_@@ 1
khênh 1
hữu_@@ 1
cười_cười 1
iếp_@@ 1
amo@@ 1
eno@@ 1
ack@@ 1
ry@@ 1
amaz@@ 1
chos@@ 1
pad@@ 1
oly@@ 1
hai@@ 1
inf@@ 1
nom@@ 1
ili@@ 1
chùn 1
đúp 1
lãm 1
ốt_@@ 1
zii 1
mé 1
thường_tình 1
ướn 1
tràn_ngập 1
địa_đạo 1
_thu 1
val 1
quân_lính 1
ngỏ 1
thí@@ 1
636 1
vec@@ 1
vương_@@ 1
xoa_dịu 1
đối_tượng_@@ 1
cher@@ 1
thăm_khám 1
ìa_@@ 1
vặn 1
một_hai 1
* 1
nhọc 1
bảo_vật 1
gánh_@@ 1
ằn_@@ 1
oại 1
hụt 1
ỡn 1
chưởng 1
fest 1
bổ_nhào 1
tuyệt_@@ 1
xảo 1
vez@@ 1
ov@@ 1
ành 1
5,7 1
quyết_đấu 1
lỏng 1
ới_t@@ 1
_hội 1
ngồ@@ 1
mắm_@@ 1
dượ@@ 1
coi_trọng 1
sĩ_diện 1
tự_@@ 1
hào_@@ 1
ngoạm 1
gạc 1
chính_giới 1
blue@@ 1
chip 1
cre@@ 1
bur@@ 1
ụng 1
7.000 1
ẳng_@@ 1
nguyệt 1
60,@@ 1
phích 1
ono@@ 1
eda 1
toạ 1
quốc_@@ 1
tric@@ 1
are 1
top 1
bỏ_qua 1
tah 1
thủng 1
tz 1
kor 1
cắp 1
giao_đấu 1
giao_liên 1
tại_@@ 1
h50 1
quin 1
224 1
578 1
cố_@@ 1
ur@@ 1
bet@@ 1
giấy_thấm 1
ngấm 1
mướt_@@ 1
khó_@@ 1
đại_t@@ 1
1948 1
hé@@ 1
court 1
nguyện_viên 1
dân_phố 1
8/8 1
xắn 1
quần_@@ 1
hiền_từ 1
đặc_t@@ 1
sc@@ 1
mã_tấu 1
lùng 1
ng_trắng 1
hùng_@@ 1
ias 1
tình_nghi 1
chem@@ 1
chuyên_cơ 1
3.5 1
iền_l@@ 1
iền 1
ester@@ 1
ont 1
isi 1
289 1
290 1
đánh_máy 1
rè@@ 1
ồm_@@ 1
rho@@ 1
aco@@ 1
157 1
vang 1
giam_@@ 1
649 1
thực_tại 1
xương_rồng 1
sạ@@ 1
.net 1
177 1
kiết_@@ 1
gii 1
tài_nghệ 1
217 1
mắ@@ 1
nhàn_rỗi 1
iếm 1
nie 1
trần_tình 1
đường_sinh 1
ại_@@ 1
quý_mến 1
dân_dụng 1
ngắn_ngủi 1
quan_@@ 1
thâm_nhập 1
mỏi_mắt 1
rộn_@@ 1
nhóm_họp 1
thảm_thiết 1
ríu_rít 1
lou@@ 1
bida 1
vàng_bạc 1
thường_@@ 1
m.@@ 1
atra 1
hiện_thời 1
răng_hàm 1
hat@@ 1
đèn_@@ 1
oàn_@@ 1
free 1
tổ_trưởng 1
cấy_ghép 1
seu@@ 1
viol@@ 1
lên_dây 1
cơ_số 1
nỗ@@ 1
tựu 1
chậm_chạp 1
kyo 1
thận_trọng 1
xuống_nước 1
48.@@ 1
thú@@ 1
bãi_@@ 1
ẽm 1
a_đổi 1
chán_ghét 1
chuyển_ngữ 1
thịnh_@@ 1
ượng_@@ 1
nhà_nhà 1
tằm 1
tối_@@ 1
yama 1
gos@@ 1
iko 1
_danh 1
xuống_dốc 1
phục_tùng 1
una 1
nghênh 1
ắt_@@ 1
ằng 1
giấ@@ 1
giải_cứu 1
cứu_mạng 1
pedi@@ 1
.org@@ 1
970 1
chìa 1
thực_dân 1
tí_@@ 1
rậm_rạp 1
439 1
ùn_ùn 1
dat@@ 1
xuất_ngũ 1
nấng 1
nhũ 1
khoanh_tay 1
miền@@ 1
vka 1
vợ_con 1
xoe 1
nhân_hoá 1
bà_xã 1
đau_ốm 1
mol 1
bầ@@ 1
trùm 1
ích_lợi 1
chiêu_đãi 1
giao_thức 1
680 1
gật_@@ 1
thở_dài 1
cấu_trúc 1
368 1
375 1
buff@@ 1
ett 1
pet 1
ends 1
well 1
sữ@@ 1
cỏ_cây 1
ồng_@@ 1
hiđ@@ 1
ric 1
nhân_công 1
xứng 1
sủi 1
huy_@@ 1
ào_@@ 1
ế_t@@ 1
gổ 1
khối_u 1
siêu_bền 1
nhân_đạo 1
bộ_đồ 1
ema 1
ực_t@@ 1
hình_th@@ 1
bắp_ngô 1
sau@@ 1
nồng_nặc 1
ym@@ 1
_tự 1
an_thần 1
tự_tại 1
_thể@@ 1
ợm 1
đê_biển 1
bài_t@@ 1
mani 1
_trình_@@ 1
né@@ 1
lớ@@ 1
gom_@@ 1
thành_niên 1
ama 1
gấu 1
thìa 1
gỗ@@ 1
chớp_mắt 1
nháy_mắt 1
sốt_vó 1
cep@@ 1
phái_đoàn 1
nhá 1
gạn 1
Ữ 1
